// Solution Adaptive Numerical Simulator (SANS)
// Copyright 2013-2019, Massachusetts Institute of Technology
// Licensed under The GNU Lesser General Public License, version 2.1
// See http://www.opensource.org/licenses/lgpl-2.1.php

#ifndef BOLTZMANN_VARIABLES_VELOCITY
#define BOLTZMANN_VARIABLES_VELOCITY

#if 0 
// 16 velocities
const double r = std::sqrt(3 + std::sqrt(6));
const double s = std::sqrt(3 - std::sqrt(6));
const double Wa = (5-2*std::sqrt(6))/48.;
const double Wb = (5+2*std::sqrt(6))/48.;
const double Wc = 1./48.;
const double weight[16] = { Wa, Wa, Wa, Wa,
                          Wb, Wb, Wb, Wb,
                          Wc, Wc, Wc, Wc,
                          Wc, Wc, Wc, Wc };
const double ew[16][3] = 
{  { r, r, Wa }, { -r, r, Wa}, { r, -r, Wa }, { -r, -r, Wa },
   { s, s, Wb }, { -s, s, Wb }, { s, -s,Wb }, { -s, -s, Wb },
   { r, s,Wc }, { -r, s,Wc }, { r, -s,Wc }, { -r, -s,Wc },
   { s, r,Wc }, { -s, r,Wc }, { s, -r,Wc }, { -s, -r,Wc } };
#endif //16
#if 0
// 64a - non-LB GH
#define NON_LB_GH
  const Real ew[64][3] =
  {{ -2.930637420257244,-2.930637420257244,1.268203425349718e-08 },{ -2.930637420257244,-1.981656756695843,1.085065866047626e-06 },
  { -2.930637420257244,-1.15719371244678,1.320291808049974e-05 },{ -2.930637420257244,-0.3811869902073221,4.200660320688303e-05 },
  { -2.930637420257244,0.3811869902073221,4.200660320688303e-05 },{ -2.930637420257244,1.15719371244678,1.320291808049974e-05 },
  { -2.930637420257244,1.981656756695843,1.085065866047626e-06 },{ -2.930637420257244,2.930637420257244,1.268203425349718e-08 },
  { -1.981656756695843,-2.930637420257244,1.085065866047626e-06 },{ -1.981656756695843,-1.981656756695843,9.283746677604305e-05 },
  { -1.981656756695843,-1.15719371244678,0.001129632317261939 },{ -1.981656756695843,-0.3811869902073221,0.003594055210490104 },
  { -1.981656756695843,0.3811869902073221,0.003594055210490104 },{ -1.981656756695843,1.15719371244678,0.001129632317261939 },
  { -1.981656756695843,1.981656756695843,9.283746677604305e-05 },{ -1.981656756695843,2.930637420257244,1.085065866047626e-06 },
  { -1.15719371244678,-2.930637420257244,1.320291808049974e-05 },{ -1.15719371244678,-1.981656756695843,0.001129632317261939 },
  { -1.15719371244678,-1.15719371244678,0.01374519594853778 },{ -1.15719371244678,-0.3811869902073221,0.04373192264699929 },
  { -1.15719371244678,0.3811869902073221,0.04373192264699929 },{ -1.15719371244678,1.15719371244678,0.01374519594853778 },
  { -1.15719371244678,1.981656756695843,0.001129632317261939 },{ -1.15719371244678,2.930637420257244,1.320291808049974e-05 },
  { -0.3811869902073221,-2.930637420257244,4.200660320688303e-05 },{ -0.3811869902073221,-1.981656756695843,0.003594055210490104 },
  { -0.3811869902073221,-1.15719371244678,0.04373192264699929 },{ -0.3811869902073221,-0.3811869902073221,0.1391381443788424 },
  { -0.3811869902073221,0.3811869902073221,0.1391381443788424 },{ -0.3811869902073221,1.15719371244678,0.04373192264699929 },
  { -0.3811869902073221,1.981656756695843,0.003594055210490104 },{ -0.3811869902073221,2.930637420257244,4.200660320688303e-05 },
  { 0.3811869902073221,-2.930637420257244,4.200660320688303e-05 },{ 0.3811869902073221,-1.981656756695843,0.003594055210490104 },
  { 0.3811869902073221,-1.15719371244678,0.04373192264699929 },{ 0.3811869902073221,-0.3811869902073221,0.1391381443788424 },
  { 0.3811869902073221,0.3811869902073221,0.1391381443788424 },{ 0.3811869902073221,1.15719371244678,0.04373192264699929 },
  { 0.3811869902073221,1.981656756695843,0.003594055210490104 },{ 0.3811869902073221,2.930637420257244,4.200660320688303e-05 },
  { 1.15719371244678,-2.930637420257244,1.320291808049974e-05 },{ 1.15719371244678,-1.981656756695843,0.001129632317261939 },
  { 1.15719371244678,-1.15719371244678,0.01374519594853778 },{ 1.15719371244678,-0.3811869902073221,0.04373192264699929 },
  { 1.15719371244678,0.3811869902073221,0.04373192264699929 },{ 1.15719371244678,1.15719371244678,0.01374519594853778 },
  { 1.15719371244678,1.981656756695843,0.001129632317261939 },{ 1.15719371244678,2.930637420257244,1.320291808049974e-05 },
  { 1.981656756695843,-2.930637420257244,1.085065866047626e-06 },{ 1.981656756695843,-1.981656756695843,9.283746677604305e-05 },
  { 1.981656756695843,-1.15719371244678,0.001129632317261939 },{ 1.981656756695843,-0.3811869902073221,0.003594055210490104 },
  { 1.981656756695843,0.3811869902073221,0.003594055210490104 },{ 1.981656756695843,1.15719371244678,0.001129632317261939 },
  { 1.981656756695843,1.981656756695843,9.283746677604305e-05 },{ 1.981656756695843,2.930637420257244,1.085065866047626e-06 },
  { 2.930637420257244,-2.930637420257244,1.268203425349718e-08 },{ 2.930637420257244,-1.981656756695843,1.085065866047626e-06 },
  { 2.930637420257244,-1.15719371244678,1.320291808049974e-05 },{ 2.930637420257244,-0.3811869902073221,4.200660320688303e-05 },
  { 2.930637420257244,0.3811869902073221,4.200660320688303e-05 },{ 2.930637420257244,1.15719371244678,1.320291808049974e-05 },
  { 2.930637420257244,1.981656756695843,1.085065866047626e-06 },{ 2.930637420257244,2.930637420257244,1.268203425349718e-08 }  };
#endif // 64 a
#if 0
// 441 velocities
const Real ew[441][3] = {
{ -5.65685424949, -5.65685424949, 6.242775723862914e-17},
{ -5.65685424949, -5.0911688245410005, 5.966022627161257e-15},
{ -5.65685424949, -4.525483399592, 3.396230475029525e-14},
{ -5.65685424949, -3.959797974643, 9.983266014796e-13},
{ -5.65685424949, -3.3941125496940003, 3.496094983432007e-12},
{ -5.65685424949, -2.8284271247450006, 4.6447618779550596e-11},
{ -5.65685424949, -2.2627416997960004, 7.351547635952336e-11},
{ -5.65685424949, -1.6970562748470002, 6.008379112729608e-10},
{ -5.65685424949, -1.1313708498980004, 5.850203462805623e-10},
{ -5.65685424949, -0.5656854249490006, 2.160997500310074e-09},
{ -5.65685424949, -8.881784197001252e-16, 9.509827720498721e-10},
{ -5.65685424949, 0.5656854249489998, 2.160997500310075e-09},
{ -5.65685424949, 1.1313708498979995, 5.85020346280563e-10},
{ -5.65685424949, 1.6970562748469993, 6.008379112729617e-10},
{ -5.65685424949, 2.262741699796, 7.351547635952346e-11},
{ -5.65685424949, 2.828427124744999, 4.644761877955081e-11},
{ -5.65685424949, 3.3941125496939994, 3.496094983432016e-12},
{ -5.65685424949, 3.959797974643, 9.983266014796e-13},
{ -5.65685424949, 4.525483399591999, 3.3962304750295366e-14},
{ -5.65685424949, 5.091168824541, 5.9660226271612795e-15},
{ -5.65685424949, 5.6568542494899985, 6.24277572386298e-17},
{ -5.0911688245410005, -5.65685424949, 5.966022627161258e-15},
{ -5.0911688245410005, -5.0911688245410005, 5.701538476185329e-13},
{ -5.0911688245410005, -4.525483399592, 3.2456696760112074e-12},
{ -5.0911688245410005, -3.959797974643, 9.540690483173094e-11},
{ -5.0911688245410005, -3.3941125496940003, 3.3411070172089903e-10},
{ -5.0911688245410005, -2.8284271247450006, 4.43885151211375e-09},
{ -5.0911688245410005, -2.2627416997960004, 7.025640753534236e-09},
{ -5.0911688245410005, -1.6970562748470002, 5.742017225140198e-08},
{ -5.0911688245410005, -1.1313708498980004, 5.5908537766592236e-08},
{ -5.0911688245410005, -0.5656854249490006, 2.0651967256820082e-07},
{ -5.0911688245410005, -8.881784197001252e-16, 9.088240531215759e-08},
{ -5.0911688245410005, 0.5656854249489998, 2.0651967256820092e-07},
{ -5.0911688245410005, 1.1313708498979995, 5.59085377665923e-08},
{ -5.0911688245410005, 1.6970562748469993, 5.7420172251402075e-08},
{ -5.0911688245410005, 2.262741699796, 7.0256407535342474e-09},
{ -5.0911688245410005, 2.828427124744999, 4.43885151211377e-09},
{ -5.0911688245410005, 3.3941125496939994, 3.341107017208999e-10},
{ -5.0911688245410005, 3.959797974643, 9.540690483173094e-11},
{ -5.0911688245410005, 4.525483399591999, 3.2456696760112187e-12},
{ -5.0911688245410005, 5.091168824541, 5.701538476185348e-13},
{ -5.0911688245410005, 5.6568542494899985, 5.966022627161322e-15},
{ -4.525483399592, -5.65685424949, 3.396230475029525e-14},
{ -4.525483399592, -5.0911688245410005, 3.2456696760112078e-12},
{ -4.525483399592, -4.525483399592, 1.8476366843404732e-11},
{ -4.525483399592, -3.959797974643, 5.431153349010055e-10},
{ -4.525483399592, -3.3941125496940003, 1.9019655440997476e-09},
{ -4.525483399592, -2.8284271247450006, 2.5268698631712592e-08},
{ -4.525483399592, -2.2627416997960004, 3.999430898088251e-08},
{ -4.525483399592, -1.6970562748470002, 3.2687126930064366e-07},
{ -4.525483399592, -1.1313708498980004, 3.1826610732716453e-07},
{ -4.525483399592, -0.5656854249490006, 1.1756381923126833e-06},
{ -4.525483399592, -8.881784197001252e-16, 5.173590746369658e-07},
{ -4.525483399592, 0.5656854249489998, 1.1756381923126838e-06},
{ -4.525483399592, 1.1313708498979995, 3.182661073271649e-07},
{ -4.525483399592, 1.6970562748469993, 3.268712693006442e-07},
{ -4.525483399592, 2.262741699796, 3.999430898088256e-08},
{ -4.525483399592, 2.828427124744999, 2.5268698631712714e-08},
{ -4.525483399592, 3.3941125496939994, 1.9019655440997526e-09},
{ -4.525483399592, 3.959797974643, 5.431153349010055e-10},
{ -4.525483399592, 4.525483399591999, 1.84763668434048e-11},
{ -4.525483399592, 5.091168824541, 3.2456696760112187e-12},
{ -4.525483399592, 5.6568542494899985, 3.396230475029561e-14},
{ -3.959797974643, -5.65685424949, 9.983266014796e-13},
{ -3.959797974643, -5.0911688245410005, 9.540690483173097e-11},
{ -3.959797974643, -4.525483399592, 5.431153349010055e-10},
{ -3.959797974643, -3.959797974643, 1.5964949684354444e-08},
{ -3.959797974643, -3.3941125496940003, 5.5908537766592315e-08},
{ -3.959797974643, -2.8284271247450006, 7.427768584695522e-07},
{ -3.959797974643, -2.2627416997960004, 1.1756381923126806e-06},
{ -3.959797974643, -1.6970562748470002, 9.608425747354435e-06},
{ -3.959797974643, -1.1313708498980004, 9.355475832107878e-06},
{ -3.959797974643, -0.5656854249490006, 3.455804574308044e-05},
{ -3.959797974643, -8.881784197001252e-16, 1.5207840884899389e-05},
{ -3.959797974643, 0.5656854249489998, 3.4558045743080456e-05},
{ -3.959797974643, 1.1313708498979995, 9.355475832107888e-06},
{ -3.959797974643, 1.6970562748469993, 9.60842574735445e-06},
{ -3.959797974643, 2.262741699796, 1.1756381923126825e-06},
{ -3.959797974643, 2.828427124744999, 7.427768584695556e-07},
{ -3.959797974643, 3.3941125496939994, 5.590853776659246e-08},
{ -3.959797974643, 3.959797974643, 1.5964949684354444e-08},
{ -3.959797974643, 4.525483399591999, 5.431153349010074e-10},
{ -3.959797974643, 5.091168824541, 9.540690483173129e-11},
{ -3.959797974643, 5.6568542494899985, 9.983266014796107e-13},
{ -3.3941125496940003, -5.65685424949, 3.496094983432007e-12},
{ -3.3941125496940003, -5.0911688245410005, 3.3411070172089903e-10},
{ -3.3941125496940003, -4.525483399592, 1.9019655440997476e-09},
{ -3.3941125496940003, -3.959797974643, 5.590853776659231e-08},
{ -3.3941125496940003, -3.3941125496940003, 1.9578919176060476e-07},
{ -3.3941125496940003, -2.8284271247450006, 2.601171244817171e-06},
{ -3.3941125496940003, -2.2627416997960004, 4.117032222104343e-06},
{ -3.3941125496940003, -1.6970562748470002, 3.3648276029326255e-05},
{ -3.3941125496940003, -1.1313708498980004, 3.2762456770936886e-05},
{ -3.3941125496940003, -0.5656854249490006, 0.00012102072626386504},
{ -3.3941125496940003, -8.881784197001252e-16, 5.3257176707231484e-05},
{ -3.3941125496940003, 0.5656854249489998, 0.00012102072626386508},
{ -3.3941125496940003, 1.1313708498979995, 3.276245677093692e-05},
{ -3.3941125496940003, 1.6970562748469993, 3.36482760293263e-05},
{ -3.3941125496940003, 2.262741699796, 4.117032222104349e-06},
{ -3.3941125496940003, 2.828427124744999, 2.601171244817183e-06},
{ -3.3941125496940003, 3.3941125496939994, 1.957891917606053e-07},
{ -3.3941125496940003, 3.959797974643, 5.590853776659231e-08},
{ -3.3941125496940003, 4.525483399591999, 1.9019655440997546e-09},
{ -3.3941125496940003, 5.091168824541, 3.341107017209002e-10},
{ -3.3941125496940003, 5.6568542494899985, 3.496094983432044e-12},
{ -2.8284271247450006, -5.65685424949, 4.6447618779550596e-11},
{ -2.8284271247450006, -5.0911688245410005, 4.438851512113749e-09},
{ -2.8284271247450006, -4.525483399592, 2.5268698631712592e-08},
{ -2.8284271247450006, -3.959797974643, 7.42776858469552e-07},
{ -2.8284271247450006, -3.3941125496940003, 2.6011712448171704e-06},
{ -2.8284271247450006, -2.8284271247450006, 3.455804574308034e-05},
{ -2.8284271247450006, -2.2627416997960004, 5.4697124666706776e-05},
{ -2.8284271247450006, -1.6970562748470002, 0.0004470365665137059},
{ -2.8284271247450006, -1.1313708498980004, 0.00043526795169739345},
{ -2.8284271247450006, -0.5656854249490006, 0.0016078294739035573},
{ -2.8284271247450006, -8.881784197001252e-16, 0.0007075520123724802},
{ -2.8284271247450006, 0.5656854249489998, 0.001607829473903558},
{ -2.8284271247450006, 1.1313708498979995, 0.00043526795169739394},
{ -2.8284271247450006, 1.6970562748469993, 0.0004470365665137066},
{ -2.8284271247450006, 2.262741699796, 5.469712466670685e-05},
{ -2.8284271247450006, 2.828427124744999, 3.4558045743080503e-05},
{ -2.8284271247450006, 3.3941125496939994, 2.601171244817177e-06},
{ -2.8284271247450006, 3.959797974643, 7.42776858469552e-07},
{ -2.8284271247450006, 4.525483399591999, 2.5268698631712675e-08},
{ -2.8284271247450006, 5.091168824541, 4.438851512113765e-09},
{ -2.8284271247450006, 5.6568542494899985, 4.644761877955109e-11},
{ -2.2627416997960004, -5.65685424949, 7.351547635952335e-11},
{ -2.2627416997960004, -5.0911688245410005, 7.025640753534237e-09},
{ -2.2627416997960004, -4.525483399592, 3.999430898088251e-08},
{ -2.2627416997960004, -3.959797974643, 1.1756381923126806e-06},
{ -2.2627416997960004, -3.3941125496940003, 4.117032222104343e-06},
{ -2.2627416997960004, -2.8284271247450006, 5.469712466670677e-05},
{ -2.2627416997960004, -2.2627416997960004, 8.657247198083573e-05},
{ -2.2627416997960004, -1.6970562748470002, 0.0007075520123724805},
{ -2.2627416997960004, -1.1313708498980004, 0.0006889251086248579},
{ -2.2627416997960004, -0.5656854249490006, 0.0025448096756026098},
{ -2.2627416997960004, -8.881784197001252e-16, 0.0011198856820966512},
{ -2.2627416997960004, 0.5656854249489998, 0.0025448096756026106},
{ -2.2627416997960004, 1.1313708498979995, 0.0006889251086248586},
{ -2.2627416997960004, 1.6970562748469993, 0.0007075520123724816},
{ -2.2627416997960004, 2.262741699796, 8.657247198083585e-05},
{ -2.2627416997960004, 2.828427124744999, 5.469712466670703e-05},
{ -2.2627416997960004, 3.3941125496939994, 4.117032222104354e-06},
{ -2.2627416997960004, 3.959797974643, 1.1756381923126806e-06},
{ -2.2627416997960004, 4.525483399591999, 3.999430898088264e-08},
{ -2.2627416997960004, 5.091168824541, 7.025640753534262e-09},
{ -2.2627416997960004, 5.6568542494899985, 7.351547635952413e-11},
{ -1.6970562748470002, -5.65685424949, 6.008379112729608e-10},
{ -1.6970562748470002, -5.0911688245410005, 5.742017225140198e-08},
{ -1.6970562748470002, -4.525483399592, 3.2687126930064366e-07},
{ -1.6970562748470002, -3.959797974643, 9.608425747354435e-06},
{ -1.6970562748470002, -3.3941125496940003, 3.364827602932625e-05},
{ -1.6970562748470002, -2.8284271247450006, 0.0004470365665137059},
{ -1.6970562748470002, -2.2627416997960004, 0.0007075520123724806},
{ -1.6970562748470002, -1.6970562748470002, 0.005782783357776471},
{ -1.6970562748470002, -1.1313708498980004, 0.0056305467064559885},
{ -1.6970562748470002, -0.5656854249490006, 0.020798588348917374},
{ -1.6970562748470002, -8.881784197001252e-16, 0.009152763573275574},
{ -1.6970562748470002, 0.5656854249489998, 0.02079858834891738},
{ -1.6970562748470002, 1.1313708498979995, 0.0056305467064559946},
{ -1.6970562748470002, 1.6970562748469993, 0.005782783357776481},
{ -1.6970562748470002, 2.262741699796, 0.0007075520123724815},
{ -1.6970562748470002, 2.828427124744999, 0.0004470365665137081},
{ -1.6970562748470002, 3.3941125496939994, 3.3648276029326336e-05},
{ -1.6970562748470002, 3.959797974643, 9.608425747354435e-06},
{ -1.6970562748470002, 4.525483399591999, 3.268712693006448e-07},
{ -1.6970562748470002, 5.091168824541, 5.742017225140218e-08},
{ -1.6970562748470002, 5.6568542494899985, 6.008379112729671e-10},
{ -1.1313708498980004, -5.65685424949, 5.850203462805623e-10},
{ -1.1313708498980004, -5.0911688245410005, 5.5908537766592236e-08},
{ -1.1313708498980004, -4.525483399592, 3.1826610732716453e-07},
{ -1.1313708498980004, -3.959797974643, 9.355475832107878e-06},
{ -1.1313708498980004, -3.3941125496940003, 3.2762456770936886e-05},
{ -1.1313708498980004, -2.8284271247450006, 0.00043526795169739356},
{ -1.1313708498980004, -2.2627416997960004, 0.000688925108624858},
{ -1.1313708498980004, -1.6970562748470002, 0.0056305467064559885},
{ -1.1313708498980004, -1.1313708498980004, 0.00548231781343655},
{ -1.1313708498980004, -0.5656854249490006, 0.020251047961091072},
{ -1.1313708498980004, -8.881784197001252e-16, 0.008911809349242643},
{ -1.1313708498980004, 0.5656854249489998, 0.020251047961091083},
{ -1.1313708498980004, 1.1313708498979995, 0.0054823178134365555},
{ -1.1313708498980004, 1.6970562748469993, 0.005630546706455997},
{ -1.1313708498980004, 2.262741699796, 0.000688925108624859},
{ -1.1313708498980004, 2.828427124744999, 0.00043526795169739556},
{ -1.1313708498980004, 3.3941125496939994, 3.276245677093697e-05},
{ -1.1313708498980004, 3.959797974643, 9.355475832107878e-06},
{ -1.1313708498980004, 4.525483399591999, 3.1826610732716565e-07},
{ -1.1313708498980004, 5.091168824541, 5.590853776659244e-08},
{ -1.1313708498980004, 5.6568542494899985, 5.850203462805685e-10},
{ -0.5656854249490006, -5.65685424949, 2.1609975003100744e-09},
{ -0.5656854249490006, -5.0911688245410005, 2.0651967256820082e-07},
{ -0.5656854249490006, -4.525483399592, 1.1756381923126833e-06},
{ -0.5656854249490006, -3.959797974643, 3.455804574308044e-05},
{ -0.5656854249490006, -3.3941125496940003, 0.00012102072626386504},
{ -0.5656854249490006, -2.8284271247450006, 0.0016078294739035573},
{ -0.5656854249490006, -2.2627416997960004, 0.0025448096756026093},
{ -0.5656854249490006, -1.6970562748470002, 0.020798588348917374},
{ -0.5656854249490006, -1.1313708498980004, 0.020251047961091076},
{ -0.5656854249490006, -0.5656854249490006, 0.07480502909139805},
{ -0.5656854249490006, -8.881784197001252e-16, 0.03291919306635091},
{ -0.5656854249490006, 0.5656854249489998, 0.07480502909139809},
{ -0.5656854249490006, 1.1313708498979995, 0.020251047961091093},
{ -0.5656854249490006, 1.6970562748469993, 0.020798588348917405},
{ -0.5656854249490006, 2.262741699796, 0.0025448096756026137},
{ -0.5656854249490006, 2.828427124744999, 0.001607829473903565},
{ -0.5656854249490006, 3.3941125496939994, 0.00012102072626386535},
{ -0.5656854249490006, 3.959797974643, 3.455804574308044e-05},
{ -0.5656854249490006, 4.525483399591999, 1.1756381923126874e-06},
{ -0.5656854249490006, 5.091168824541, 2.0651967256820156e-07},
{ -0.5656854249490006, 5.6568542494899985, 2.160997500310097e-09},
{ -8.881784197001252e-16, -5.65685424949, 9.509827720498721e-10},
{ -8.881784197001252e-16, -5.0911688245410005, 9.088240531215759e-08},
{ -8.881784197001252e-16, -4.525483399592, 5.173590746369658e-07},
{ -8.881784197001252e-16, -3.959797974643, 1.5207840884899389e-05},
{ -8.881784197001252e-16, -3.3941125496940003, 5.325717670723148e-05},
{ -8.881784197001252e-16, -2.8284271247450006, 0.0007075520123724803},
{ -8.881784197001252e-16, -2.2627416997960004, 0.0011198856820966512},
{ -8.881784197001252e-16, -1.6970562748470002, 0.009152763573275572},
{ -8.881784197001252e-16, -1.1313708498980004, 0.008911809349242643},
{ -8.881784197001252e-16, -0.5656854249490006, 0.03291919306635092},
{ -8.881784197001252e-16, -8.881784197001252e-16, 0.014486636597863436},
{ -8.881784197001252e-16, 0.5656854249489998, 0.03291919306635093},
{ -8.881784197001252e-16, 1.1313708498979995, 0.008911809349242652},
{ -8.881784197001252e-16, 1.6970562748469993, 0.009152763573275586},
{ -8.881784197001252e-16, 2.262741699796, 0.0011198856820966527},
{ -8.881784197001252e-16, 2.828427124744999, 0.0007075520123724835},
{ -8.881784197001252e-16, 3.3941125496939994, 5.325717670723162e-05},
{ -8.881784197001252e-16, 3.959797974643, 1.5207840884899389e-05},
{ -8.881784197001252e-16, 4.525483399591999, 5.173590746369676e-07},
{ -8.881784197001252e-16, 5.091168824541, 9.08824053121579e-08},
{ -8.881784197001252e-16, 5.6568542494899985, 9.50982772049882e-10},
{ 0.5656854249489998, -5.65685424949, 2.160997500310075e-09},
{ 0.5656854249489998, -5.0911688245410005, 2.0651967256820092e-07},
{ 0.5656854249489998, -4.525483399592, 1.1756381923126838e-06},
{ 0.5656854249489998, -3.959797974643, 3.4558045743080456e-05},
{ 0.5656854249489998, -3.3941125496940003, 0.00012102072626386508},
{ 0.5656854249489998, -2.8284271247450006, 0.001607829473903558},
{ 0.5656854249489998, -2.2627416997960004, 0.002544809675602611},
{ 0.5656854249489998, -1.6970562748470002, 0.02079858834891738},
{ 0.5656854249489998, -1.1313708498980004, 0.020251047961091083},
{ 0.5656854249489998, -0.5656854249490006, 0.07480502909139809},
{ 0.5656854249489998, -8.881784197001252e-16, 0.03291919306635093},
{ 0.5656854249489998, 0.5656854249489998, 0.07480502909139812},
{ 0.5656854249489998, 1.1313708498979995, 0.0202510479610911},
{ 0.5656854249489998, 1.6970562748469993, 0.020798588348917416},
{ 0.5656854249489998, 2.262741699796, 0.002544809675602614},
{ 0.5656854249489998, 2.828427124744999, 0.0016078294739035656},
{ 0.5656854249489998, 3.3941125496939994, 0.0001210207262638654},
{ 0.5656854249489998, 3.959797974643, 3.4558045743080456e-05},
{ 0.5656854249489998, 4.525483399591999, 1.1756381923126878e-06},
{ 0.5656854249489998, 5.091168824541, 2.0651967256820164e-07},
{ 0.5656854249489998, 5.6568542494899985, 2.160997500310098e-09},
{ 1.1313708498979995, -5.65685424949, 5.85020346280563e-10},
{ 1.1313708498979995, -5.0911688245410005, 5.590853776659229e-08},
{ 1.1313708498979995, -4.525483399592, 3.1826610732716485e-07},
{ 1.1313708498979995, -3.959797974643, 9.355475832107888e-06},
{ 1.1313708498979995, -3.3941125496940003, 3.276245677093692e-05},
{ 1.1313708498979995, -2.8284271247450006, 0.000435267951697394},
{ 1.1313708498979995, -2.2627416997960004, 0.0006889251086248587},
{ 1.1313708498979995, -1.6970562748470002, 0.0056305467064559946},
{ 1.1313708498979995, -1.1313708498980004, 0.0054823178134365555},
{ 1.1313708498979995, -0.5656854249490006, 0.020251047961091093},
{ 1.1313708498979995, -8.881784197001252e-16, 0.008911809349242652},
{ 1.1313708498979995, 0.5656854249489998, 0.0202510479610911},
{ 1.1313708498979995, 1.1313708498979995, 0.005482317813436562},
{ 1.1313708498979995, 1.6970562748469993, 0.005630546706456003},
{ 1.1313708498979995, 2.262741699796, 0.0006889251086248597},
{ 1.1313708498979995, 2.828427124744999, 0.000435267951697396},
{ 1.1313708498979995, 3.3941125496939994, 3.2762456770937e-05},
{ 1.1313708498979995, 3.959797974643, 9.355475832107888e-06},
{ 1.1313708498979995, 4.525483399591999, 3.1826610732716596e-07},
{ 1.1313708498979995, 5.091168824541, 5.5908537766592494e-08},
{ 1.1313708498979995, 5.6568542494899985, 5.850203462805692e-10},
{ 1.6970562748469993, -5.65685424949, 6.008379112729616e-10},
{ 1.6970562748469993, -5.0911688245410005, 5.742017225140207e-08},
{ 1.6970562748469993, -4.525483399592, 3.2687126930064414e-07},
{ 1.6970562748469993, -3.959797974643, 9.608425747354447e-06},
{ 1.6970562748469993, -3.3941125496940003, 3.36482760293263e-05},
{ 1.6970562748469993, -2.8284271247450006, 0.0004470365665137066},
{ 1.6970562748469993, -2.2627416997960004, 0.0007075520123724816},
{ 1.6970562748469993, -1.6970562748470002, 0.005782783357776481},
{ 1.6970562748469993, -1.1313708498980004, 0.005630546706455996},
{ 1.6970562748469993, -0.5656854249490006, 0.020798588348917405},
{ 1.6970562748469993, -8.881784197001252e-16, 0.009152763573275588},
{ 1.6970562748469993, 0.5656854249489998, 0.02079858834891741},
{ 1.6970562748469993, 1.1313708498979995, 0.005630546706456002},
{ 1.6970562748469993, 1.6970562748469993, 0.0057827833577764895},
{ 1.6970562748469993, 2.262741699796, 0.0007075520123724826},
{ 1.6970562748469993, 2.828427124744999, 0.0004470365665137088},
{ 1.6970562748469993, 3.3941125496939994, 3.364827602932639e-05},
{ 1.6970562748469993, 3.959797974643, 9.608425747354447e-06},
{ 1.6970562748469993, 4.525483399591999, 3.2687126930064525e-07},
{ 1.6970562748469993, 5.091168824541, 5.7420172251402266e-08},
{ 1.6970562748469993, 5.6568542494899985, 6.00837911272968e-10},
{ 2.262741699796, -5.65685424949, 7.351547635952345e-11},
{ 2.262741699796, -5.0911688245410005, 7.025640753534247e-09},
{ 2.262741699796, -4.525483399592, 3.9994308980882556e-08},
{ 2.262741699796, -3.959797974643, 1.1756381923126823e-06},
{ 2.262741699796, -3.3941125496940003, 4.117032222104349e-06},
{ 2.262741699796, -2.8284271247450006, 5.469712466670685e-05},
{ 2.262741699796, -2.2627416997960004, 8.657247198083585e-05},
{ 2.262741699796, -1.6970562748470002, 0.0007075520123724815},
{ 2.262741699796, -1.1313708498980004, 0.0006889251086248588},
{ 2.262741699796, -0.5656854249490006, 0.0025448096756026137},
{ 2.262741699796, -8.881784197001252e-16, 0.0011198856820966527},
{ 2.262741699796, 0.5656854249489998, 0.0025448096756026145},
{ 2.262741699796, 1.1313708498979995, 0.0006889251086248596},
{ 2.262741699796, 1.6970562748469993, 0.0007075520123724826},
{ 2.262741699796, 2.262741699796, 8.657247198083598e-05},
{ 2.262741699796, 2.828427124744999, 5.469712466670711e-05},
{ 2.262741699796, 3.3941125496939994, 4.11703222210436e-06},
{ 2.262741699796, 3.959797974643, 1.1756381923126823e-06},
{ 2.262741699796, 4.525483399591999, 3.99943089808827e-08},
{ 2.262741699796, 5.091168824541, 7.0256407535342714e-09},
{ 2.262741699796, 5.6568542494899985, 7.351547635952424e-11},
{ 2.828427124744999, -5.65685424949, 4.6447618779550816e-11},
{ 2.828427124744999, -5.0911688245410005, 4.43885151211377e-09},
{ 2.828427124744999, -4.525483399592, 2.526869863171271e-08},
{ 2.828427124744999, -3.959797974643, 7.427768584695556e-07},
{ 2.828427124744999, -3.3941125496940003, 2.6011712448171827e-06},
{ 2.828427124744999, -2.8284271247450006, 3.4558045743080503e-05},
{ 2.828427124744999, -2.2627416997960004, 5.469712466670703e-05},
{ 2.828427124744999, -1.6970562748470002, 0.0004470365665137081},
{ 2.828427124744999, -1.1313708498980004, 0.0004352679516973956},
{ 2.828427124744999, -0.5656854249490006, 0.001607829473903565},
{ 2.828427124744999, -8.881784197001252e-16, 0.0007075520123724835},
{ 2.828427124744999, 0.5656854249489998, 0.0016078294739035656},
{ 2.828427124744999, 1.1313708498979995, 0.000435267951697396},
{ 2.828427124744999, 1.6970562748469993, 0.0004470365665137088},
{ 2.828427124744999, 2.262741699796, 5.4697124666707115e-05},
{ 2.828427124744999, 2.828427124744999, 3.4558045743080666e-05},
{ 2.828427124744999, 3.3941125496939994, 2.60117124481719e-06},
{ 2.828427124744999, 3.959797974643, 7.427768584695556e-07},
{ 2.828427124744999, 4.525483399591999, 2.5268698631712797e-08},
{ 2.828427124744999, 5.091168824541, 4.438851512113786e-09},
{ 2.828427124744999, 5.6568542494899985, 4.644761877955131e-11},
{ 3.3941125496939994, -5.65685424949, 3.496094983432016e-12},
{ 3.3941125496939994, -5.0911688245410005, 3.341107017208999e-10},
{ 3.3941125496939994, -4.525483399592, 1.9019655440997526e-09},
{ 3.3941125496939994, -3.959797974643, 5.590853776659246e-08},
{ 3.3941125496939994, -3.3941125496940003, 1.957891917606053e-07},
{ 3.3941125496939994, -2.8284271247450006, 2.601171244817177e-06},
{ 3.3941125496939994, -2.2627416997960004, 4.117032222104354e-06},
{ 3.3941125496939994, -1.6970562748470002, 3.364827602932634e-05},
{ 3.3941125496939994, -1.1313708498980004, 3.276245677093697e-05},
{ 3.3941125496939994, -0.5656854249490006, 0.00012102072626386536},
{ 3.3941125496939994, -8.881784197001252e-16, 5.325717670723162e-05},
{ 3.3941125496939994, 0.5656854249489998, 0.0001210207262638654},
{ 3.3941125496939994, 1.1313708498979995, 3.2762456770937e-05},
{ 3.3941125496939994, 1.6970562748469993, 3.364827602932639e-05},
{ 3.3941125496939994, 2.262741699796, 4.11703222210436e-06},
{ 3.3941125496939994, 2.828427124744999, 2.60117124481719e-06},
{ 3.3941125496939994, 3.3941125496939994, 1.957891917606058e-07},
{ 3.3941125496939994, 3.959797974643, 5.590853776659246e-08},
{ 3.3941125496939994, 4.525483399591999, 1.9019655440997596e-09},
{ 3.3941125496939994, 5.091168824541, 3.341107017209011e-10},
{ 3.3941125496939994, 5.6568542494899985, 3.496094983432053e-12},
{ 3.959797974643, -5.65685424949, 9.983266014796e-13},
{ 3.959797974643, -5.0911688245410005, 9.540690483173097e-11},
{ 3.959797974643, -4.525483399592, 5.431153349010055e-10},
{ 3.959797974643, -3.959797974643, 1.5964949684354444e-08},
{ 3.959797974643, -3.3941125496940003, 5.5908537766592315e-08},
{ 3.959797974643, -2.8284271247450006, 7.427768584695522e-07},
{ 3.959797974643, -2.2627416997960004, 1.1756381923126806e-06},
{ 3.959797974643, -1.6970562748470002, 9.608425747354435e-06},
{ 3.959797974643, -1.1313708498980004, 9.355475832107878e-06},
{ 3.959797974643, -0.5656854249490006, 3.455804574308044e-05},
{ 3.959797974643, -8.881784197001252e-16, 1.5207840884899389e-05},
{ 3.959797974643, 0.5656854249489998, 3.4558045743080456e-05},
{ 3.959797974643, 1.1313708498979995, 9.355475832107888e-06},
{ 3.959797974643, 1.6970562748469993, 9.60842574735445e-06},
{ 3.959797974643, 2.262741699796, 1.1756381923126825e-06},
{ 3.959797974643, 2.828427124744999, 7.427768584695556e-07},
{ 3.959797974643, 3.3941125496939994, 5.590853776659246e-08},
{ 3.959797974643, 3.959797974643, 1.5964949684354444e-08},
{ 3.959797974643, 4.525483399591999, 5.431153349010074e-10},
{ 3.959797974643, 5.091168824541, 9.540690483173129e-11},
{ 3.959797974643, 5.6568542494899985, 9.983266014796107e-13},
{ 4.525483399591999, -5.65685424949, 3.396230475029537e-14},
{ 4.525483399591999, -5.0911688245410005, 3.2456696760112187e-12},
{ 4.525483399591999, -4.525483399592, 1.84763668434048e-11},
{ 4.525483399591999, -3.959797974643, 5.431153349010074e-10},
{ 4.525483399591999, -3.3941125496940003, 1.9019655440997542e-09},
{ 4.525483399591999, -2.8284271247450006, 2.526869863171268e-08},
{ 4.525483399591999, -2.2627416997960004, 3.999430898088264e-08},
{ 4.525483399591999, -1.6970562748470002, 3.2687126930064483e-07},
{ 4.525483399591999, -1.1313708498980004, 3.1826610732716565e-07},
{ 4.525483399591999, -0.5656854249490006, 1.1756381923126874e-06},
{ 4.525483399591999, -8.881784197001252e-16, 5.173590746369676e-07},
{ 4.525483399591999, 0.5656854249489998, 1.1756381923126878e-06},
{ 4.525483399591999, 1.1313708498979995, 3.1826610732716596e-07},
{ 4.525483399591999, 1.6970562748469993, 3.268712693006453e-07},
{ 4.525483399591999, 2.262741699796, 3.99943089808827e-08},
{ 4.525483399591999, 2.828427124744999, 2.5268698631712797e-08},
{ 4.525483399591999, 3.3941125496939994, 1.901965544099759e-09},
{ 4.525483399591999, 3.959797974643, 5.431153349010074e-10},
{ 4.525483399591999, 4.525483399591999, 1.8476366843404862e-11},
{ 4.525483399591999, 5.091168824541, 3.2456696760112304e-12},
{ 4.525483399591999, 5.6568542494899985, 3.396230475029573e-14},
{ 5.091168824541, -5.65685424949, 5.9660226271612795e-15},
{ 5.091168824541, -5.0911688245410005, 5.701538476185348e-13},
{ 5.091168824541, -4.525483399592, 3.245669676011219e-12},
{ 5.091168824541, -3.959797974643, 9.540690483173129e-11},
{ 5.091168824541, -3.3941125496940003, 3.3411070172090016e-10},
{ 5.091168824541, -2.8284271247450006, 4.438851512113765e-09},
{ 5.091168824541, -2.2627416997960004, 7.0256407535342615e-09},
{ 5.091168824541, -1.6970562748470002, 5.742017225140218e-08},
{ 5.091168824541, -1.1313708498980004, 5.5908537766592434e-08},
{ 5.091168824541, -0.5656854249490006, 2.0651967256820156e-07},
{ 5.091168824541, -8.881784197001252e-16, 9.088240531215792e-08},
{ 5.091168824541, 0.5656854249489998, 2.0651967256820164e-07},
{ 5.091168824541, 1.1313708498979995, 5.59085377665925e-08},
{ 5.091168824541, 1.6970562748469993, 5.7420172251402266e-08},
{ 5.091168824541, 2.262741699796, 7.025640753534272e-09},
{ 5.091168824541, 2.828427124744999, 4.438851512113786e-09},
{ 5.091168824541, 3.3941125496939994, 3.3411070172090104e-10},
{ 5.091168824541, 3.959797974643, 9.540690483173129e-11},
{ 5.091168824541, 4.525483399591999, 3.24566967601123e-12},
{ 5.091168824541, 5.091168824541, 5.701538476185369e-13},
{ 5.091168824541, 5.6568542494899985, 5.9660226271613426e-15},
{ 5.6568542494899985, -5.65685424949, 6.24277572386298e-17},
{ 5.6568542494899985, -5.0911688245410005, 5.966022627161321e-15},
{ 5.6568542494899985, -4.525483399592, 3.396230475029561e-14},
{ 5.6568542494899985, -3.959797974643, 9.983266014796105e-13},
{ 5.6568542494899985, -3.3941125496940003, 3.4960949834320432e-12},
{ 5.6568542494899985, -2.8284271247450006, 4.644761877955108e-11},
{ 5.6568542494899985, -2.2627416997960004, 7.351547635952413e-11},
{ 5.6568542494899985, -1.6970562748470002, 6.008379112729671e-10},
{ 5.6568542494899985, -1.1313708498980004, 5.850203462805684e-10},
{ 5.6568542494899985, -0.5656854249490006, 2.160997500310097e-09},
{ 5.6568542494899985, -8.881784197001252e-16, 9.50982772049882e-10},
{ 5.6568542494899985, 0.5656854249489998, 2.1609975003100975e-09},
{ 5.6568542494899985, 1.1313708498979995, 5.850203462805691e-10},
{ 5.6568542494899985, 1.6970562748469993, 6.008379112729681e-10},
{ 5.6568542494899985, 2.262741699796, 7.351547635952423e-11},
{ 5.6568542494899985, 2.828427124744999, 4.644761877955131e-11},
{ 5.6568542494899985, 3.3941125496939994, 3.496094983432053e-12},
{ 5.6568542494899985, 3.959797974643, 9.983266014796105e-13},
{ 5.6568542494899985, 4.525483399591999, 3.3962304750295726e-14},
{ 5.6568542494899985, 5.091168824541, 5.9660226271613426e-15},
{ 5.6568542494899985, 5.6568542494899985, 6.242775723863046e-17},
};
#endif //441
#if 0
const Real ew[841][3] = {
{ -5.65685424949, -5.65685424949, 3.1850896550320993e-17},
{ -5.65685424949, -5.252793231669286, 1.3194535032502126e-15},
{ -5.65685424949, -4.848732213848572, 3.808383084152654e-15},
{ -5.65685424949, -4.4446711960278575, 6.639255887835477e-14},
{ -5.65685424949, -4.040610178207143, 1.6128808699715807e-13},
{ -5.65685424949, -3.6365491603864286, 1.7386967330381007e-12},
{ -5.65685424949, -3.2324881425657144, 2.611857561586385e-12},
{ -5.65685424949, -2.828427124745, 2.3697764683444214e-11},
{ -5.65685424949, -2.424366106924286, 2.996190205600176e-11},
{ -5.65685424949, -2.0203050891035716, 1.681009009498059e-10},
{ -5.65685424949, -1.616244071282857, 1.3142403768859177e-10},
{ -5.65685424949, -1.2121830534621427, 6.206000601799839e-10},
{ -5.65685424949, -0.8081220356414285, 4.0836914851209667e-10},
{ -5.65685424949, -0.40406101782071424, 1.1924294665596914e-09},
{ -5.65685424949, 0.0, 4.851952918621796e-10},
{ -5.65685424949, 0.40406101782071424, 1.1924294665596914e-09},
{ -5.65685424949, 0.8081220356414285, 4.0836914851209667e-10},
{ -5.65685424949, 1.2121830534621427, 6.206000601799839e-10},
{ -5.65685424949, 1.616244071282857, 1.3142403768859177e-10},
{ -5.65685424949, 2.020305089103571, 1.6810090094980605e-10},
{ -5.65685424949, 2.4243661069242863, 2.996190205600173e-11},
{ -5.65685424949, 2.8284271247450006, 2.369776468344418e-11},
{ -5.65685424949, 3.232488142565715, 2.611857561586382e-12},
{ -5.65685424949, 3.636549160386429, 1.7386967330380975e-12},
{ -5.65685424949, 4.040610178207143, 1.6128808699715807e-13},
{ -5.65685424949, 4.4446711960278575, 6.639255887835477e-14},
{ -5.65685424949, 4.848732213848572, 3.808383084152654e-15},
{ -5.65685424949, 5.252793231669286, 1.3194535032502126e-15},
{ -5.65685424949, 5.65685424949, 3.1850896550320993e-17},
{ -5.252793231669286, -5.65685424949, 1.3194535032502126e-15},
{ -5.252793231669286, -5.252793231669286, 5.46596088586936e-14},
{ -5.252793231669286, -4.848732213848572, 1.577658699234771e-13},
{ -5.252793231669286, -4.4446711960278575, 2.7503745228455224e-12},
{ -5.252793231669286, -4.040610178207143, 6.681511494808473e-12},
{ -5.252793231669286, -3.6365491603864286, 7.202715602910404e-11},
{ -5.252793231669286, -3.2324881425657144, 1.0819866888773599e-10},
{ -5.252793231669286, -2.828427124745, 9.817023072292297e-10},
{ -5.252793231669286, -2.424366106924286, 1.2412001203599666e-09},
{ -5.252793231669286, -2.0203050891035716, 6.963738754019566e-09},
{ -5.252793231669286, -1.616244071282857, 5.444365017026586e-09},
{ -5.252793231669286, -1.2121830534621427, 2.570894424362821e-08},
{ -5.252793231669286, -0.8081220356414285, 1.691707807258449e-08},
{ -5.252793231669286, -0.40406101782071424, 4.9397518043023836e-08},
{ -5.252793231669286, 0.0, 2.009967369667685e-08},
{ -5.252793231669286, 0.40406101782071424, 4.9397518043023836e-08},
{ -5.252793231669286, 0.8081220356414285, 1.691707807258449e-08},
{ -5.252793231669286, 1.2121830534621427, 2.570894424362821e-08},
{ -5.252793231669286, 1.616244071282857, 5.444365017026586e-09},
{ -5.252793231669286, 2.020305089103571, 6.9637387540195715e-09},
{ -5.252793231669286, 2.4243661069242863, 1.2412001203599658e-09},
{ -5.252793231669286, 2.8284271247450006, 9.817023072292282e-10},
{ -5.252793231669286, 3.232488142565715, 1.0819866888773589e-10},
{ -5.252793231669286, 3.636549160386429, 7.202715602910392e-11},
{ -5.252793231669286, 4.040610178207143, 6.681511494808473e-12},
{ -5.252793231669286, 4.4446711960278575, 2.7503745228455224e-12},
{ -5.252793231669286, 4.848732213848572, 1.577658699234771e-13},
{ -5.252793231669286, 5.252793231669286, 5.46596088586936e-14},
{ -5.252793231669286, 5.65685424949, 1.3194535032502126e-15},
{ -4.848732213848572, -5.65685424949, 3.808383084152654e-15},
{ -4.848732213848572, -5.252793231669286, 1.5776586992347713e-13},
{ -4.848732213848572, -4.848732213848572, 4.553649437385746e-13},
{ -4.848732213848572, -4.4446711960278575, 7.938498614833721e-12},
{ -4.848732213848572, -4.040610178207143, 1.928507165331671e-11},
{ -4.848732213848572, -3.6365491603864286, 2.078944062410404e-10},
{ -4.848732213848572, -3.2324881425657144, 3.1229746202109785e-10},
{ -4.848732213848572, -2.828427124745, 2.8335204319939172e-09},
{ -4.848732213848572, -2.424366106924286, 3.5825177096299265e-09},
{ -4.848732213848572, -2.0203050891035716, 2.0099673696676827e-08},
{ -4.848732213848572, -1.616244071282857, 1.5714254108782052e-08},
{ -4.848732213848572, -1.2121830534621427, 7.420459161893671e-08},
{ -4.848732213848572, -0.8081220356414285, 4.882833218921174e-08},
{ -4.848732213848572, -0.40406101782071424, 1.4257771998086297e-07},
{ -4.848732213848572, 0.0, 5.8014365125298566e-08},
{ -4.848732213848572, 0.40406101782071424, 1.4257771998086297e-07},
{ -4.848732213848572, 0.8081220356414285, 4.882833218921174e-08},
{ -4.848732213848572, 1.2121830534621427, 7.420459161893671e-08},
{ -4.848732213848572, 1.616244071282857, 1.5714254108782052e-08},
{ -4.848732213848572, 2.020305089103571, 2.0099673696676846e-08},
{ -4.848732213848572, 2.4243661069242863, 3.5825177096299236e-09},
{ -4.848732213848572, 2.8284271247450006, 2.8335204319939135e-09},
{ -4.848732213848572, 3.232488142565715, 3.1229746202109754e-10},
{ -4.848732213848572, 3.636549160386429, 2.0789440624104003e-10},
{ -4.848732213848572, 4.040610178207143, 1.928507165331671e-11},
{ -4.848732213848572, 4.4446711960278575, 7.938498614833721e-12},
{ -4.848732213848572, 4.848732213848572, 4.553649437385746e-13},
{ -4.848732213848572, 5.252793231669286, 1.5776586992347713e-13},
{ -4.848732213848572, 5.65685424949, 3.808383084152654e-15},
{ -4.4446711960278575, -5.65685424949, 6.639255887835477e-14},
{ -4.4446711960278575, -5.252793231669286, 2.7503745228455228e-12},
{ -4.4446711960278575, -4.848732213848572, 7.938498614833721e-12},
{ -4.4446711960278575, -4.4446711960278575, 1.383939653771341e-10},
{ -4.4446711960278575, -4.040610178207143, 3.36201801899611e-10},
{ -4.4446711960278575, -3.6365491603864286, 3.6242786772880285e-09},
{ -4.4446711960278575, -3.2324881425657144, 5.44436501702658e-09},
{ -4.4446711960278575, -2.828427124745, 4.9397518043023816e-08},
{ -4.4446711960278575, -2.424366106924286, 6.24549875140186e-08},
{ -4.4446711960278575, -2.0203050891035716, 3.5040297676336505e-07},
{ -4.4446711960278575, -1.616244071282857, 2.7395078648682523e-07},
{ -4.4446711960278575, -1.2121830534621427, 1.2936284531367405e-06},
{ -4.4446711960278575, -0.8081220356414285, 8.512373488092516e-07},
{ -4.4446711960278575, -0.40406101782071424, 2.485595450720574e-06},
{ -4.4446711960278575, 0.0, 1.0113799130133323e-06},
{ -4.4446711960278575, 0.40406101782071424, 2.485595450720574e-06},
{ -4.4446711960278575, 0.8081220356414285, 8.512373488092516e-07},
{ -4.4446711960278575, 1.2121830534621427, 1.2936284531367405e-06},
{ -4.4446711960278575, 1.616244071282857, 2.7395078648682523e-07},
{ -4.4446711960278575, 2.020305089103571, 3.504029767633654e-07},
{ -4.4446711960278575, 2.4243661069242863, 6.245498751401853e-08},
{ -4.4446711960278575, 2.8284271247450006, 4.939751804302375e-08},
{ -4.4446711960278575, 3.232488142565715, 5.444365017026575e-09},
{ -4.4446711960278575, 3.636549160386429, 3.624278677288022e-09},
{ -4.4446711960278575, 4.040610178207143, 3.36201801899611e-10},
{ -4.4446711960278575, 4.4446711960278575, 1.383939653771341e-10},
{ -4.4446711960278575, 4.848732213848572, 7.938498614833721e-12},
{ -4.4446711960278575, 5.252793231669286, 2.7503745228455228e-12},
{ -4.4446711960278575, 5.65685424949, 6.639255887835477e-14},
{ -4.040610178207143, -5.65685424949, 1.6128808699715804e-13},
{ -4.040610178207143, -5.252793231669286, 6.681511494808473e-12},
{ -4.040610178207143, -4.848732213848572, 1.928507165331671e-11},
{ -4.040610178207143, -4.4446711960278575, 3.36201801899611e-10},
{ -4.040610178207143, -4.040610178207143, 8.167382970241902e-10},
{ -4.040610178207143, -3.6365491603864286, 8.804495330198092e-09},
{ -4.040610178207143, -3.2324881425657144, 1.3226048722106836e-08},
{ -4.040610178207143, -2.828427124745, 1.200018695192117e-07},
{ -4.040610178207143, -2.424366106924286, 1.5172250670476143e-07},
{ -4.040610178207143, -2.0203050891035716, 8.512373488092505e-07},
{ -4.040610178207143, -1.616244071282857, 6.655113017225803e-07},
{ -4.040610178207143, -1.2121830534621427, 3.142624143675541e-06},
{ -4.040610178207143, -0.8081220356414285, 2.067919144697062e-06},
{ -4.040610178207143, -0.40406101782071424, 6.038281127710235e-06},
{ -4.040610178207143, 0.0, 2.456955028592125e-06},
{ -4.040610178207143, 0.40406101782071424, 6.038281127710235e-06},
{ -4.040610178207143, 0.8081220356414285, 2.067919144697062e-06},
{ -4.040610178207143, 1.2121830534621427, 3.142624143675541e-06},
{ -4.040610178207143, 1.616244071282857, 6.655113017225803e-07},
{ -4.040610178207143, 2.020305089103571, 8.512373488092512e-07},
{ -4.040610178207143, 2.4243661069242863, 1.517225067047613e-07},
{ -4.040610178207143, 2.8284271247450006, 1.2000186951921155e-07},
{ -4.040610178207143, 3.232488142565715, 1.3226048722106822e-08},
{ -4.040610178207143, 3.636549160386429, 8.804495330198078e-09},
{ -4.040610178207143, 4.040610178207143, 8.167382970241902e-10},
{ -4.040610178207143, 4.4446711960278575, 3.36201801899611e-10},
{ -4.040610178207143, 4.848732213848572, 1.928507165331671e-11},
{ -4.040610178207143, 5.252793231669286, 6.681511494808473e-12},
{ -4.040610178207143, 5.65685424949, 1.6128808699715804e-13},
{ -3.6365491603864286, -5.65685424949, 1.7386967330381007e-12},
{ -3.6365491603864286, -5.252793231669286, 7.202715602910405e-11},
{ -3.6365491603864286, -4.848732213848572, 2.0789440624104042e-10},
{ -3.6365491603864286, -4.4446711960278575, 3.624278677288028e-09},
{ -3.6365491603864286, -4.040610178207143, 8.80449533019809e-09},
{ -3.6365491603864286, -3.6365491603864286, 9.491306860707184e-08},
{ -3.6365491603864286, -3.2324881425657144, 1.4257771998086318e-07},
{ -3.6365491603864286, -2.828427124745, 1.293628453136742e-06},
{ -3.6365491603864286, -2.424366106924286, 1.6355791158994173e-06},
{ -3.6365491603864286, -2.0203050891035716, 9.176397494507681e-06},
{ -3.6365491603864286, -1.616244071282857, 7.174257861495827e-06},
{ -3.6365491603864286, -1.2121830534621427, 3.387770562293048e-05},
{ -3.6365491603864286, -0.8081220356414285, 2.2292311403848935e-05},
{ -3.6365491603864286, -0.40406101782071424, 6.509308818388054e-05},
{ -3.6365491603864286, 0.0, 2.6486145139224905e-05},
{ -3.6365491603864286, 0.40406101782071424, 6.509308818388054e-05},
{ -3.6365491603864286, 0.8081220356414285, 2.2292311403848935e-05},
{ -3.6365491603864286, 1.2121830534621427, 3.387770562293048e-05},
{ -3.6365491603864286, 1.616244071282857, 7.174257861495827e-06},
{ -3.6365491603864286, 2.020305089103571, 9.176397494507688e-06},
{ -3.6365491603864286, 2.4243661069242863, 1.6355791158994158e-06},
{ -3.6365491603864286, 2.8284271247450006, 1.2936284531367403e-06},
{ -3.6365491603864286, 3.232488142565715, 1.4257771998086305e-07},
{ -3.6365491603864286, 3.636549160386429, 9.491306860707168e-08},
{ -3.6365491603864286, 4.040610178207143, 8.80449533019809e-09},
{ -3.6365491603864286, 4.4446711960278575, 3.624278677288028e-09},
{ -3.6365491603864286, 4.848732213848572, 2.0789440624104042e-10},
{ -3.6365491603864286, 5.252793231669286, 7.202715602910405e-11},
{ -3.6365491603864286, 5.65685424949, 1.7386967330381007e-12},
{ -3.2324881425657144, -5.65685424949, 2.611857561586385e-12},
{ -3.2324881425657144, -5.252793231669286, 1.08198668887736e-10},
{ -3.2324881425657144, -4.848732213848572, 3.122974620210979e-10},
{ -3.2324881425657144, -4.4446711960278575, 5.44436501702658e-09},
{ -3.2324881425657144, -4.040610178207143, 1.3226048722106836e-08},
{ -3.2324881425657144, -3.6365491603864286, 1.4257771998086318e-07},
{ -3.2324881425657144, -3.2324881425657144, 2.141792119175756e-07},
{ -3.2324881425657144, -2.828427124745, 1.943279234961591e-06},
{ -3.2324881425657144, -2.424366106924286, 2.4569550285921284e-06},
{ -3.2324881425657144, -2.0203050891035716, 1.3784717443089045e-05},
{ -3.2324881425657144, -1.616244071282857, 1.0777117877006921e-05},
{ -3.2324881425657144, -1.2121830534621427, 5.089084250238228e-05},
{ -3.2324881425657144, -0.8081220356414285, 3.3487347735244956e-05},
{ -3.2324881425657144, -0.40406101782071424, 9.778236270278434e-05},
{ -3.2324881425657144, 0.0, 3.97872942098886e-05},
{ -3.2324881425657144, 0.40406101782071424, 9.778236270278434e-05},
{ -3.2324881425657144, 0.8081220356414285, 3.3487347735244956e-05},
{ -3.2324881425657144, 1.2121830534621427, 5.089084250238228e-05},
{ -3.2324881425657144, 1.616244071282857, 1.0777117877006921e-05},
{ -3.2324881425657144, 2.020305089103571, 1.3784717443089057e-05},
{ -3.2324881425657144, 2.4243661069242863, 2.4569550285921263e-06},
{ -3.2324881425657144, 2.8284271247450006, 1.9432792349615886e-06},
{ -3.2324881425657144, 3.232488142565715, 2.141792119175754e-07},
{ -3.2324881425657144, 3.636549160386429, 1.4257771998086292e-07},
{ -3.2324881425657144, 4.040610178207143, 1.3226048722106836e-08},
{ -3.2324881425657144, 4.4446711960278575, 5.44436501702658e-09},
{ -3.2324881425657144, 4.848732213848572, 3.122974620210979e-10},
{ -3.2324881425657144, 5.252793231669286, 1.08198668887736e-10},
{ -3.2324881425657144, 5.65685424949, 2.611857561586385e-12},
{ -2.828427124745, -5.65685424949, 2.3697764683444208e-11},
{ -2.828427124745, -5.252793231669286, 9.817023072292297e-10},
{ -2.828427124745, -4.848732213848572, 2.8335204319939172e-09},
{ -2.828427124745, -4.4446711960278575, 4.939751804302381e-08},
{ -2.828427124745, -4.040610178207143, 1.2000186951921168e-07},
{ -2.828427124745, -3.6365491603864286, 1.293628453136742e-06},
{ -2.828427124745, -3.2324881425657144, 1.943279234961591e-06},
{ -2.828427124745, -2.828427124745, 1.7631655991367568e-05},
{ -2.828427124745, -2.424366106924286, 2.229231140384892e-05},
{ -2.828427124745, -2.0203050891035716, 0.00012507075232528477},
{ -2.828427124745, -1.616244071282857, 9.778236270278437e-05},
{ -2.828427124745, -1.2121830534621427, 0.00046174003816317567},
{ -2.828427124745, -0.8081220356414285, 0.000303835591256555},
{ -2.828427124745, -0.40406101782071424, 0.0008871936416449696},
{ -2.828427124745, 0.0, 0.0003609959246798374},
{ -2.828427124745, 0.40406101782071424, 0.0008871936416449696},
{ -2.828427124745, 0.8081220356414285, 0.000303835591256555},
{ -2.828427124745, 1.2121830534621427, 0.00046174003816317567},
{ -2.828427124745, 1.616244071282857, 9.778236270278437e-05},
{ -2.828427124745, 2.020305089103571, 0.00012507075232528488},
{ -2.828427124745, 2.4243661069242863, 2.2292311403848897e-05},
{ -2.828427124745, 2.8284271247450006, 1.7631655991367544e-05},
{ -2.828427124745, 3.232488142565715, 1.943279234961589e-06},
{ -2.828427124745, 3.636549160386429, 1.2936284531367395e-06},
{ -2.828427124745, 4.040610178207143, 1.2000186951921168e-07},
{ -2.828427124745, 4.4446711960278575, 4.939751804302381e-08},
{ -2.828427124745, 4.848732213848572, 2.8335204319939172e-09},
{ -2.828427124745, 5.252793231669286, 9.817023072292297e-10},
{ -2.828427124745, 5.65685424949, 2.3697764683444208e-11},
{ -2.424366106924286, -5.65685424949, 2.996190205600176e-11},
{ -2.424366106924286, -5.252793231669286, 1.2412001203599668e-09},
{ -2.424366106924286, -4.848732213848572, 3.5825177096299273e-09},
{ -2.424366106924286, -4.4446711960278575, 6.245498751401859e-08},
{ -2.424366106924286, -4.040610178207143, 1.5172250670476145e-07},
{ -2.424366106924286, -3.6365491603864286, 1.6355791158994173e-06},
{ -2.424366106924286, -3.2324881425657144, 2.4569550285921292e-06},
{ -2.424366106924286, -2.828427124745, 2.2292311403848924e-05},
{ -2.424366106924286, -2.424366106924286, 2.8184938951252066e-05},
{ -2.424366106924286, -2.0203050891035716, 0.00015813127023995747},
{ -2.424366106924286, -1.616244071282857, 0.00012362961710696917},
{ -2.424366106924286, -1.2121830534621427, 0.000583793871851751},
{ -2.424366106924286, -0.8081220356414285, 0.00038414982796736895},
{ -2.424366106924286, -0.40406101782071424, 0.0011217095515445338},
{ -2.424366106924286, 0.0, 0.00045641961097830724},
{ -2.424366106924286, 0.40406101782071424, 0.0011217095515445338},
{ -2.424366106924286, 0.8081220356414285, 0.00038414982796736895},
{ -2.424366106924286, 1.2121830534621427, 0.000583793871851751},
{ -2.424366106924286, 1.616244071282857, 0.00012362961710696917},
{ -2.424366106924286, 2.020305089103571, 0.0001581312702399576},
{ -2.424366106924286, 2.4243661069242863, 2.818493895125204e-05},
{ -2.424366106924286, 2.8284271247450006, 2.2292311403848897e-05},
{ -2.424366106924286, 3.232488142565715, 2.4569550285921267e-06},
{ -2.424366106924286, 3.636549160386429, 1.6355791158994145e-06},
{ -2.424366106924286, 4.040610178207143, 1.5172250670476145e-07},
{ -2.424366106924286, 4.4446711960278575, 6.245498751401859e-08},
{ -2.424366106924286, 4.848732213848572, 3.5825177096299273e-09},
{ -2.424366106924286, 5.252793231669286, 1.2412001203599668e-09},
{ -2.424366106924286, 5.65685424949, 2.996190205600176e-11},
{ -2.0203050891035716, -5.65685424949, 1.681009009498059e-10},
{ -2.0203050891035716, -5.252793231669286, 6.963738754019566e-09},
{ -2.0203050891035716, -4.848732213848572, 2.0099673696676827e-08},
{ -2.0203050891035716, -4.4446711960278575, 3.5040297676336505e-07},
{ -2.0203050891035716, -4.040610178207143, 8.512373488092505e-07},
{ -2.0203050891035716, -3.6365491603864286, 9.176397494507681e-06},
{ -2.0203050891035716, -3.2324881425657144, 1.3784717443089044e-05},
{ -2.0203050891035716, -2.828427124745, 0.00012507075232528477},
{ -2.0203050891035716, -2.424366106924286, 0.00015813127023995744},
{ -2.0203050891035716, -2.0203050891035716, 0.0008871936416449688},
{ -2.0203050891035716, -1.616244071282857, 0.0006936225203899597},
{ -2.0203050891035716, -1.2121830534621427, 0.0032753686880034683},
{ -2.0203050891035716, -0.8081220356414285, 0.0021552681154997726},
{ -2.0203050891035716, -0.40406101782071424, 0.00629333831564501},
{ -2.0203050891035716, 0.0, 0.002560736887571677},
{ -2.0203050891035716, 0.40406101782071424, 0.00629333831564501},
{ -2.0203050891035716, 0.8081220356414285, 0.0021552681154997726},
{ -2.0203050891035716, 1.2121830534621427, 0.0032753686880034683},
{ -2.0203050891035716, 1.616244071282857, 0.0006936225203899597},
{ -2.0203050891035716, 2.020305089103571, 0.0008871936416449697},
{ -2.0203050891035716, 2.4243661069242863, 0.0001581312702399573},
{ -2.0203050891035716, 2.8284271247450006, 0.0001250707523252846},
{ -2.0203050891035716, 3.232488142565715, 1.3784717443089034e-05},
{ -2.0203050891035716, 3.636549160386429, 9.176397494507663e-06},
{ -2.0203050891035716, 4.040610178207143, 8.512373488092505e-07},
{ -2.0203050891035716, 4.4446711960278575, 3.5040297676336505e-07},
{ -2.0203050891035716, 4.848732213848572, 2.0099673696676827e-08},
{ -2.0203050891035716, 5.252793231669286, 6.963738754019566e-09},
{ -2.0203050891035716, 5.65685424949, 1.681009009498059e-10},
{ -1.616244071282857, -5.65685424949, 1.3142403768859177e-10},
{ -1.616244071282857, -5.252793231669286, 5.444365017026586e-09},
{ -1.616244071282857, -4.848732213848572, 1.5714254108782052e-08},
{ -1.616244071282857, -4.4446711960278575, 2.7395078648682523e-07},
{ -1.616244071282857, -4.040610178207143, 6.655113017225803e-07},
{ -1.616244071282857, -3.6365491603864286, 7.174257861495828e-06},
{ -1.616244071282857, -3.2324881425657144, 1.0777117877006921e-05},
{ -1.616244071282857, -2.828427124745, 9.778236270278437e-05},
{ -1.616244071282857, -2.424366106924286, 0.0001236296171069692},
{ -1.616244071282857, -2.0203050891035716, 0.0006936225203899597},
{ -1.616244071282857, -1.616244071282857, 0.0005422854472898133},
{ -1.616244071282857, -1.2121830534621427, 0.0025607368875716794},
{ -1.616244071282857, -0.8081220356414285, 0.0016850239138518387},
{ -1.616244071282857, -0.40406101782071424, 0.004920234973811087},
{ -1.616244071282857, 0.0, 0.0020020260410339927},
{ -1.616244071282857, 0.40406101782071424, 0.004920234973811087},
{ -1.616244071282857, 0.8081220356414285, 0.0016850239138518387},
{ -1.616244071282857, 1.2121830534621427, 0.0025607368875716794},
{ -1.616244071282857, 1.616244071282857, 0.0005422854472898133},
{ -1.616244071282857, 2.020305089103571, 0.0006936225203899604},
{ -1.616244071282857, 2.4243661069242863, 0.0001236296171069691},
{ -1.616244071282857, 2.8284271247450006, 9.778236270278425e-05},
{ -1.616244071282857, 3.232488142565715, 1.0777117877006911e-05},
{ -1.616244071282857, 3.636549160386429, 7.1742578614958145e-06},
{ -1.616244071282857, 4.040610178207143, 6.655113017225803e-07},
{ -1.616244071282857, 4.4446711960278575, 2.7395078648682523e-07},
{ -1.616244071282857, 4.848732213848572, 1.5714254108782052e-08},
{ -1.616244071282857, 5.252793231669286, 5.444365017026586e-09},
{ -1.616244071282857, 5.65685424949, 1.3142403768859177e-10},
{ -1.2121830534621427, -5.65685424949, 6.206000601799839e-10},
{ -1.2121830534621427, -5.252793231669286, 2.570894424362821e-08},
{ -1.2121830534621427, -4.848732213848572, 7.420459161893671e-08},
{ -1.2121830534621427, -4.4446711960278575, 1.2936284531367405e-06},
{ -1.2121830534621427, -4.040610178207143, 3.142624143675541e-06},
{ -1.2121830534621427, -3.6365491603864286, 3.387770562293048e-05},
{ -1.2121830534621427, -3.2324881425657144, 5.089084250238228e-05},
{ -1.2121830534621427, -2.828427124745, 0.00046174003816317567},
{ -1.2121830534621427, -2.424366106924286, 0.0005837938718517509},
{ -1.2121830534621427, -2.0203050891035716, 0.0032753686880034683},
{ -1.2121830534621427, -1.616244071282857, 0.002560736887571679},
{ -1.2121830534621427, -1.2121830534621427, 0.012092106546731355},
{ -1.2121830534621427, -0.8081220356414285, 0.007956884910346481},
{ -1.2121830534621427, -0.40406101782071424, 0.023233939350441067},
{ -1.2121830534621427, 0.0, 0.009453806954946735},
{ -1.2121830534621427, 0.40406101782071424, 0.023233939350441067},
{ -1.2121830534621427, 0.8081220356414285, 0.007956884910346481},
{ -1.2121830534621427, 1.2121830534621427, 0.012092106546731355},
{ -1.2121830534621427, 1.616244071282857, 0.002560736887571679},
{ -1.2121830534621427, 2.020305089103571, 0.0032753686880034713},
{ -1.2121830534621427, 2.4243661069242863, 0.0005837938718517504},
{ -1.2121830534621427, 2.8284271247450006, 0.000461740038163175},
{ -1.2121830534621427, 3.232488142565715, 5.0890842502382226e-05},
{ -1.2121830534621427, 3.636549160386429, 3.387770562293043e-05},
{ -1.2121830534621427, 4.040610178207143, 3.142624143675541e-06},
{ -1.2121830534621427, 4.4446711960278575, 1.2936284531367405e-06},
{ -1.2121830534621427, 4.848732213848572, 7.420459161893671e-08},
{ -1.2121830534621427, 5.252793231669286, 2.570894424362821e-08},
{ -1.2121830534621427, 5.65685424949, 6.206000601799839e-10},
{ -0.8081220356414285, -5.65685424949, 4.0836914851209667e-10},
{ -0.8081220356414285, -5.252793231669286, 1.6917078072584494e-08},
{ -0.8081220356414285, -4.848732213848572, 4.8828332189211734e-08},
{ -0.8081220356414285, -4.4446711960278575, 8.512373488092515e-07},
{ -0.8081220356414285, -4.040610178207143, 2.067919144697062e-06},
{ -0.8081220356414285, -3.6365491603864286, 2.2292311403848935e-05},
{ -0.8081220356414285, -3.2324881425657144, 3.3487347735244956e-05},
{ -0.8081220356414285, -2.828427124745, 0.0003038355912565551},
{ -0.8081220356414285, -2.424366106924286, 0.0003841498279673689},
{ -0.8081220356414285, -2.0203050891035716, 0.0021552681154997726},
{ -0.8081220356414285, -1.616244071282857, 0.0016850239138518387},
{ -0.8081220356414285, -1.2121830534621427, 0.007956884910346483},
{ -0.8081220356414285, -0.8081220356414285, 0.005235813729545211},
{ -0.8081220356414285, -0.40406101782071424, 0.01528846778772409},
{ -0.8081220356414285, 0.0, 0.006220822948791992},
{ -0.8081220356414285, 0.40406101782071424, 0.01528846778772409},
{ -0.8081220356414285, 0.8081220356414285, 0.005235813729545211},
{ -0.8081220356414285, 1.2121830534621427, 0.007956884910346483},
{ -0.8081220356414285, 1.616244071282857, 0.0016850239138518387},
{ -0.8081220356414285, 2.020305089103571, 0.0021552681154997744},
{ -0.8081220356414285, 2.4243661069242863, 0.0003841498279673686},
{ -0.8081220356414285, 2.8284271247450006, 0.00030383559125655464},
{ -0.8081220356414285, 3.232488142565715, 3.348734773524493e-05},
{ -0.8081220356414285, 3.636549160386429, 2.2292311403848897e-05},
{ -0.8081220356414285, 4.040610178207143, 2.067919144697062e-06},
{ -0.8081220356414285, 4.4446711960278575, 8.512373488092515e-07},
{ -0.8081220356414285, 4.848732213848572, 4.8828332189211734e-08},
{ -0.8081220356414285, 5.252793231669286, 1.6917078072584494e-08},
{ -0.8081220356414285, 5.65685424949, 4.0836914851209667e-10},
{ -0.40406101782071424, -5.65685424949, 1.1924294665596914e-09},
{ -0.40406101782071424, -5.252793231669286, 4.9397518043023836e-08},
{ -0.40406101782071424, -4.848732213848572, 1.4257771998086297e-07},
{ -0.40406101782071424, -4.4446711960278575, 2.4855954507205737e-06},
{ -0.40406101782071424, -4.040610178207143, 6.038281127710235e-06},
{ -0.40406101782071424, -3.6365491603864286, 6.509308818388054e-05},
{ -0.40406101782071424, -3.2324881425657144, 9.778236270278434e-05},
{ -0.40406101782071424, -2.828427124745, 0.0008871936416449696},
{ -0.40406101782071424, -2.424366106924286, 0.0011217095515445336},
{ -0.40406101782071424, -2.0203050891035716, 0.00629333831564501},
{ -0.40406101782071424, -1.616244071282857, 0.004920234973811087},
{ -0.40406101782071424, -1.2121830534621427, 0.023233939350441067},
{ -0.40406101782071424, -0.8081220356414285, 0.015288467787724087},
{ -0.40406101782071424, -0.40406101782071424, 0.044642009698954634},
{ -0.40406101782071424, 0.0, 0.01816467433305773},
{ -0.40406101782071424, 0.40406101782071424, 0.044642009698954634},
{ -0.40406101782071424, 0.8081220356414285, 0.015288467787724087},
{ -0.40406101782071424, 1.2121830534621427, 0.023233939350441067},
{ -0.40406101782071424, 1.616244071282857, 0.004920234973811087},
{ -0.40406101782071424, 2.020305089103571, 0.006293338315645015},
{ -0.40406101782071424, 2.4243661069242863, 0.0011217095515445325},
{ -0.40406101782071424, 2.8284271247450006, 0.0008871936416449684},
{ -0.40406101782071424, 3.232488142565715, 9.778236270278425e-05},
{ -0.40406101782071424, 3.636549160386429, 6.509308818388041e-05},
{ -0.40406101782071424, 4.040610178207143, 6.038281127710235e-06},
{ -0.40406101782071424, 4.4446711960278575, 2.4855954507205737e-06},
{ -0.40406101782071424, 4.848732213848572, 1.4257771998086297e-07},
{ -0.40406101782071424, 5.252793231669286, 4.9397518043023836e-08},
{ -0.40406101782071424, 5.65685424949, 1.1924294665596914e-09},
{ 0.0, -5.65685424949, 4.851952918621796e-10},
{ 0.0, -5.252793231669286, 2.009967369667685e-08},
{ 0.0, -4.848732213848572, 5.8014365125298566e-08},
{ 0.0, -4.4446711960278575, 1.0113799130133323e-06},
{ 0.0, -4.040610178207143, 2.456955028592125e-06},
{ 0.0, -3.6365491603864286, 2.64861451392249e-05},
{ 0.0, -3.2324881425657144, 3.97872942098886e-05},
{ 0.0, -2.828427124745, 0.0003609959246798374},
{ 0.0, -2.424366106924286, 0.00045641961097830724},
{ 0.0, -2.0203050891035716, 0.002560736887571677},
{ 0.0, -1.616244071282857, 0.0020020260410339927},
{ 0.0, -1.2121830534621427, 0.009453806954946735},
{ 0.0, -0.8081220356414285, 0.006220822948791992},
{ 0.0, -0.40406101782071424, 0.01816467433305773},
{ 0.0, 0.0, 0.007391141121358897},
{ 0.0, 0.40406101782071424, 0.01816467433305773},
{ 0.0, 0.8081220356414285, 0.006220822948791992},
{ 0.0, 1.2121830534621427, 0.009453806954946735},
{ 0.0, 1.616244071282857, 0.0020020260410339927},
{ 0.0, 2.020305089103571, 0.002560736887571679},
{ 0.0, 2.4243661069242863, 0.00045641961097830675},
{ 0.0, 2.8284271247450006, 0.00036099592467983685},
{ 0.0, 3.232488142565715, 3.978729420988856e-05},
{ 0.0, 3.636549160386429, 2.6486145139224854e-05},
{ 0.0, 4.040610178207143, 2.456955028592125e-06},
{ 0.0, 4.4446711960278575, 1.0113799130133323e-06},
{ 0.0, 4.848732213848572, 5.8014365125298566e-08},
{ 0.0, 5.252793231669286, 2.009967369667685e-08},
{ 0.0, 5.65685424949, 4.851952918621796e-10},
{ 0.40406101782071424, -5.65685424949, 1.1924294665596914e-09},
{ 0.40406101782071424, -5.252793231669286, 4.9397518043023836e-08},
{ 0.40406101782071424, -4.848732213848572, 1.4257771998086297e-07},
{ 0.40406101782071424, -4.4446711960278575, 2.4855954507205737e-06},
{ 0.40406101782071424, -4.040610178207143, 6.038281127710235e-06},
{ 0.40406101782071424, -3.6365491603864286, 6.509308818388054e-05},
{ 0.40406101782071424, -3.2324881425657144, 9.778236270278434e-05},
{ 0.40406101782071424, -2.828427124745, 0.0008871936416449696},
{ 0.40406101782071424, -2.424366106924286, 0.0011217095515445336},
{ 0.40406101782071424, -2.0203050891035716, 0.00629333831564501},
{ 0.40406101782071424, -1.616244071282857, 0.004920234973811087},
{ 0.40406101782071424, -1.2121830534621427, 0.023233939350441067},
{ 0.40406101782071424, -0.8081220356414285, 0.015288467787724087},
{ 0.40406101782071424, -0.40406101782071424, 0.044642009698954634},
{ 0.40406101782071424, 0.0, 0.01816467433305773},
{ 0.40406101782071424, 0.40406101782071424, 0.044642009698954634},
{ 0.40406101782071424, 0.8081220356414285, 0.015288467787724087},
{ 0.40406101782071424, 1.2121830534621427, 0.023233939350441067},
{ 0.40406101782071424, 1.616244071282857, 0.004920234973811087},
{ 0.40406101782071424, 2.020305089103571, 0.006293338315645015},
{ 0.40406101782071424, 2.4243661069242863, 0.0011217095515445325},
{ 0.40406101782071424, 2.8284271247450006, 0.0008871936416449684},
{ 0.40406101782071424, 3.232488142565715, 9.778236270278425e-05},
{ 0.40406101782071424, 3.636549160386429, 6.509308818388041e-05},
{ 0.40406101782071424, 4.040610178207143, 6.038281127710235e-06},
{ 0.40406101782071424, 4.4446711960278575, 2.4855954507205737e-06},
{ 0.40406101782071424, 4.848732213848572, 1.4257771998086297e-07},
{ 0.40406101782071424, 5.252793231669286, 4.9397518043023836e-08},
{ 0.40406101782071424, 5.65685424949, 1.1924294665596914e-09},
{ 0.8081220356414285, -5.65685424949, 4.0836914851209667e-10},
{ 0.8081220356414285, -5.252793231669286, 1.6917078072584494e-08},
{ 0.8081220356414285, -4.848732213848572, 4.8828332189211734e-08},
{ 0.8081220356414285, -4.4446711960278575, 8.512373488092515e-07},
{ 0.8081220356414285, -4.040610178207143, 2.067919144697062e-06},
{ 0.8081220356414285, -3.6365491603864286, 2.2292311403848935e-05},
{ 0.8081220356414285, -3.2324881425657144, 3.3487347735244956e-05},
{ 0.8081220356414285, -2.828427124745, 0.0003038355912565551},
{ 0.8081220356414285, -2.424366106924286, 0.0003841498279673689},
{ 0.8081220356414285, -2.0203050891035716, 0.0021552681154997726},
{ 0.8081220356414285, -1.616244071282857, 0.0016850239138518387},
{ 0.8081220356414285, -1.2121830534621427, 0.007956884910346483},
{ 0.8081220356414285, -0.8081220356414285, 0.005235813729545211},
{ 0.8081220356414285, -0.40406101782071424, 0.01528846778772409},
{ 0.8081220356414285, 0.0, 0.006220822948791992},
{ 0.8081220356414285, 0.40406101782071424, 0.01528846778772409},
{ 0.8081220356414285, 0.8081220356414285, 0.005235813729545211},
{ 0.8081220356414285, 1.2121830534621427, 0.007956884910346483},
{ 0.8081220356414285, 1.616244071282857, 0.0016850239138518387},
{ 0.8081220356414285, 2.020305089103571, 0.0021552681154997744},
{ 0.8081220356414285, 2.4243661069242863, 0.0003841498279673686},
{ 0.8081220356414285, 2.8284271247450006, 0.00030383559125655464},
{ 0.8081220356414285, 3.232488142565715, 3.348734773524493e-05},
{ 0.8081220356414285, 3.636549160386429, 2.2292311403848897e-05},
{ 0.8081220356414285, 4.040610178207143, 2.067919144697062e-06},
{ 0.8081220356414285, 4.4446711960278575, 8.512373488092515e-07},
{ 0.8081220356414285, 4.848732213848572, 4.8828332189211734e-08},
{ 0.8081220356414285, 5.252793231669286, 1.6917078072584494e-08},
{ 0.8081220356414285, 5.65685424949, 4.0836914851209667e-10},
{ 1.2121830534621427, -5.65685424949, 6.206000601799839e-10},
{ 1.2121830534621427, -5.252793231669286, 2.570894424362821e-08},
{ 1.2121830534621427, -4.848732213848572, 7.420459161893671e-08},
{ 1.2121830534621427, -4.4446711960278575, 1.2936284531367405e-06},
{ 1.2121830534621427, -4.040610178207143, 3.142624143675541e-06},
{ 1.2121830534621427, -3.6365491603864286, 3.387770562293048e-05},
{ 1.2121830534621427, -3.2324881425657144, 5.089084250238228e-05},
{ 1.2121830534621427, -2.828427124745, 0.00046174003816317567},
{ 1.2121830534621427, -2.424366106924286, 0.0005837938718517509},
{ 1.2121830534621427, -2.0203050891035716, 0.0032753686880034683},
{ 1.2121830534621427, -1.616244071282857, 0.002560736887571679},
{ 1.2121830534621427, -1.2121830534621427, 0.012092106546731355},
{ 1.2121830534621427, -0.8081220356414285, 0.007956884910346481},
{ 1.2121830534621427, -0.40406101782071424, 0.023233939350441067},
{ 1.2121830534621427, 0.0, 0.009453806954946735},
{ 1.2121830534621427, 0.40406101782071424, 0.023233939350441067},
{ 1.2121830534621427, 0.8081220356414285, 0.007956884910346481},
{ 1.2121830534621427, 1.2121830534621427, 0.012092106546731355},
{ 1.2121830534621427, 1.616244071282857, 0.002560736887571679},
{ 1.2121830534621427, 2.020305089103571, 0.0032753686880034713},
{ 1.2121830534621427, 2.4243661069242863, 0.0005837938718517504},
{ 1.2121830534621427, 2.8284271247450006, 0.000461740038163175},
{ 1.2121830534621427, 3.232488142565715, 5.0890842502382226e-05},
{ 1.2121830534621427, 3.636549160386429, 3.387770562293043e-05},
{ 1.2121830534621427, 4.040610178207143, 3.142624143675541e-06},
{ 1.2121830534621427, 4.4446711960278575, 1.2936284531367405e-06},
{ 1.2121830534621427, 4.848732213848572, 7.420459161893671e-08},
{ 1.2121830534621427, 5.252793231669286, 2.570894424362821e-08},
{ 1.2121830534621427, 5.65685424949, 6.206000601799839e-10},
{ 1.616244071282857, -5.65685424949, 1.3142403768859177e-10},
{ 1.616244071282857, -5.252793231669286, 5.444365017026586e-09},
{ 1.616244071282857, -4.848732213848572, 1.5714254108782052e-08},
{ 1.616244071282857, -4.4446711960278575, 2.7395078648682523e-07},
{ 1.616244071282857, -4.040610178207143, 6.655113017225803e-07},
{ 1.616244071282857, -3.6365491603864286, 7.174257861495828e-06},
{ 1.616244071282857, -3.2324881425657144, 1.0777117877006921e-05},
{ 1.616244071282857, -2.828427124745, 9.778236270278437e-05},
{ 1.616244071282857, -2.424366106924286, 0.0001236296171069692},
{ 1.616244071282857, -2.0203050891035716, 0.0006936225203899597},
{ 1.616244071282857, -1.616244071282857, 0.0005422854472898133},
{ 1.616244071282857, -1.2121830534621427, 0.0025607368875716794},
{ 1.616244071282857, -0.8081220356414285, 0.0016850239138518387},
{ 1.616244071282857, -0.40406101782071424, 0.004920234973811087},
{ 1.616244071282857, 0.0, 0.0020020260410339927},
{ 1.616244071282857, 0.40406101782071424, 0.004920234973811087},
{ 1.616244071282857, 0.8081220356414285, 0.0016850239138518387},
{ 1.616244071282857, 1.2121830534621427, 0.0025607368875716794},
{ 1.616244071282857, 1.616244071282857, 0.0005422854472898133},
{ 1.616244071282857, 2.020305089103571, 0.0006936225203899604},
{ 1.616244071282857, 2.4243661069242863, 0.0001236296171069691},
{ 1.616244071282857, 2.8284271247450006, 9.778236270278425e-05},
{ 1.616244071282857, 3.232488142565715, 1.0777117877006911e-05},
{ 1.616244071282857, 3.636549160386429, 7.1742578614958145e-06},
{ 1.616244071282857, 4.040610178207143, 6.655113017225803e-07},
{ 1.616244071282857, 4.4446711960278575, 2.7395078648682523e-07},
{ 1.616244071282857, 4.848732213848572, 1.5714254108782052e-08},
{ 1.616244071282857, 5.252793231669286, 5.444365017026586e-09},
{ 1.616244071282857, 5.65685424949, 1.3142403768859177e-10},
{ 2.020305089103571, -5.65685424949, 1.6810090094980602e-10},
{ 2.020305089103571, -5.252793231669286, 6.963738754019572e-09},
{ 2.020305089103571, -4.848732213848572, 2.0099673696676846e-08},
{ 2.020305089103571, -4.4446711960278575, 3.5040297676336537e-07},
{ 2.020305089103571, -4.040610178207143, 8.512373488092513e-07},
{ 2.020305089103571, -3.6365491603864286, 9.176397494507687e-06},
{ 2.020305089103571, -3.2324881425657144, 1.3784717443089056e-05},
{ 2.020305089103571, -2.828427124745, 0.00012507075232528488},
{ 2.020305089103571, -2.424366106924286, 0.00015813127023995755},
{ 2.020305089103571, -2.0203050891035716, 0.0008871936416449697},
{ 2.020305089103571, -1.616244071282857, 0.0006936225203899604},
{ 2.020305089103571, -1.2121830534621427, 0.0032753686880034705},
{ 2.020305089103571, -0.8081220356414285, 0.0021552681154997744},
{ 2.020305089103571, -0.40406101782071424, 0.006293338315645015},
{ 2.020305089103571, 0.0, 0.002560736887571679},
{ 2.020305089103571, 0.40406101782071424, 0.006293338315645015},
{ 2.020305089103571, 0.8081220356414285, 0.0021552681154997744},
{ 2.020305089103571, 1.2121830534621427, 0.0032753686880034705},
{ 2.020305089103571, 1.616244071282857, 0.0006936225203899604},
{ 2.020305089103571, 2.020305089103571, 0.0008871936416449704},
{ 2.020305089103571, 2.4243661069242863, 0.00015813127023995744},
{ 2.020305089103571, 2.8284271247450006, 0.00012507075232528472},
{ 2.020305089103571, 3.232488142565715, 1.3784717443089044e-05},
{ 2.020305089103571, 3.636549160386429, 9.176397494507671e-06},
{ 2.020305089103571, 4.040610178207143, 8.512373488092513e-07},
{ 2.020305089103571, 4.4446711960278575, 3.5040297676336537e-07},
{ 2.020305089103571, 4.848732213848572, 2.0099673696676846e-08},
{ 2.020305089103571, 5.252793231669286, 6.963738754019572e-09},
{ 2.020305089103571, 5.65685424949, 1.6810090094980602e-10},
{ 2.4243661069242863, -5.65685424949, 2.996190205600172e-11},
{ 2.4243661069242863, -5.252793231669286, 1.2412001203599658e-09},
{ 2.4243661069242863, -4.848732213848572, 3.582517709629924e-09},
{ 2.4243661069242863, -4.4446711960278575, 6.245498751401852e-08},
{ 2.4243661069242863, -4.040610178207143, 1.517225067047613e-07},
{ 2.4243661069242863, -3.6365491603864286, 1.6355791158994158e-06},
{ 2.4243661069242863, -3.2324881425657144, 2.4569550285921267e-06},
{ 2.4243661069242863, -2.828427124745, 2.22923114038489e-05},
{ 2.4243661069242863, -2.424366106924286, 2.8184938951252036e-05},
{ 2.4243661069242863, -2.0203050891035716, 0.00015813127023995728},
{ 2.4243661069242863, -1.616244071282857, 0.00012362961710696906},
{ 2.4243661069242863, -1.2121830534621427, 0.0005837938718517505},
{ 2.4243661069242863, -0.8081220356414285, 0.0003841498279673686},
{ 2.4243661069242863, -0.40406101782071424, 0.0011217095515445327},
{ 2.4243661069242863, 0.0, 0.00045641961097830675},
{ 2.4243661069242863, 0.40406101782071424, 0.0011217095515445327},
{ 2.4243661069242863, 0.8081220356414285, 0.0003841498279673686},
{ 2.4243661069242863, 1.2121830534621427, 0.0005837938718517505},
{ 2.4243661069242863, 1.616244071282857, 0.00012362961710696906},
{ 2.4243661069242863, 2.020305089103571, 0.00015813127023995744},
{ 2.4243661069242863, 2.4243661069242863, 2.8184938951252012e-05},
{ 2.4243661069242863, 2.8284271247450006, 2.2292311403848874e-05},
{ 2.4243661069242863, 3.232488142565715, 2.456955028592124e-06},
{ 2.4243661069242863, 3.636549160386429, 1.6355791158994126e-06},
{ 2.4243661069242863, 4.040610178207143, 1.517225067047613e-07},
{ 2.4243661069242863, 4.4446711960278575, 6.245498751401852e-08},
{ 2.4243661069242863, 4.848732213848572, 3.582517709629924e-09},
{ 2.4243661069242863, 5.252793231669286, 1.2412001203599658e-09},
{ 2.4243661069242863, 5.65685424949, 2.996190205600172e-11},
{ 2.8284271247450006, -5.65685424949, 2.369776468344418e-11},
{ 2.8284271247450006, -5.252793231669286, 9.817023072292284e-10},
{ 2.8284271247450006, -4.848732213848572, 2.8335204319939135e-09},
{ 2.8284271247450006, -4.4446711960278575, 4.939751804302375e-08},
{ 2.8284271247450006, -4.040610178207143, 1.2000186951921152e-07},
{ 2.8284271247450006, -3.6365491603864286, 1.2936284531367399e-06},
{ 2.8284271247450006, -3.2324881425657144, 1.9432792349615886e-06},
{ 2.8284271247450006, -2.828427124745, 1.7631655991367544e-05},
{ 2.8284271247450006, -2.424366106924286, 2.229231140384889e-05},
{ 2.8284271247450006, -2.0203050891035716, 0.0001250707523252846},
{ 2.8284271247450006, -1.616244071282857, 9.778236270278425e-05},
{ 2.8284271247450006, -1.2121830534621427, 0.000461740038163175},
{ 2.8284271247450006, -0.8081220356414285, 0.00030383559125655464},
{ 2.8284271247450006, -0.40406101782071424, 0.0008871936416449684},
{ 2.8284271247450006, 0.0, 0.00036099592467983685},
{ 2.8284271247450006, 0.40406101782071424, 0.0008871936416449684},
{ 2.8284271247450006, 0.8081220356414285, 0.00030383559125655464},
{ 2.8284271247450006, 1.2121830534621427, 0.000461740038163175},
{ 2.8284271247450006, 1.616244071282857, 9.778236270278425e-05},
{ 2.8284271247450006, 2.020305089103571, 0.00012507075232528472},
{ 2.8284271247450006, 2.4243661069242863, 2.229231140384887e-05},
{ 2.8284271247450006, 2.8284271247450006, 1.763165599136752e-05},
{ 2.8284271247450006, 3.232488142565715, 1.9432792349615865e-06},
{ 2.8284271247450006, 3.636549160386429, 1.2936284531367376e-06},
{ 2.8284271247450006, 4.040610178207143, 1.2000186951921152e-07},
{ 2.8284271247450006, 4.4446711960278575, 4.939751804302375e-08},
{ 2.8284271247450006, 4.848732213848572, 2.8335204319939135e-09},
{ 2.8284271247450006, 5.252793231669286, 9.817023072292284e-10},
{ 2.8284271247450006, 5.65685424949, 2.369776468344418e-11},
{ 3.232488142565715, -5.65685424949, 2.611857561586382e-12},
{ 3.232488142565715, -5.252793231669286, 1.081986688877359e-10},
{ 3.232488142565715, -4.848732213848572, 3.1229746202109754e-10},
{ 3.232488142565715, -4.4446711960278575, 5.444365017026575e-09},
{ 3.232488142565715, -4.040610178207143, 1.3226048722106822e-08},
{ 3.232488142565715, -3.6365491603864286, 1.4257771998086308e-07},
{ 3.232488142565715, -3.2324881425657144, 2.141792119175754e-07},
{ 3.232488142565715, -2.828427124745, 1.943279234961589e-06},
{ 3.232488142565715, -2.424366106924286, 2.456955028592126e-06},
{ 3.232488142565715, -2.0203050891035716, 1.3784717443089032e-05},
{ 3.232488142565715, -1.616244071282857, 1.0777117877006911e-05},
{ 3.232488142565715, -1.2121830534621427, 5.0890842502382226e-05},
{ 3.232488142565715, -0.8081220356414285, 3.348734773524492e-05},
{ 3.232488142565715, -0.40406101782071424, 9.778236270278425e-05},
{ 3.232488142565715, 0.0, 3.978729420988856e-05},
{ 3.232488142565715, 0.40406101782071424, 9.778236270278425e-05},
{ 3.232488142565715, 0.8081220356414285, 3.348734773524492e-05},
{ 3.232488142565715, 1.2121830534621427, 5.0890842502382226e-05},
{ 3.232488142565715, 1.616244071282857, 1.0777117877006911e-05},
{ 3.232488142565715, 2.020305089103571, 1.3784717443089044e-05},
{ 3.232488142565715, 2.4243661069242863, 2.4569550285921237e-06},
{ 3.232488142565715, 2.8284271247450006, 1.9432792349615865e-06},
{ 3.232488142565715, 3.232488142565715, 2.141792119175752e-07},
{ 3.232488142565715, 3.636549160386429, 1.4257771998086278e-07},
{ 3.232488142565715, 4.040610178207143, 1.3226048722106822e-08},
{ 3.232488142565715, 4.4446711960278575, 5.444365017026575e-09},
{ 3.232488142565715, 4.848732213848572, 3.1229746202109754e-10},
{ 3.232488142565715, 5.252793231669286, 1.081986688877359e-10},
{ 3.232488142565715, 5.65685424949, 2.611857561586382e-12},
{ 3.636549160386429, -5.65685424949, 1.7386967330380977e-12},
{ 3.636549160386429, -5.252793231669286, 7.202715602910392e-11},
{ 3.636549160386429, -4.848732213848572, 2.0789440624104003e-10},
{ 3.636549160386429, -4.4446711960278575, 3.624278677288021e-09},
{ 3.636549160386429, -4.040610178207143, 8.804495330198076e-09},
{ 3.636549160386429, -3.6365491603864286, 9.491306860707168e-08},
{ 3.636549160386429, -3.2324881425657144, 1.4257771998086294e-07},
{ 3.636549160386429, -2.828427124745, 1.2936284531367397e-06},
{ 3.636549160386429, -2.424366106924286, 1.6355791158994143e-06},
{ 3.636549160386429, -2.0203050891035716, 9.176397494507663e-06},
{ 3.636549160386429, -1.616244071282857, 7.1742578614958145e-06},
{ 3.636549160386429, -1.2121830534621427, 3.387770562293043e-05},
{ 3.636549160386429, -0.8081220356414285, 2.2292311403848894e-05},
{ 3.636549160386429, -0.40406101782071424, 6.509308818388043e-05},
{ 3.636549160386429, 0.0, 2.6486145139224858e-05},
{ 3.636549160386429, 0.40406101782071424, 6.509308818388043e-05},
{ 3.636549160386429, 0.8081220356414285, 2.2292311403848894e-05},
{ 3.636549160386429, 1.2121830534621427, 3.387770562293043e-05},
{ 3.636549160386429, 1.616244071282857, 7.1742578614958145e-06},
{ 3.636549160386429, 2.020305089103571, 9.176397494507671e-06},
{ 3.636549160386429, 2.4243661069242863, 1.6355791158994128e-06},
{ 3.636549160386429, 2.8284271247450006, 1.2936284531367376e-06},
{ 3.636549160386429, 3.232488142565715, 1.4257771998086278e-07},
{ 3.636549160386429, 3.636549160386429, 9.491306860707151e-08},
{ 3.636549160386429, 4.040610178207143, 8.804495330198076e-09},
{ 3.636549160386429, 4.4446711960278575, 3.624278677288021e-09},
{ 3.636549160386429, 4.848732213848572, 2.0789440624104003e-10},
{ 3.636549160386429, 5.252793231669286, 7.202715602910392e-11},
{ 3.636549160386429, 5.65685424949, 1.7386967330380977e-12},
{ 4.040610178207143, -5.65685424949, 1.6128808699715804e-13},
{ 4.040610178207143, -5.252793231669286, 6.681511494808473e-12},
{ 4.040610178207143, -4.848732213848572, 1.928507165331671e-11},
{ 4.040610178207143, -4.4446711960278575, 3.36201801899611e-10},
{ 4.040610178207143, -4.040610178207143, 8.167382970241902e-10},
{ 4.040610178207143, -3.6365491603864286, 8.804495330198092e-09},
{ 4.040610178207143, -3.2324881425657144, 1.3226048722106836e-08},
{ 4.040610178207143, -2.828427124745, 1.200018695192117e-07},
{ 4.040610178207143, -2.424366106924286, 1.5172250670476143e-07},
{ 4.040610178207143, -2.0203050891035716, 8.512373488092505e-07},
{ 4.040610178207143, -1.616244071282857, 6.655113017225803e-07},
{ 4.040610178207143, -1.2121830534621427, 3.142624143675541e-06},
{ 4.040610178207143, -0.8081220356414285, 2.067919144697062e-06},
{ 4.040610178207143, -0.40406101782071424, 6.038281127710235e-06},
{ 4.040610178207143, 0.0, 2.456955028592125e-06},
{ 4.040610178207143, 0.40406101782071424, 6.038281127710235e-06},
{ 4.040610178207143, 0.8081220356414285, 2.067919144697062e-06},
{ 4.040610178207143, 1.2121830534621427, 3.142624143675541e-06},
{ 4.040610178207143, 1.616244071282857, 6.655113017225803e-07},
{ 4.040610178207143, 2.020305089103571, 8.512373488092512e-07},
{ 4.040610178207143, 2.4243661069242863, 1.517225067047613e-07},
{ 4.040610178207143, 2.8284271247450006, 1.2000186951921155e-07},
{ 4.040610178207143, 3.232488142565715, 1.3226048722106822e-08},
{ 4.040610178207143, 3.636549160386429, 8.804495330198078e-09},
{ 4.040610178207143, 4.040610178207143, 8.167382970241902e-10},
{ 4.040610178207143, 4.4446711960278575, 3.36201801899611e-10},
{ 4.040610178207143, 4.848732213848572, 1.928507165331671e-11},
{ 4.040610178207143, 5.252793231669286, 6.681511494808473e-12},
{ 4.040610178207143, 5.65685424949, 1.6128808699715804e-13},
{ 4.4446711960278575, -5.65685424949, 6.639255887835477e-14},
{ 4.4446711960278575, -5.252793231669286, 2.7503745228455228e-12},
{ 4.4446711960278575, -4.848732213848572, 7.938498614833721e-12},
{ 4.4446711960278575, -4.4446711960278575, 1.383939653771341e-10},
{ 4.4446711960278575, -4.040610178207143, 3.36201801899611e-10},
{ 4.4446711960278575, -3.6365491603864286, 3.6242786772880285e-09},
{ 4.4446711960278575, -3.2324881425657144, 5.44436501702658e-09},
{ 4.4446711960278575, -2.828427124745, 4.9397518043023816e-08},
{ 4.4446711960278575, -2.424366106924286, 6.24549875140186e-08},
{ 4.4446711960278575, -2.0203050891035716, 3.5040297676336505e-07},
{ 4.4446711960278575, -1.616244071282857, 2.7395078648682523e-07},
{ 4.4446711960278575, -1.2121830534621427, 1.2936284531367405e-06},
{ 4.4446711960278575, -0.8081220356414285, 8.512373488092516e-07},
{ 4.4446711960278575, -0.40406101782071424, 2.485595450720574e-06},
{ 4.4446711960278575, 0.0, 1.0113799130133323e-06},
{ 4.4446711960278575, 0.40406101782071424, 2.485595450720574e-06},
{ 4.4446711960278575, 0.8081220356414285, 8.512373488092516e-07},
{ 4.4446711960278575, 1.2121830534621427, 1.2936284531367405e-06},
{ 4.4446711960278575, 1.616244071282857, 2.7395078648682523e-07},
{ 4.4446711960278575, 2.020305089103571, 3.504029767633654e-07},
{ 4.4446711960278575, 2.4243661069242863, 6.245498751401853e-08},
{ 4.4446711960278575, 2.8284271247450006, 4.939751804302375e-08},
{ 4.4446711960278575, 3.232488142565715, 5.444365017026575e-09},
{ 4.4446711960278575, 3.636549160386429, 3.624278677288022e-09},
{ 4.4446711960278575, 4.040610178207143, 3.36201801899611e-10},
{ 4.4446711960278575, 4.4446711960278575, 1.383939653771341e-10},
{ 4.4446711960278575, 4.848732213848572, 7.938498614833721e-12},
{ 4.4446711960278575, 5.252793231669286, 2.7503745228455228e-12},
{ 4.4446711960278575, 5.65685424949, 6.639255887835477e-14},
{ 4.848732213848572, -5.65685424949, 3.808383084152654e-15},
{ 4.848732213848572, -5.252793231669286, 1.5776586992347713e-13},
{ 4.848732213848572, -4.848732213848572, 4.553649437385746e-13},
{ 4.848732213848572, -4.4446711960278575, 7.938498614833721e-12},
{ 4.848732213848572, -4.040610178207143, 1.928507165331671e-11},
{ 4.848732213848572, -3.6365491603864286, 2.078944062410404e-10},
{ 4.848732213848572, -3.2324881425657144, 3.1229746202109785e-10},
{ 4.848732213848572, -2.828427124745, 2.8335204319939172e-09},
{ 4.848732213848572, -2.424366106924286, 3.5825177096299265e-09},
{ 4.848732213848572, -2.0203050891035716, 2.0099673696676827e-08},
{ 4.848732213848572, -1.616244071282857, 1.5714254108782052e-08},
{ 4.848732213848572, -1.2121830534621427, 7.420459161893671e-08},
{ 4.848732213848572, -0.8081220356414285, 4.882833218921174e-08},
{ 4.848732213848572, -0.40406101782071424, 1.4257771998086297e-07},
{ 4.848732213848572, 0.0, 5.8014365125298566e-08},
{ 4.848732213848572, 0.40406101782071424, 1.4257771998086297e-07},
{ 4.848732213848572, 0.8081220356414285, 4.882833218921174e-08},
{ 4.848732213848572, 1.2121830534621427, 7.420459161893671e-08},
{ 4.848732213848572, 1.616244071282857, 1.5714254108782052e-08},
{ 4.848732213848572, 2.020305089103571, 2.0099673696676846e-08},
{ 4.848732213848572, 2.4243661069242863, 3.5825177096299236e-09},
{ 4.848732213848572, 2.8284271247450006, 2.8335204319939135e-09},
{ 4.848732213848572, 3.232488142565715, 3.1229746202109754e-10},
{ 4.848732213848572, 3.636549160386429, 2.0789440624104003e-10},
{ 4.848732213848572, 4.040610178207143, 1.928507165331671e-11},
{ 4.848732213848572, 4.4446711960278575, 7.938498614833721e-12},
{ 4.848732213848572, 4.848732213848572, 4.553649437385746e-13},
{ 4.848732213848572, 5.252793231669286, 1.5776586992347713e-13},
{ 4.848732213848572, 5.65685424949, 3.808383084152654e-15},
{ 5.252793231669286, -5.65685424949, 1.3194535032502126e-15},
{ 5.252793231669286, -5.252793231669286, 5.46596088586936e-14},
{ 5.252793231669286, -4.848732213848572, 1.577658699234771e-13},
{ 5.252793231669286, -4.4446711960278575, 2.7503745228455224e-12},
{ 5.252793231669286, -4.040610178207143, 6.681511494808473e-12},
{ 5.252793231669286, -3.6365491603864286, 7.202715602910404e-11},
{ 5.252793231669286, -3.2324881425657144, 1.0819866888773599e-10},
{ 5.252793231669286, -2.828427124745, 9.817023072292297e-10},
{ 5.252793231669286, -2.424366106924286, 1.2412001203599666e-09},
{ 5.252793231669286, -2.0203050891035716, 6.963738754019566e-09},
{ 5.252793231669286, -1.616244071282857, 5.444365017026586e-09},
{ 5.252793231669286, -1.2121830534621427, 2.570894424362821e-08},
{ 5.252793231669286, -0.8081220356414285, 1.691707807258449e-08},
{ 5.252793231669286, -0.40406101782071424, 4.9397518043023836e-08},
{ 5.252793231669286, 0.0, 2.009967369667685e-08},
{ 5.252793231669286, 0.40406101782071424, 4.9397518043023836e-08},
{ 5.252793231669286, 0.8081220356414285, 1.691707807258449e-08},
{ 5.252793231669286, 1.2121830534621427, 2.570894424362821e-08},
{ 5.252793231669286, 1.616244071282857, 5.444365017026586e-09},
{ 5.252793231669286, 2.020305089103571, 6.9637387540195715e-09},
{ 5.252793231669286, 2.4243661069242863, 1.2412001203599658e-09},
{ 5.252793231669286, 2.8284271247450006, 9.817023072292282e-10},
{ 5.252793231669286, 3.232488142565715, 1.0819866888773589e-10},
{ 5.252793231669286, 3.636549160386429, 7.202715602910392e-11},
{ 5.252793231669286, 4.040610178207143, 6.681511494808473e-12},
{ 5.252793231669286, 4.4446711960278575, 2.7503745228455224e-12},
{ 5.252793231669286, 4.848732213848572, 1.577658699234771e-13},
{ 5.252793231669286, 5.252793231669286, 5.46596088586936e-14},
{ 5.252793231669286, 5.65685424949, 1.3194535032502126e-15},
{ 5.65685424949, -5.65685424949, 3.1850896550320993e-17},
{ 5.65685424949, -5.252793231669286, 1.3194535032502126e-15},
{ 5.65685424949, -4.848732213848572, 3.808383084152654e-15},
{ 5.65685424949, -4.4446711960278575, 6.639255887835477e-14},
{ 5.65685424949, -4.040610178207143, 1.6128808699715807e-13},
{ 5.65685424949, -3.6365491603864286, 1.7386967330381007e-12},
{ 5.65685424949, -3.2324881425657144, 2.611857561586385e-12},
{ 5.65685424949, -2.828427124745, 2.3697764683444214e-11},
{ 5.65685424949, -2.424366106924286, 2.996190205600176e-11},
{ 5.65685424949, -2.0203050891035716, 1.681009009498059e-10},
{ 5.65685424949, -1.616244071282857, 1.3142403768859177e-10},
{ 5.65685424949, -1.2121830534621427, 6.206000601799839e-10},
{ 5.65685424949, -0.8081220356414285, 4.0836914851209667e-10},
{ 5.65685424949, -0.40406101782071424, 1.1924294665596914e-09},
{ 5.65685424949, 0.0, 4.851952918621796e-10},
{ 5.65685424949, 0.40406101782071424, 1.1924294665596914e-09},
{ 5.65685424949, 0.8081220356414285, 4.0836914851209667e-10},
{ 5.65685424949, 1.2121830534621427, 6.206000601799839e-10},
{ 5.65685424949, 1.616244071282857, 1.3142403768859177e-10},
{ 5.65685424949, 2.020305089103571, 1.6810090094980605e-10},
{ 5.65685424949, 2.4243661069242863, 2.996190205600173e-11},
{ 5.65685424949, 2.8284271247450006, 2.369776468344418e-11},
{ 5.65685424949, 3.232488142565715, 2.611857561586382e-12},
{ 5.65685424949, 3.636549160386429, 1.7386967330380975e-12},
{ 5.65685424949, 4.040610178207143, 1.6128808699715807e-13},
{ 5.65685424949, 4.4446711960278575, 6.639255887835477e-14},
{ 5.65685424949, 4.848732213848572, 3.808383084152654e-15},
{ 5.65685424949, 5.252793231669286, 1.3194535032502126e-15},
{ 5.65685424949, 5.65685424949, 3.1850896550320993e-17},
};

#endif //841
#if 0
const Real ew[625][3] = {
{ -5.65685424949, -5.65685424949, 4.3352609193492464e-17},
{ -5.65685424949, -5.185449728699167, 2.5522949140531892e-15},
{ -5.65685424949, -4.714045207908334, 9.86997184698145e-15},
{ -5.65685424949, -4.2426406871175, 2.1733443998031647e-13},
{ -5.65685424949, -3.771236166326667, 6.286959043430201e-13},
{ -5.65685424949, -3.2998316455358334, 7.608283909281627e-12},
{ -5.65685424949, -2.828427124745, 1.2095734057174651e-11},
{ -5.65685424949, -2.357022603954167, 1.0949778365021454e-10},
{ -5.65685424949, -1.8856180831633336, 1.3022005305429207e-10},
{ -5.65685424949, -1.4142135623724998, 6.478648347142048e-10},
{ -5.65685424949, -0.9428090415816666, 4.23438543870389e-10},
{ -5.65685424949, -0.4714045207908333, 1.5758829148952274e-09},
{ -5.65685424949, 0.0, 7.704721532811465e-10},
{ -5.65685424949, 0.4714045207908333, 1.5758829148952274e-09},
{ -5.65685424949, 0.9428090415816666, 4.23438543870389e-10},
{ -5.65685424949, 1.4142135623724998, 6.478648347142048e-10},
{ -5.65685424949, 1.8856180831633331, 1.302200530542922e-10},
{ -5.65685424949, 2.3570226039541664, 1.0949778365021464e-10},
{ -5.65685424949, 2.8284271247450006, 1.2095734057174634e-11},
{ -5.65685424949, 3.299831645535833, 7.608283909281642e-12},
{ -5.65685424949, 3.771236166326667, 6.286959043430201e-13},
{ -5.65685424949, 4.2426406871174995, 2.1733443998031725e-13},
{ -5.65685424949, 4.714045207908334, 9.86997184698145e-15},
{ -5.65685424949, 5.185449728699166, 2.552294914053203e-15},
{ -5.65685424949, 5.65685424949, 4.3352609193492464e-17},
{ -5.185449728699167, -5.65685424949, 2.5522949140531892e-15},
{ -5.185449728699167, -5.185449728699167, 1.502610673149427e-13},
{ -5.185449728699167, -4.714045207908334, 5.810741133126602e-13},
{ -5.185449728699167, -4.2426406871175, 1.2795114207188814e-11},
{ -5.185449728699167, -3.771236166326667, 3.7013166888733076e-11},
{ -5.185449728699167, -3.2998316455358334, 4.479219287508785e-10},
{ -5.185449728699167, -2.828427124745, 7.121112452096863e-10},
{ -5.185449728699167, -2.357022603954167, 6.446454815745889e-09},
{ -5.185449728699167, -1.8856180831633336, 7.666435430329201e-09},
{ -5.185449728699167, -1.4142135623724998, 3.814169789077386e-08},
{ -5.185449728699167, -0.9428090415816666, 2.4929065678859044e-08},
{ -5.185449728699167, -0.4714045207908333, 9.277683681918162e-08},
{ -5.185449728699167, 0.0, 4.5359949373802877e-08},
{ -5.185449728699167, 0.4714045207908333, 9.277683681918162e-08},
{ -5.185449728699167, 0.9428090415816666, 2.4929065678859044e-08},
{ -5.185449728699167, 1.4142135623724998, 3.814169789077386e-08},
{ -5.185449728699167, 1.8856180831633331, 7.66643543032921e-09},
{ -5.185449728699167, 2.3570226039541664, 6.446454815745895e-09},
{ -5.185449728699167, 2.8284271247450006, 7.121112452096853e-10},
{ -5.185449728699167, 3.299831645535833, 4.479219287508793e-10},
{ -5.185449728699167, 3.771236166326667, 3.7013166888733076e-11},
{ -5.185449728699167, 4.2426406871174995, 1.279511420718886e-11},
{ -5.185449728699167, 4.714045207908334, 5.810741133126602e-13},
{ -5.185449728699167, 5.185449728699166, 1.5026106731494354e-13},
{ -5.185449728699167, 5.65685424949, 2.5522949140531892e-15},
{ -4.714045207908334, -5.65685424949, 9.86997184698145e-15},
{ -4.714045207908334, -5.185449728699167, 5.810741133126602e-13},
{ -4.714045207908334, -4.714045207908334, 2.247069924336395e-12},
{ -4.714045207908334, -4.2426406871175, 4.947994697184676e-11},
{ -4.714045207908334, -3.771236166326667, 1.4313350434071676e-10},
{ -4.714045207908334, -3.2998316455358334, 1.7321575191309062e-09},
{ -4.714045207908334, -2.828427124745, 2.7538032158583203e-09},
{ -4.714045207908334, -2.357022603954167, 2.492906567885907e-08},
{ -4.714045207908334, -1.8856180831633336, 2.9646848977920834e-08},
{ -4.714045207908334, -1.4142135623724998, 1.4749764312313497e-07},
{ -4.714045207908334, -0.9428090415816666, 9.640311355365678e-08},
{ -4.714045207908334, -0.4714045207908333, 3.5877702157981563e-07},
{ -4.714045207908334, 0.0, 1.754113213307952e-07},
{ -4.714045207908334, 0.4714045207908333, 3.5877702157981563e-07},
{ -4.714045207908334, 0.9428090415816666, 9.640311355365678e-08},
{ -4.714045207908334, 1.4142135623724998, 1.4749764312313497e-07},
{ -4.714045207908334, 1.8856180831633331, 2.964684897792086e-08},
{ -4.714045207908334, 2.3570226039541664, 2.4929065678859094e-08},
{ -4.714045207908334, 2.8284271247450006, 2.7538032158583166e-09},
{ -4.714045207908334, 3.299831645535833, 1.7321575191309095e-09},
{ -4.714045207908334, 3.771236166326667, 1.4313350434071676e-10},
{ -4.714045207908334, 4.2426406871174995, 4.9479946971846935e-11},
{ -4.714045207908334, 4.714045207908334, 2.247069924336395e-12},
{ -4.714045207908334, 5.185449728699166, 5.810741133126635e-13},
{ -4.714045207908334, 5.65685424949, 9.86997184698145e-15},
{ -4.2426406871175, -5.65685424949, 2.1733443998031647e-13},
{ -4.2426406871175, -5.185449728699167, 1.2795114207188814e-11},
{ -4.2426406871175, -4.714045207908334, 4.947994697184675e-11},
{ -4.2426406871175, -4.2426406871175, 1.0895367010262438e-09},
{ -4.2426406871175, -3.771236166326667, 3.151765829790449e-09},
{ -4.2426406871175, -3.2998316455358334, 3.8141697890773865e-08},
{ -4.2426406871175, -2.828427124745, 6.063809390880904e-08},
{ -4.2426406871175, -2.357022603954167, 5.489321157693417e-07},
{ -4.2426406871175, -1.8856180831633336, 6.528165854665534e-07},
{ -4.2426406871175, -1.4142135623724998, 3.2478631310774155e-06},
{ -4.2426406871175, -0.9428090415816666, 2.122773704055757e-06},
{ -4.2426406871175, -0.4714045207908333, 7.900184952067746e-06},
{ -4.2426406871175, 0.0, 3.8625157071035525e-06},
{ -4.2426406871175, 0.4714045207908333, 7.900184952067746e-06},
{ -4.2426406871175, 0.9428090415816666, 2.122773704055757e-06},
{ -4.2426406871175, 1.4142135623724998, 3.2478631310774155e-06},
{ -4.2426406871175, 1.8856180831633331, 6.528165854665542e-07},
{ -4.2426406871175, 2.3570226039541664, 5.489321157693421e-07},
{ -4.2426406871175, 2.8284271247450006, 6.063809390880896e-08},
{ -4.2426406871175, 3.299831645535833, 3.814169789077394e-08},
{ -4.2426406871175, 3.771236166326667, 3.151765829790449e-09},
{ -4.2426406871175, 4.2426406871174995, 1.0895367010262475e-09},
{ -4.2426406871175, 4.714045207908334, 4.947994697184675e-11},
{ -4.2426406871175, 5.185449728699166, 1.2795114207188884e-11},
{ -4.2426406871175, 5.65685424949, 2.1733443998031647e-13},
{ -3.771236166326667, -5.65685424949, 6.286959043430201e-13},
{ -3.771236166326667, -5.185449728699167, 3.701316688873307e-11},
{ -3.771236166326667, -4.714045207908334, 1.4313350434071674e-10},
{ -3.771236166326667, -4.2426406871175, 3.15176582979045e-09},
{ -3.771236166326667, -3.771236166326667, 9.11729530219415e-09},
{ -3.771236166326667, -3.2998316455358334, 1.1033469546193467e-07},
{ -3.771236166326667, -2.828427124745, 1.75411321330795e-07},
{ -3.771236166326667, -2.357022603954167, 1.5879276794685168e-06},
{ -3.771236166326667, -1.8856180831633336, 1.888440293251214e-06},
{ -3.771236166326667, -1.4142135623724998, 9.395281523535804e-06},
{ -3.771236166326667, -0.9428090415816666, 6.140670267021585e-06},
{ -3.771236166326667, -0.4714045207908333, 2.285332192802569e-05},
{ -3.771236166326667, 0.0, 1.1173322579415016e-05},
{ -3.771236166326667, 0.4714045207908333, 2.285332192802569e-05},
{ -3.771236166326667, 0.9428090415816666, 6.140670267021585e-06},
{ -3.771236166326667, 1.4142135623724998, 9.395281523535804e-06},
{ -3.771236166326667, 1.8856180831633331, 1.888440293251216e-06},
{ -3.771236166326667, 2.3570226039541664, 1.5879276794685185e-06},
{ -3.771236166326667, 2.8284271247450006, 1.7541132133079475e-07},
{ -3.771236166326667, 3.299831645535833, 1.1033469546193486e-07},
{ -3.771236166326667, 3.771236166326667, 9.11729530219415e-09},
{ -3.771236166326667, 4.2426406871174995, 3.151765829790461e-09},
{ -3.771236166326667, 4.714045207908334, 1.4313350434071674e-10},
{ -3.771236166326667, 5.185449728699166, 3.7013166888733276e-11},
{ -3.771236166326667, 5.65685424949, 6.286959043430201e-13},
{ -3.2998316455358334, -5.65685424949, 7.608283909281627e-12},
{ -3.2998316455358334, -5.185449728699167, 4.479219287508785e-10},
{ -3.2998316455358334, -4.714045207908334, 1.7321575191309062e-09},
{ -3.2998316455358334, -4.2426406871175, 3.8141697890773865e-08},
{ -3.2998316455358334, -3.771236166326667, 1.1033469546193465e-07},
{ -3.2998316455358334, -3.2998316455358334, 1.33523645107208e-06},
{ -3.2998316455358334, -2.828427124745, 2.122773704055757e-06},
{ -3.2998316455358334, -2.357022603954167, 1.921661097097198e-05},
{ -3.2998316455358334, -1.8856180831633336, 2.28533219280257e-05},
{ -3.2998316455358334, -1.4142135623724998, 0.0001136987989660697},
{ -3.2998316455358334, -0.9428090415816666, 7.431249744438251e-05},
{ -3.2998316455358334, -0.4714045207908333, 0.00027656385272674513},
{ -3.2998316455358334, 0.0, 0.00013521610337673603},
{ -3.2998316455358334, 0.4714045207908333, 0.00027656385272674513},
{ -3.2998316455358334, 0.9428090415816666, 7.431249744438251e-05},
{ -3.2998316455358334, 1.4142135623724998, 0.0001136987989660697},
{ -3.2998316455358334, 1.8856180831633331, 2.2853321928025724e-05},
{ -3.2998316455358334, 2.3570226039541664, 1.9216610970971993e-05},
{ -3.2998316455358334, 2.8284271247450006, 2.1227737040557544e-06},
{ -3.2998316455358334, 3.299831645535833, 1.3352364510720824e-06},
{ -3.2998316455358334, 3.771236166326667, 1.1033469546193465e-07},
{ -3.2998316455358334, 4.2426406871174995, 3.8141697890774e-08},
{ -3.2998316455358334, 4.714045207908334, 1.7321575191309062e-09},
{ -3.2998316455358334, 5.185449728699166, 4.479219287508809e-10},
{ -3.2998316455358334, 5.65685424949, 7.608283909281627e-12},
{ -2.828427124745, -5.65685424949, 1.209573405717465e-11},
{ -2.828427124745, -5.185449728699167, 7.121112452096861e-10},
{ -2.828427124745, -4.714045207908334, 2.75380321585832e-09},
{ -2.828427124745, -4.2426406871175, 6.063809390880903e-08},
{ -2.828427124745, -3.771236166326667, 1.7541132133079496e-07},
{ -2.828427124745, -3.2998316455358334, 2.122773704055757e-06},
{ -2.828427124745, -2.828427124745, 3.3748091545976985e-06},
{ -2.828427124745, -2.357022603954167, 3.055078103769246e-05},
{ -2.828427124745, -1.8856180831633336, 3.63324644112153e-05},
{ -2.828427124745, -1.4142135623724998, 0.000180759610355234},
{ -2.828427124745, -0.9428090415816666, 0.00011814283180405033},
{ -2.828427124745, -0.4714045207908333, 0.0004396842773347798},
{ -2.828427124745, 0.0, 0.00021496805931455596},
{ -2.828427124745, 0.4714045207908333, 0.0004396842773347798},
{ -2.828427124745, 0.9428090415816666, 0.00011814283180405033},
{ -2.828427124745, 1.4142135623724998, 0.000180759610355234},
{ -2.828427124745, 1.8856180831633331, 3.633246441121534e-05},
{ -2.828427124745, 2.3570226039541664, 3.0550781037692485e-05},
{ -2.828427124745, 2.8284271247450006, 3.3748091545976942e-06},
{ -2.828427124745, 3.299831645535833, 2.1227737040557607e-06},
{ -2.828427124745, 3.771236166326667, 1.7541132133079496e-07},
{ -2.828427124745, 4.2426406871174995, 6.063809390880925e-08},
{ -2.828427124745, 4.714045207908334, 2.75380321585832e-09},
{ -2.828427124745, 5.185449728699166, 7.1211124520969e-10},
{ -2.828427124745, 5.65685424949, 1.209573405717465e-11},
{ -2.357022603954167, -5.65685424949, 1.0949778365021453e-10},
{ -2.357022603954167, -5.185449728699167, 6.446454815745889e-09},
{ -2.357022603954167, -4.714045207908334, 2.4929065678859067e-08},
{ -2.357022603954167, -4.2426406871175, 5.489321157693417e-07},
{ -2.357022603954167, -3.771236166326667, 1.5879276794685166e-06},
{ -2.357022603954167, -3.2998316455358334, 1.921661097097198e-05},
{ -2.357022603954167, -2.828427124745, 3.055078103769246e-05},
{ -2.357022603954167, -2.357022603954167, 0.00027656385272674513},
{ -2.357022603954167, -1.8856180831633336, 0.0003289030916828572},
{ -2.357022603954167, -1.4142135623724998, 0.0016363435748353193},
{ -2.357022603954167, -0.9428090415816666, 0.0010694992280381945},
{ -2.357022603954167, -0.4714045207908333, 0.003980283763385778},
{ -2.357022603954167, 0.0, 0.001946018814506733},
{ -2.357022603954167, 0.4714045207908333, 0.003980283763385778},
{ -2.357022603954167, 0.9428090415816666, 0.0010694992280381945},
{ -2.357022603954167, 1.4142135623724998, 0.0016363435748353193},
{ -2.357022603954167, 1.8856180831633331, 0.0003289030916828575},
{ -2.357022603954167, 2.3570226039541664, 0.0002765638527267454},
{ -2.357022603954167, 2.8284271247450006, 3.055078103769242e-05},
{ -2.357022603954167, 3.299831645535833, 1.9216610970972013e-05},
{ -2.357022603954167, 3.771236166326667, 1.5879276794685166e-06},
{ -2.357022603954167, 4.2426406871174995, 5.489321157693435e-07},
{ -2.357022603954167, 4.714045207908334, 2.4929065678859067e-08},
{ -2.357022603954167, 5.185449728699166, 6.446454815745923e-09},
{ -2.357022603954167, 5.65685424949, 1.0949778365021453e-10},
{ -1.8856180831633336, -5.65685424949, 1.3022005305429204e-10},
{ -1.8856180831633336, -5.185449728699167, 7.6664354303292e-09},
{ -1.8856180831633336, -4.714045207908334, 2.9646848977920834e-08},
{ -1.8856180831633336, -4.2426406871175, 6.528165854665534e-07},
{ -1.8856180831633336, -3.771236166326667, 1.8884402932512138e-06},
{ -1.8856180831633336, -3.2998316455358334, 2.2853321928025703e-05},
{ -1.8856180831633336, -2.828427124745, 3.63324644112153e-05},
{ -1.8856180831633336, -2.357022603954167, 0.0003289030916828572},
{ -1.8856180831633336, -1.8856180831633336, 0.0003911474426320813},
{ -1.8856180831633336, -1.4142135623724998, 0.0019460188145067328},
{ -1.8856180831633336, -0.9428090415816666, 0.0012719001387420795},
{ -1.8856180831633336, -0.4714045207908333, 0.004733545698924452},
{ -1.8856180831633336, 0.0, 0.0023142995668225183},
{ -1.8856180831633336, 0.4714045207908333, 0.004733545698924452},
{ -1.8856180831633336, 0.9428090415816666, 0.0012719001387420795},
{ -1.8856180831633336, 1.4142135623724998, 0.0019460188145067328},
{ -1.8856180831633336, 1.8856180831633331, 0.0003911474426320817},
{ -1.8856180831633336, 2.3570226039541664, 0.0003289030916828574},
{ -1.8856180831633336, 2.8284271247450006, 3.6332464411215244e-05},
{ -1.8856180831633336, 3.299831645535833, 2.285332192802574e-05},
{ -1.8856180831633336, 3.771236166326667, 1.8884402932512138e-06},
{ -1.8856180831633336, 4.2426406871174995, 6.528165854665557e-07},
{ -1.8856180831633336, 4.714045207908334, 2.9646848977920834e-08},
{ -1.8856180831633336, 5.185449728699166, 7.666435430329241e-09},
{ -1.8856180831633336, 5.65685424949, 1.3022005305429204e-10},
{ -1.4142135623724998, -5.65685424949, 6.478648347142049e-10},
{ -1.4142135623724998, -5.185449728699167, 3.814169789077386e-08},
{ -1.4142135623724998, -4.714045207908334, 1.4749764312313497e-07},
{ -1.4142135623724998, -4.2426406871175, 3.2478631310774155e-06},
{ -1.4142135623724998, -3.771236166326667, 9.395281523535804e-06},
{ -1.4142135623724998, -3.2998316455358334, 0.0001136987989660697},
{ -1.4142135623724998, -2.828427124745, 0.000180759610355234},
{ -1.4142135623724998, -2.357022603954167, 0.0016363435748353193},
{ -1.4142135623724998, -1.8856180831633336, 0.001946018814506733},
{ -1.4142135623724998, -1.4142135623724998, 0.009681743541338411},
{ -1.4142135623724998, -0.9428090415816666, 0.00632789922774457},
{ -1.4142135623724998, -0.4714045207908333, 0.023550119431814707},
{ -1.4142135623724998, 0.0, 0.011513997047086966},
{ -1.4142135623724998, 0.4714045207908333, 0.023550119431814707},
{ -1.4142135623724998, 0.9428090415816666, 0.00632789922774457},
{ -1.4142135623724998, 1.4142135623724998, 0.009681743541338411},
{ -1.4142135623724998, 1.8856180831633331, 0.0019460188145067347},
{ -1.4142135623724998, 2.3570226039541664, 0.0016363435748353208},
{ -1.4142135623724998, 2.8284271247450006, 0.00018075961035523378},
{ -1.4142135623724998, 3.299831645535833, 0.00011369879896606993},
{ -1.4142135623724998, 3.771236166326667, 9.395281523535804e-06},
{ -1.4142135623724998, 4.2426406871174995, 3.2478631310774278e-06},
{ -1.4142135623724998, 4.714045207908334, 1.4749764312313497e-07},
{ -1.4142135623724998, 5.185449728699166, 3.8141697890774064e-08},
{ -1.4142135623724998, 5.65685424949, 6.478648347142049e-10},
{ -0.9428090415816666, -5.65685424949, 4.2343854387038894e-10},
{ -0.9428090415816666, -5.185449728699167, 2.492906567885904e-08},
{ -0.9428090415816666, -4.714045207908334, 9.640311355365677e-08},
{ -0.9428090415816666, -4.2426406871175, 2.1227737040557565e-06},
{ -0.9428090415816666, -3.771236166326667, 6.140670267021583e-06},
{ -0.9428090415816666, -3.2998316455358334, 7.431249744438252e-05},
{ -0.9428090415816666, -2.828427124745, 0.00011814283180405033},
{ -0.9428090415816666, -2.357022603954167, 0.0010694992280381945},
{ -0.9428090415816666, -1.8856180831633336, 0.0012719001387420795},
{ -0.9428090415816666, -1.4142135623724998, 0.00632789922774457},
{ -0.9428090415816666, -0.9428090415816666, 0.0041358571899287105},
{ -0.9428090415816666, -0.4714045207908333, 0.015392143153718741},
{ -0.9428090415816666, 0.0, 0.00752544339884908},
{ -0.9428090415816666, 0.4714045207908333, 0.015392143153718741},
{ -0.9428090415816666, 0.9428090415816666, 0.0041358571899287105},
{ -0.9428090415816666, 1.4142135623724998, 0.00632789922774457},
{ -0.9428090415816666, 1.8856180831633331, 0.0012719001387420808},
{ -0.9428090415816666, 2.3570226039541664, 0.0010694992280381953},
{ -0.9428090415816666, 2.8284271247450006, 0.00011814283180405017},
{ -0.9428090415816666, 3.299831645535833, 7.431249744438264e-05},
{ -0.9428090415816666, 3.771236166326667, 6.140670267021583e-06},
{ -0.9428090415816666, 4.2426406871174995, 2.122773704055764e-06},
{ -0.9428090415816666, 4.714045207908334, 9.640311355365677e-08},
{ -0.9428090415816666, 5.185449728699166, 2.4929065678859176e-08},
{ -0.9428090415816666, 5.65685424949, 4.2343854387038894e-10},
{ -0.4714045207908333, -5.65685424949, 1.5758829148952276e-09},
{ -0.4714045207908333, -5.185449728699167, 9.277683681918164e-08},
{ -0.4714045207908333, -4.714045207908334, 3.587770215798157e-07},
{ -0.4714045207908333, -4.2426406871175, 7.900184952067747e-06},
{ -0.4714045207908333, -3.771236166326667, 2.285332192802569e-05},
{ -0.4714045207908333, -3.2998316455358334, 0.00027656385272674513},
{ -0.4714045207908333, -2.828427124745, 0.00043968427733477984},
{ -0.4714045207908333, -2.357022603954167, 0.0039802837633857785},
{ -0.4714045207908333, -1.8856180831633336, 0.004733545698924453},
{ -0.4714045207908333, -1.4142135623724998, 0.02355011943181471},
{ -0.4714045207908333, -0.9428090415816666, 0.015392143153718741},
{ -0.4714045207908333, -0.4714045207908333, 0.05728390995740704},
{ -0.4714045207908333, 0.0, 0.02800693949790113},
{ -0.4714045207908333, 0.4714045207908333, 0.05728390995740704},
{ -0.4714045207908333, 0.9428090415816666, 0.015392143153718741},
{ -0.4714045207908333, 1.4142135623724998, 0.02355011943181471},
{ -0.4714045207908333, 1.8856180831633331, 0.004733545698924458},
{ -0.4714045207908333, 2.3570226039541664, 0.003980283763385781},
{ -0.4714045207908333, 2.8284271247450006, 0.0004396842773347793},
{ -0.4714045207908333, 3.299831645535833, 0.0002765638527267456},
{ -0.4714045207908333, 3.771236166326667, 2.285332192802569e-05},
{ -0.4714045207908333, 4.2426406871174995, 7.900184952067774e-06},
{ -0.4714045207908333, 4.714045207908334, 3.587770215798157e-07},
{ -0.4714045207908333, 5.185449728699166, 9.277683681918213e-08},
{ -0.4714045207908333, 5.65685424949, 1.5758829148952276e-09},
{ 0.0, -5.65685424949, 7.704721532811465e-10},
{ 0.0, -5.185449728699167, 4.5359949373802877e-08},
{ 0.0, -4.714045207908334, 1.7541132133079523e-07},
{ 0.0, -4.2426406871175, 3.8625157071035525e-06},
{ 0.0, -3.771236166326667, 1.1173322579415016e-05},
{ 0.0, -3.2998316455358334, 0.00013521610337673603},
{ 0.0, -2.828427124745, 0.00021496805931455596},
{ 0.0, -2.357022603954167, 0.001946018814506733},
{ 0.0, -1.8856180831633336, 0.0023142995668225183},
{ 0.0, -1.4142135623724998, 0.011513997047086966},
{ 0.0, -0.9428090415816666, 0.007525443398849079},
{ 0.0, -0.4714045207908333, 0.02800693949790113},
{ 0.0, 0.0, 0.013693001413875552},
{ 0.0, 0.4714045207908333, 0.02800693949790113},
{ 0.0, 0.9428090415816666, 0.007525443398849079},
{ 0.0, 1.4142135623724998, 0.011513997047086966},
{ 0.0, 1.8856180831633331, 0.0023142995668225205},
{ 0.0, 2.3570226039541664, 0.0019460188145067347},
{ 0.0, 2.8284271247450006, 0.00021496805931455566},
{ 0.0, 3.299831645535833, 0.0001352161033767363},
{ 0.0, 3.771236166326667, 1.1173322579415016e-05},
{ 0.0, 4.2426406871174995, 3.862515707103567e-06},
{ 0.0, 4.714045207908334, 1.7541132133079523e-07},
{ 0.0, 5.185449728699166, 4.535994937380313e-08},
{ 0.0, 5.65685424949, 7.704721532811465e-10},
{ 0.4714045207908333, -5.65685424949, 1.5758829148952276e-09},
{ 0.4714045207908333, -5.185449728699167, 9.277683681918164e-08},
{ 0.4714045207908333, -4.714045207908334, 3.587770215798157e-07},
{ 0.4714045207908333, -4.2426406871175, 7.900184952067747e-06},
{ 0.4714045207908333, -3.771236166326667, 2.285332192802569e-05},
{ 0.4714045207908333, -3.2998316455358334, 0.00027656385272674513},
{ 0.4714045207908333, -2.828427124745, 0.00043968427733477984},
{ 0.4714045207908333, -2.357022603954167, 0.0039802837633857785},
{ 0.4714045207908333, -1.8856180831633336, 0.004733545698924453},
{ 0.4714045207908333, -1.4142135623724998, 0.02355011943181471},
{ 0.4714045207908333, -0.9428090415816666, 0.015392143153718741},
{ 0.4714045207908333, -0.4714045207908333, 0.05728390995740704},
{ 0.4714045207908333, 0.0, 0.02800693949790113},
{ 0.4714045207908333, 0.4714045207908333, 0.05728390995740704},
{ 0.4714045207908333, 0.9428090415816666, 0.015392143153718741},
{ 0.4714045207908333, 1.4142135623724998, 0.02355011943181471},
{ 0.4714045207908333, 1.8856180831633331, 0.004733545698924458},
{ 0.4714045207908333, 2.3570226039541664, 0.003980283763385781},
{ 0.4714045207908333, 2.8284271247450006, 0.0004396842773347793},
{ 0.4714045207908333, 3.299831645535833, 0.0002765638527267456},
{ 0.4714045207908333, 3.771236166326667, 2.285332192802569e-05},
{ 0.4714045207908333, 4.2426406871174995, 7.900184952067774e-06},
{ 0.4714045207908333, 4.714045207908334, 3.587770215798157e-07},
{ 0.4714045207908333, 5.185449728699166, 9.277683681918213e-08},
{ 0.4714045207908333, 5.65685424949, 1.5758829148952276e-09},
{ 0.9428090415816666, -5.65685424949, 4.2343854387038894e-10},
{ 0.9428090415816666, -5.185449728699167, 2.492906567885904e-08},
{ 0.9428090415816666, -4.714045207908334, 9.640311355365677e-08},
{ 0.9428090415816666, -4.2426406871175, 2.1227737040557565e-06},
{ 0.9428090415816666, -3.771236166326667, 6.140670267021583e-06},
{ 0.9428090415816666, -3.2998316455358334, 7.431249744438252e-05},
{ 0.9428090415816666, -2.828427124745, 0.00011814283180405033},
{ 0.9428090415816666, -2.357022603954167, 0.0010694992280381945},
{ 0.9428090415816666, -1.8856180831633336, 0.0012719001387420795},
{ 0.9428090415816666, -1.4142135623724998, 0.00632789922774457},
{ 0.9428090415816666, -0.9428090415816666, 0.0041358571899287105},
{ 0.9428090415816666, -0.4714045207908333, 0.015392143153718741},
{ 0.9428090415816666, 0.0, 0.00752544339884908},
{ 0.9428090415816666, 0.4714045207908333, 0.015392143153718741},
{ 0.9428090415816666, 0.9428090415816666, 0.0041358571899287105},
{ 0.9428090415816666, 1.4142135623724998, 0.00632789922774457},
{ 0.9428090415816666, 1.8856180831633331, 0.0012719001387420808},
{ 0.9428090415816666, 2.3570226039541664, 0.0010694992280381953},
{ 0.9428090415816666, 2.8284271247450006, 0.00011814283180405017},
{ 0.9428090415816666, 3.299831645535833, 7.431249744438264e-05},
{ 0.9428090415816666, 3.771236166326667, 6.140670267021583e-06},
{ 0.9428090415816666, 4.2426406871174995, 2.122773704055764e-06},
{ 0.9428090415816666, 4.714045207908334, 9.640311355365677e-08},
{ 0.9428090415816666, 5.185449728699166, 2.4929065678859176e-08},
{ 0.9428090415816666, 5.65685424949, 4.2343854387038894e-10},
{ 1.4142135623724998, -5.65685424949, 6.478648347142049e-10},
{ 1.4142135623724998, -5.185449728699167, 3.814169789077386e-08},
{ 1.4142135623724998, -4.714045207908334, 1.4749764312313497e-07},
{ 1.4142135623724998, -4.2426406871175, 3.2478631310774155e-06},
{ 1.4142135623724998, -3.771236166326667, 9.395281523535804e-06},
{ 1.4142135623724998, -3.2998316455358334, 0.0001136987989660697},
{ 1.4142135623724998, -2.828427124745, 0.000180759610355234},
{ 1.4142135623724998, -2.357022603954167, 0.0016363435748353193},
{ 1.4142135623724998, -1.8856180831633336, 0.001946018814506733},
{ 1.4142135623724998, -1.4142135623724998, 0.009681743541338411},
{ 1.4142135623724998, -0.9428090415816666, 0.00632789922774457},
{ 1.4142135623724998, -0.4714045207908333, 0.023550119431814707},
{ 1.4142135623724998, 0.0, 0.011513997047086966},
{ 1.4142135623724998, 0.4714045207908333, 0.023550119431814707},
{ 1.4142135623724998, 0.9428090415816666, 0.00632789922774457},
{ 1.4142135623724998, 1.4142135623724998, 0.009681743541338411},
{ 1.4142135623724998, 1.8856180831633331, 0.0019460188145067347},
{ 1.4142135623724998, 2.3570226039541664, 0.0016363435748353208},
{ 1.4142135623724998, 2.8284271247450006, 0.00018075961035523378},
{ 1.4142135623724998, 3.299831645535833, 0.00011369879896606993},
{ 1.4142135623724998, 3.771236166326667, 9.395281523535804e-06},
{ 1.4142135623724998, 4.2426406871174995, 3.2478631310774278e-06},
{ 1.4142135623724998, 4.714045207908334, 1.4749764312313497e-07},
{ 1.4142135623724998, 5.185449728699166, 3.8141697890774064e-08},
{ 1.4142135623724998, 5.65685424949, 6.478648347142049e-10},
{ 1.8856180831633331, -5.65685424949, 1.302200530542922e-10},
{ 1.8856180831633331, -5.185449728699167, 7.666435430329208e-09},
{ 1.8856180831633331, -4.714045207908334, 2.9646848977920864e-08},
{ 1.8856180831633331, -4.2426406871175, 6.52816585466554e-07},
{ 1.8856180831633331, -3.771236166326667, 1.8884402932512157e-06},
{ 1.8856180831633331, -3.2998316455358334, 2.2853321928025727e-05},
{ 1.8856180831633331, -2.828427124745, 3.633246441121534e-05},
{ 1.8856180831633331, -2.357022603954167, 0.0003289030916828575},
{ 1.8856180831633331, -1.8856180831633336, 0.00039114744263208176},
{ 1.8856180831633331, -1.4142135623724998, 0.0019460188145067347},
{ 1.8856180831633331, -0.9428090415816666, 0.0012719001387420808},
{ 1.8856180831633331, -0.4714045207908333, 0.004733545698924457},
{ 1.8856180831633331, 0.0, 0.0023142995668225205},
{ 1.8856180831633331, 0.4714045207908333, 0.004733545698924457},
{ 1.8856180831633331, 0.9428090415816666, 0.0012719001387420808},
{ 1.8856180831633331, 1.4142135623724998, 0.0019460188145067347},
{ 1.8856180831633331, 1.8856180831633331, 0.00039114744263208214},
{ 1.8856180831633331, 2.3570226039541664, 0.0003289030916828578},
{ 1.8856180831633331, 2.8284271247450006, 3.6332464411215285e-05},
{ 1.8856180831633331, 3.299831645535833, 2.2853321928025768e-05},
{ 1.8856180831633331, 3.771236166326667, 1.8884402932512157e-06},
{ 1.8856180831633331, 4.2426406871174995, 6.528165854665564e-07},
{ 1.8856180831633331, 4.714045207908334, 2.9646848977920864e-08},
{ 1.8856180831633331, 5.185449728699166, 7.66643543032925e-09},
{ 1.8856180831633331, 5.65685424949, 1.302200530542922e-10},
{ 2.3570226039541664, -5.65685424949, 1.0949778365021463e-10},
{ 2.3570226039541664, -5.185449728699167, 6.446454815745893e-09},
{ 2.3570226039541664, -4.714045207908334, 2.4929065678859087e-08},
{ 2.3570226039541664, -4.2426406871175, 5.489321157693421e-07},
{ 2.3570226039541664, -3.771236166326667, 1.587927679468518e-06},
{ 2.3570226039541664, -3.2998316455358334, 1.9216610970971993e-05},
{ 2.3570226039541664, -2.828427124745, 3.0550781037692485e-05},
{ 2.3570226039541664, -2.357022603954167, 0.0002765638527267454},
{ 2.3570226039541664, -1.8856180831633336, 0.00032890309168285745},
{ 2.3570226039541664, -1.4142135623724998, 0.0016363435748353208},
{ 2.3570226039541664, -0.9428090415816666, 0.0010694992280381953},
{ 2.3570226039541664, -0.4714045207908333, 0.003980283763385781},
{ 2.3570226039541664, 0.0, 0.0019460188145067347},
{ 2.3570226039541664, 0.4714045207908333, 0.003980283763385781},
{ 2.3570226039541664, 0.9428090415816666, 0.0010694992280381953},
{ 2.3570226039541664, 1.4142135623724998, 0.0016363435748353208},
{ 2.3570226039541664, 1.8856180831633331, 0.0003289030916828578},
{ 2.3570226039541664, 2.3570226039541664, 0.0002765638527267456},
{ 2.3570226039541664, 2.8284271247450006, 3.0550781037692445e-05},
{ 2.3570226039541664, 3.299831645535833, 1.921661097097203e-05},
{ 2.3570226039541664, 3.771236166326667, 1.587927679468518e-06},
{ 2.3570226039541664, 4.2426406871174995, 5.48932115769344e-07},
{ 2.3570226039541664, 4.714045207908334, 2.4929065678859087e-08},
{ 2.3570226039541664, 5.185449728699166, 6.4464548157459286e-09},
{ 2.3570226039541664, 5.65685424949, 1.0949778365021463e-10},
{ 2.8284271247450006, -5.65685424949, 1.2095734057174635e-11},
{ 2.8284271247450006, -5.185449728699167, 7.121112452096851e-10},
{ 2.8284271247450006, -4.714045207908334, 2.753803215858316e-09},
{ 2.8284271247450006, -4.2426406871175, 6.063809390880895e-08},
{ 2.8284271247450006, -3.771236166326667, 1.7541132133079475e-07},
{ 2.8284271247450006, -3.2998316455358334, 2.122773704055754e-06},
{ 2.8284271247450006, -2.828427124745, 3.3748091545976942e-06},
{ 2.8284271247450006, -2.357022603954167, 3.055078103769242e-05},
{ 2.8284271247450006, -1.8856180831633336, 3.633246441121525e-05},
{ 2.8284271247450006, -1.4142135623724998, 0.00018075961035523373},
{ 2.8284271247450006, -0.9428090415816666, 0.00011814283180405017},
{ 2.8284271247450006, -0.4714045207908333, 0.0004396842773347792},
{ 2.8284271247450006, 0.0, 0.00021496805931455566},
{ 2.8284271247450006, 0.4714045207908333, 0.0004396842773347792},
{ 2.8284271247450006, 0.9428090415816666, 0.00011814283180405017},
{ 2.8284271247450006, 1.4142135623724998, 0.00018075961035523373},
{ 2.8284271247450006, 1.8856180831633331, 3.633246441121529e-05},
{ 2.8284271247450006, 2.3570226039541664, 3.0550781037692445e-05},
{ 2.8284271247450006, 2.8284271247450006, 3.3748091545976896e-06},
{ 2.8284271247450006, 3.299831645535833, 2.1227737040557578e-06},
{ 2.8284271247450006, 3.771236166326667, 1.7541132133079475e-07},
{ 2.8284271247450006, 4.2426406871174995, 6.063809390880916e-08},
{ 2.8284271247450006, 4.714045207908334, 2.753803215858316e-09},
{ 2.8284271247450006, 5.185449728699166, 7.12111245209689e-10},
{ 2.8284271247450006, 5.65685424949, 1.2095734057174635e-11},
{ 3.299831645535833, -5.65685424949, 7.608283909281642e-12},
{ 3.299831645535833, -5.185449728699167, 4.479219287508793e-10},
{ 3.299831645535833, -4.714045207908334, 1.7321575191309093e-09},
{ 3.299831645535833, -4.2426406871175, 3.814169789077394e-08},
{ 3.299831645535833, -3.771236166326667, 1.1033469546193485e-07},
{ 3.299831645535833, -3.2998316455358334, 1.3352364510720824e-06},
{ 3.299831645535833, -2.828427124745, 2.122773704055761e-06},
{ 3.299831645535833, -2.357022603954167, 1.9216610970972017e-05},
{ 3.299831645535833, -1.8856180831633336, 2.2853321928025744e-05},
{ 3.299831645535833, -1.4142135623724998, 0.00011369879896606993},
{ 3.299831645535833, -0.9428090415816666, 7.431249744438264e-05},
{ 3.299831645535833, -0.4714045207908333, 0.0002765638527267456},
{ 3.299831645535833, 0.0, 0.0001352161033767363},
{ 3.299831645535833, 0.4714045207908333, 0.0002765638527267456},
{ 3.299831645535833, 0.9428090415816666, 7.431249744438264e-05},
{ 3.299831645535833, 1.4142135623724998, 0.00011369879896606993},
{ 3.299831645535833, 1.8856180831633331, 2.2853321928025768e-05},
{ 3.299831645535833, 2.3570226039541664, 1.921661097097203e-05},
{ 3.299831645535833, 2.8284271247450006, 2.122773704055758e-06},
{ 3.299831645535833, 3.299831645535833, 1.335236451072085e-06},
{ 3.299831645535833, 3.771236166326667, 1.1033469546193485e-07},
{ 3.299831645535833, 4.2426406871174995, 3.814169789077407e-08},
{ 3.299831645535833, 4.714045207908334, 1.7321575191309093e-09},
{ 3.299831645535833, 5.185449728699166, 4.4792192875088175e-10},
{ 3.299831645535833, 5.65685424949, 7.608283909281642e-12},
{ 3.771236166326667, -5.65685424949, 6.286959043430201e-13},
{ 3.771236166326667, -5.185449728699167, 3.701316688873307e-11},
{ 3.771236166326667, -4.714045207908334, 1.4313350434071674e-10},
{ 3.771236166326667, -4.2426406871175, 3.15176582979045e-09},
{ 3.771236166326667, -3.771236166326667, 9.11729530219415e-09},
{ 3.771236166326667, -3.2998316455358334, 1.1033469546193467e-07},
{ 3.771236166326667, -2.828427124745, 1.75411321330795e-07},
{ 3.771236166326667, -2.357022603954167, 1.5879276794685168e-06},
{ 3.771236166326667, -1.8856180831633336, 1.888440293251214e-06},
{ 3.771236166326667, -1.4142135623724998, 9.395281523535804e-06},
{ 3.771236166326667, -0.9428090415816666, 6.140670267021585e-06},
{ 3.771236166326667, -0.4714045207908333, 2.285332192802569e-05},
{ 3.771236166326667, 0.0, 1.1173322579415016e-05},
{ 3.771236166326667, 0.4714045207908333, 2.285332192802569e-05},
{ 3.771236166326667, 0.9428090415816666, 6.140670267021585e-06},
{ 3.771236166326667, 1.4142135623724998, 9.395281523535804e-06},
{ 3.771236166326667, 1.8856180831633331, 1.888440293251216e-06},
{ 3.771236166326667, 2.3570226039541664, 1.5879276794685185e-06},
{ 3.771236166326667, 2.8284271247450006, 1.7541132133079475e-07},
{ 3.771236166326667, 3.299831645535833, 1.1033469546193486e-07},
{ 3.771236166326667, 3.771236166326667, 9.11729530219415e-09},
{ 3.771236166326667, 4.2426406871174995, 3.151765829790461e-09},
{ 3.771236166326667, 4.714045207908334, 1.4313350434071674e-10},
{ 3.771236166326667, 5.185449728699166, 3.7013166888733276e-11},
{ 3.771236166326667, 5.65685424949, 6.286959043430201e-13},
{ 4.2426406871174995, -5.65685424949, 2.1733443998031725e-13},
{ 4.2426406871174995, -5.185449728699167, 1.279511420718886e-11},
{ 4.2426406871174995, -4.714045207908334, 4.947994697184693e-11},
{ 4.2426406871174995, -4.2426406871175, 1.0895367010262478e-09},
{ 4.2426406871174995, -3.771236166326667, 3.1517658297904615e-09},
{ 4.2426406871174995, -3.2998316455358334, 3.8141697890774e-08},
{ 4.2426406871174995, -2.828427124745, 6.063809390880925e-08},
{ 4.2426406871174995, -2.357022603954167, 5.489321157693435e-07},
{ 4.2426406871174995, -1.8856180831633336, 6.528165854665557e-07},
{ 4.2426406871174995, -1.4142135623724998, 3.2478631310774278e-06},
{ 4.2426406871174995, -0.9428090415816666, 2.1227737040557646e-06},
{ 4.2426406871174995, -0.4714045207908333, 7.900184952067774e-06},
{ 4.2426406871174995, 0.0, 3.862515707103567e-06},
{ 4.2426406871174995, 0.4714045207908333, 7.900184952067774e-06},
{ 4.2426406871174995, 0.9428090415816666, 2.1227737040557646e-06},
{ 4.2426406871174995, 1.4142135623724998, 3.2478631310774278e-06},
{ 4.2426406871174995, 1.8856180831633331, 6.528165854665564e-07},
{ 4.2426406871174995, 2.3570226039541664, 5.48932115769344e-07},
{ 4.2426406871174995, 2.8284271247450006, 6.063809390880917e-08},
{ 4.2426406871174995, 3.299831645535833, 3.814169789077407e-08},
{ 4.2426406871174995, 3.771236166326667, 3.1517658297904615e-09},
{ 4.2426406871174995, 4.2426406871174995, 1.0895367010262515e-09},
{ 4.2426406871174995, 4.714045207908334, 4.947994697184693e-11},
{ 4.2426406871174995, 5.185449728699166, 1.2795114207188929e-11},
{ 4.2426406871174995, 5.65685424949, 2.1733443998031725e-13},
{ 4.714045207908334, -5.65685424949, 9.86997184698145e-15},
{ 4.714045207908334, -5.185449728699167, 5.810741133126602e-13},
{ 4.714045207908334, -4.714045207908334, 2.247069924336395e-12},
{ 4.714045207908334, -4.2426406871175, 4.947994697184676e-11},
{ 4.714045207908334, -3.771236166326667, 1.4313350434071676e-10},
{ 4.714045207908334, -3.2998316455358334, 1.7321575191309062e-09},
{ 4.714045207908334, -2.828427124745, 2.7538032158583203e-09},
{ 4.714045207908334, -2.357022603954167, 2.492906567885907e-08},
{ 4.714045207908334, -1.8856180831633336, 2.9646848977920834e-08},
{ 4.714045207908334, -1.4142135623724998, 1.4749764312313497e-07},
{ 4.714045207908334, -0.9428090415816666, 9.640311355365678e-08},
{ 4.714045207908334, -0.4714045207908333, 3.5877702157981563e-07},
{ 4.714045207908334, 0.0, 1.754113213307952e-07},
{ 4.714045207908334, 0.4714045207908333, 3.5877702157981563e-07},
{ 4.714045207908334, 0.9428090415816666, 9.640311355365678e-08},
{ 4.714045207908334, 1.4142135623724998, 1.4749764312313497e-07},
{ 4.714045207908334, 1.8856180831633331, 2.964684897792086e-08},
{ 4.714045207908334, 2.3570226039541664, 2.4929065678859094e-08},
{ 4.714045207908334, 2.8284271247450006, 2.7538032158583166e-09},
{ 4.714045207908334, 3.299831645535833, 1.7321575191309095e-09},
{ 4.714045207908334, 3.771236166326667, 1.4313350434071676e-10},
{ 4.714045207908334, 4.2426406871174995, 4.9479946971846935e-11},
{ 4.714045207908334, 4.714045207908334, 2.247069924336395e-12},
{ 4.714045207908334, 5.185449728699166, 5.810741133126635e-13},
{ 4.714045207908334, 5.65685424949, 9.86997184698145e-15},
{ 5.185449728699166, -5.65685424949, 2.5522949140532026e-15},
{ 5.185449728699166, -5.185449728699167, 1.5026106731494354e-13},
{ 5.185449728699166, -4.714045207908334, 5.810741133126634e-13},
{ 5.185449728699166, -4.2426406871175, 1.2795114207188884e-11},
{ 5.185449728699166, -3.771236166326667, 3.701316688873327e-11},
{ 5.185449728699166, -3.2998316455358334, 4.479219287508809e-10},
{ 5.185449728699166, -2.828427124745, 7.1211124520969e-10},
{ 5.185449728699166, -2.357022603954167, 6.446454815745923e-09},
{ 5.185449728699166, -1.8856180831633336, 7.666435430329243e-09},
{ 5.185449728699166, -1.4142135623724998, 3.8141697890774064e-08},
{ 5.185449728699166, -0.9428090415816666, 2.4929065678859176e-08},
{ 5.185449728699166, -0.4714045207908333, 9.277683681918213e-08},
{ 5.185449728699166, 0.0, 4.535994937380313e-08},
{ 5.185449728699166, 0.4714045207908333, 9.277683681918213e-08},
{ 5.185449728699166, 0.9428090415816666, 2.4929065678859176e-08},
{ 5.185449728699166, 1.4142135623724998, 3.8141697890774064e-08},
{ 5.185449728699166, 1.8856180831633331, 7.666435430329251e-09},
{ 5.185449728699166, 2.3570226039541664, 6.446454815745929e-09},
{ 5.185449728699166, 2.8284271247450006, 7.12111245209689e-10},
{ 5.185449728699166, 3.299831645535833, 4.4792192875088175e-10},
{ 5.185449728699166, 3.771236166326667, 3.701316688873327e-11},
{ 5.185449728699166, 4.2426406871174995, 1.2795114207188929e-11},
{ 5.185449728699166, 4.714045207908334, 5.810741133126634e-13},
{ 5.185449728699166, 5.185449728699166, 1.5026106731494435e-13},
{ 5.185449728699166, 5.65685424949, 2.5522949140532026e-15},
{ 5.65685424949, -5.65685424949, 4.3352609193492464e-17},
{ 5.65685424949, -5.185449728699167, 2.5522949140531892e-15},
{ 5.65685424949, -4.714045207908334, 9.86997184698145e-15},
{ 5.65685424949, -4.2426406871175, 2.1733443998031647e-13},
{ 5.65685424949, -3.771236166326667, 6.286959043430201e-13},
{ 5.65685424949, -3.2998316455358334, 7.608283909281627e-12},
{ 5.65685424949, -2.828427124745, 1.2095734057174651e-11},
{ 5.65685424949, -2.357022603954167, 1.0949778365021454e-10},
{ 5.65685424949, -1.8856180831633336, 1.3022005305429207e-10},
{ 5.65685424949, -1.4142135623724998, 6.478648347142048e-10},
{ 5.65685424949, -0.9428090415816666, 4.23438543870389e-10},
{ 5.65685424949, -0.4714045207908333, 1.5758829148952274e-09},
{ 5.65685424949, 0.0, 7.704721532811465e-10},
{ 5.65685424949, 0.4714045207908333, 1.5758829148952274e-09},
{ 5.65685424949, 0.9428090415816666, 4.23438543870389e-10},
{ 5.65685424949, 1.4142135623724998, 6.478648347142048e-10},
{ 5.65685424949, 1.8856180831633331, 1.302200530542922e-10},
{ 5.65685424949, 2.3570226039541664, 1.0949778365021464e-10},
{ 5.65685424949, 2.8284271247450006, 1.2095734057174634e-11},
{ 5.65685424949, 3.299831645535833, 7.608283909281642e-12},
{ 5.65685424949, 3.771236166326667, 6.286959043430201e-13},
{ 5.65685424949, 4.2426406871174995, 2.1733443998031725e-13},
{ 5.65685424949, 4.714045207908334, 9.86997184698145e-15},
{ 5.65685424949, 5.185449728699166, 2.552294914053203e-15},
{ 5.65685424949, 5.65685424949, 4.3352609193492464e-17}
};
#endif //625
# if 0
const double ew[1681][3] = 
{{ -5.65685424949, -5.65685424949, 1.5606939309657285e-17},
{ -5.65685424949, -5.3740115370155, 3.395228999235514e-16},
{ -5.65685424949, -5.0911688245410005, 5.593146212963678e-16},
{ -5.65685424949, -4.8083261120665, 6.048353689957607e-15},
{ -5.65685424949, -4.525483399592, 9.905672218836116e-15},
{ -5.65685424949, -4.2426406871175, 7.824039839291392e-14},
{ -5.65685424949, -3.959797974643, 9.35931188887125e-14},
{ -5.65685424949, -3.6769552621685, 7.349379821647614e-13},
{ -5.65685424949, -3.3941125496940003, 8.740237458580017e-13},
{ -5.65685424949, -3.1112698372195005, 5.012981453842079e-12},
{ -5.65685424949, -2.8284271247450006, 4.354464260582868e-12},
{ -5.65685424949, -2.5455844122705003, 2.4829459683737773e-11},
{ -5.65685424949, -2.2627416997960004, 2.1442013938194314e-11},
{ -5.65685424949, -1.9798989873215005, 8.930262106285593e-11},
{ -5.65685424949, -1.6970562748470002, 5.6328554181840077e-11},
{ -5.65685424949, -1.4142135623725007, 2.3323134049711337e-10},
{ -5.65685424949, -1.1313708498980004, 1.4625508657014058e-10},
{ -5.65685424949, -0.8485281374235001, 4.4231877770720043e-10},
{ -5.65685424949, -0.5656854249490006, 2.0259351565406943e-10},
{ -5.65685424949, -0.2828427124745003, 6.09129469467566e-10},
{ -5.65685424949, -8.881784197001252e-16, 2.773699751812127e-10},
{ -5.65685424949, 0.28284271247449944, 6.091294694675661e-10},
{ -5.65685424949, 0.5656854249489998, 2.0259351565406954e-10},
{ -5.65685424949, 0.8485281374234992, 4.4231877770720064e-10},
{ -5.65685424949, 1.1313708498979995, 1.4625508657014074e-10},
{ -5.65685424949, 1.4142135623724998, 2.3323134049711373e-10},
{ -5.65685424949, 1.6970562748469993, 5.632855418184016e-11},
{ -5.65685424949, 1.9798989873214996, 8.93026210628561e-11},
{ -5.65685424949, 2.262741699796, 2.1442013938194346e-11},
{ -5.65685424949, 2.5455844122704994, 2.482945968373783e-11},
{ -5.65685424949, 2.828427124744999, 4.354464260582888e-12},
{ -5.65685424949, 3.1112698372195, 5.012981453842089e-12},
{ -5.65685424949, 3.3941125496939994, 8.74023745858004e-13},
{ -5.65685424949, 3.676955262168499, 7.349379821647646e-13},
{ -5.65685424949, 3.959797974643, 9.35931188887125e-14},
{ -5.65685424949, 4.2426406871174995, 7.824039839291422e-14},
{ -5.65685424949, 4.525483399591999, 9.905672218836151e-15},
{ -5.65685424949, 4.8083261120665, 6.048353689957607e-15},
{ -5.65685424949, 5.091168824541, 5.593146212963699e-16},
{ -5.65685424949, 5.374011537015499, 3.3952289992355264e-16},
{ -5.65685424949, 5.6568542494899985, 1.560693930965745e-17},
{ -5.3740115370155, -5.65685424949, 3.395228999235514e-16},
{ -5.3740115370155, -5.3740115370155, 7.386188751382366e-15},
{ -5.3740115370155, -5.0911688245410005, 1.216767224017326e-14},
{ -5.3740115370155, -4.8083261120665, 1.31579584172985e-13},
{ -5.3740115370155, -4.525483399592, 2.1549404983911937e-13},
{ -5.3740115370155, -4.2426406871175, 1.7020894633131908e-12},
{ -5.3740115370155, -3.959797974643, 2.036081931729071e-12},
{ -5.3740115370155, -3.6769552621685, 1.5988290209736358e-11},
{ -5.3740115370155, -3.3941125496940003, 1.901404695103349e-11},
{ -5.3740115370155, -3.1112698372195005, 1.0905546351540327e-10},
{ -5.3740115370155, -2.8284271247450006, 9.472967787167126e-11},
{ -5.3740115370155, -2.5455844122705003, 5.401552468485041e-10},
{ -5.3740115370155, -2.2627416997960004, 4.664626809942279e-10},
{ -5.3740115370155, -1.9798989873215005, 1.9427438187879185e-09},
{ -5.3740115370155, -1.6970562748470002, 1.2254058073055451e-09},
{ -5.3740115370155, -1.4142135623725007, 5.0738571802888655e-09},
{ -5.3740115370155, -1.1313708498980004, 3.1817225745305093e-09},
{ -5.3740115370155, -0.8485281374235001, 9.622473126736799e-09},
{ -5.3740115370155, -0.5656854249490006, 4.407343206493671e-09},
{ -5.3740115370155, -0.2828427124745003, 1.3251374904402303e-08},
{ -5.3740115370155, -8.881784197001252e-16, 6.0340760258467876e-09},
{ -5.3740115370155, 0.28284271247449944, 1.3251374904402306e-08},
{ -5.3740115370155, 0.5656854249489998, 4.4073432064936734e-09},
{ -5.3740115370155, 0.8485281374234992, 9.622473126736804e-09},
{ -5.3740115370155, 1.1313708498979995, 3.181722574530512e-09},
{ -5.3740115370155, 1.4142135623724998, 5.073857180288873e-09},
{ -5.3740115370155, 1.6970562748469993, 1.2254058073055468e-09},
{ -5.3740115370155, 1.9798989873214996, 1.9427438187879214e-09},
{ -5.3740115370155, 2.262741699796, 4.664626809942285e-10},
{ -5.3740115370155, 2.5455844122704994, 5.401552468485054e-10},
{ -5.3740115370155, 2.828427124744999, 9.472967787167172e-11},
{ -5.3740115370155, 3.1112698372195, 1.0905546351540348e-10},
{ -5.3740115370155, 3.3941125496939994, 1.901404695103354e-11},
{ -5.3740115370155, 3.676955262168499, 1.5988290209736426e-11},
{ -5.3740115370155, 3.959797974643, 2.036081931729071e-12},
{ -5.3740115370155, 4.2426406871174995, 1.7020894633131963e-12},
{ -5.3740115370155, 4.525483399591999, 2.1549404983912007e-13},
{ -5.3740115370155, 4.8083261120665, 1.31579584172985e-13},
{ -5.3740115370155, 5.091168824541, 1.2167672240173304e-14},
{ -5.3740115370155, 5.374011537015499, 7.386188751382392e-15},
{ -5.3740115370155, 5.6568542494899985, 3.39522899923555e-16},
{ -5.0911688245410005, -5.65685424949, 5.59314621296368e-16},
{ -5.0911688245410005, -5.3740115370155, 1.216767224017326e-14},
{ -5.0911688245410005, -5.0911688245410005, 2.0044471205339044e-14},
{ -5.0911688245410005, -4.8083261120665, 2.1675823724590462e-13},
{ -5.0911688245410005, -4.525483399592, 3.5499512081372587e-13},
{ -5.0911688245410005, -4.2426406871175, 2.8039449586461267e-12},
{ -5.0911688245410005, -3.959797974643, 3.354148997990541e-12},
{ -5.0911688245410005, -3.6769552621685, 2.6338383908268485e-11},
{ -5.0911688245410005, -3.3941125496940003, 3.1322878286334284e-11},
{ -5.0911688245410005, -3.1112698372195005, 1.7965302278624468e-10},
{ -5.0911688245410005, -2.8284271247450006, 1.56053373472749e-10},
{ -5.0911688245410005, -2.5455844122705003, 8.89827246999667e-10},
{ -5.0911688245410005, -2.2627416997960004, 7.684294574178072e-10},
{ -5.0911688245410005, -1.9798989873215005, 3.2003880254495037e-09},
{ -5.0911688245410005, -1.6970562748470002, 2.0186779307133506e-09},
{ -5.0911688245410005, -1.4142135623725007, 8.358442119645288e-09},
{ -5.0911688245410005, -1.1313708498980004, 5.241425415618022e-09},
{ -5.0911688245410005, -0.8485281374235001, 1.585162566067592e-08},
{ -5.0911688245410005, -0.5656854249490006, 7.260457238725809e-09},
{ -5.0911688245410005, -0.2828427124745003, 2.1829713807171238e-08},
{ -5.0911688245410005, -8.881784197001252e-16, 9.940263081017237e-09},
{ -5.0911688245410005, 0.28284271247449944, 2.182971380717124e-08},
{ -5.0911688245410005, 0.5656854249489998, 7.260457238725813e-09},
{ -5.0911688245410005, 0.8485281374234992, 1.585162566067593e-08},
{ -5.0911688245410005, 1.1313708498979995, 5.241425415618028e-09},
{ -5.0911688245410005, 1.4142135623724998, 8.358442119645301e-09},
{ -5.0911688245410005, 1.6970562748469993, 2.018677930713354e-09},
{ -5.0911688245410005, 1.9798989873214996, 3.2003880254495095e-09},
{ -5.0911688245410005, 2.262741699796, 7.684294574178084e-10},
{ -5.0911688245410005, 2.5455844122704994, 8.898272469996691e-10},
{ -5.0911688245410005, 2.828427124744999, 1.5605337347274972e-10},
{ -5.0911688245410005, 3.1112698372195, 1.7965302278624502e-10},
{ -5.0911688245410005, 3.3941125496939994, 3.132287828633437e-11},
{ -5.0911688245410005, 3.676955262168499, 2.63383839082686e-11},
{ -5.0911688245410005, 3.959797974643, 3.354148997990541e-12},
{ -5.0911688245410005, 4.2426406871174995, 2.8039449586461363e-12},
{ -5.0911688245410005, 4.525483399591999, 3.549951208137271e-13},
{ -5.0911688245410005, 4.8083261120665, 2.1675823724590462e-13},
{ -5.0911688245410005, 5.091168824541, 2.0044471205339117e-14},
{ -5.0911688245410005, 5.374011537015499, 1.2167672240173303e-14},
{ -5.0911688245410005, 5.6568542494899985, 5.593146212963738e-16},
{ -4.8083261120665, -5.65685424949, 6.0483536899576065e-15},
{ -4.8083261120665, -5.3740115370155, 1.31579584172985e-13},
{ -4.8083261120665, -5.0911688245410005, 2.167582372459046e-13},
{ -4.8083261120665, -4.8083261120665, 2.3439946573116464e-12},
{ -4.8083261120665, -4.525483399592, 3.838869872405726e-12},
{ -4.8083261120665, -4.2426406871175, 3.0321486675527145e-11},
{ -4.8083261120665, -3.959797974643, 3.62713197478062e-11},
{ -4.8083261120665, -3.6769552621685, 2.8481976947047176e-10},
{ -4.8083261120665, -3.3941125496940003, 3.387214266348613e-10},
{ -4.8083261120665, -3.1112698372195005, 1.942743818787913e-09},
{ -4.8083261120665, -2.8284271247450006, 1.6875403598185235e-09},
{ -4.8083261120665, -2.5455844122705003, 9.62247312673677e-09},
{ -4.8083261120665, -2.2627416997960004, 8.30969362730532e-09},
{ -4.8083261120665, -1.9798989873215005, 3.460856910580704e-08},
{ -4.8083261120665, -1.6970562748470002, 2.182971380717125e-08},
{ -4.8083261120665, -1.4142135623725007, 9.038707788378346e-08},
{ -4.8083261120665, -1.1313708498980004, 5.668007512428804e-08},
{ -4.8083261120665, -0.8485281374235001, 1.7141736494275066e-07},
{ -4.8083261120665, -0.5656854249490006, 7.851361587659578e-08},
{ -4.8083261120665, -0.2828427124745003, 2.3606361255190752e-07},
{ -4.8083261120665, -8.881784197001252e-16, 1.0749267871072263e-07},
{ -4.8083261120665, 0.28284271247449944, 2.3606361255190754e-07},
{ -4.8083261120665, 0.5656854249489998, 7.85136158765958e-08},
{ -4.8083261120665, 0.8485281374234992, 1.7141736494275074e-07},
{ -4.8083261120665, 1.1313708498979995, 5.66800751242881e-08},
{ -4.8083261120665, 1.4142135623724998, 9.038707788378358e-08},
{ -4.8083261120665, 1.6970562748469993, 2.182971380717128e-08},
{ -4.8083261120665, 1.9798989873214996, 3.46085691058071e-08},
{ -4.8083261120665, 2.262741699796, 8.309693627305331e-09},
{ -4.8083261120665, 2.5455844122704994, 9.622473126736794e-09},
{ -4.8083261120665, 2.828427124744999, 1.6875403598185314e-09},
{ -4.8083261120665, 3.1112698372195, 1.9427438187879164e-09},
{ -4.8083261120665, 3.3941125496939994, 3.3872142663486224e-10},
{ -4.8083261120665, 3.676955262168499, 2.84819769470473e-10},
{ -4.8083261120665, 3.959797974643, 3.62713197478062e-11},
{ -4.8083261120665, 4.2426406871174995, 3.032148667552725e-11},
{ -4.8083261120665, 4.525483399591999, 3.8388698724057396e-12},
{ -4.8083261120665, 4.8083261120665, 2.3439946573116464e-12},
{ -4.8083261120665, 5.091168824541, 2.1675823724590537e-13},
{ -4.8083261120665, 5.374011537015499, 1.315795841729855e-13},
{ -4.8083261120665, 5.6568542494899985, 6.048353689957671e-15},
{ -4.525483399592, -5.65685424949, 9.905672218836116e-15},
{ -4.525483399592, -5.3740115370155, 2.1549404983911937e-13},
{ -4.525483399592, -5.0911688245410005, 3.549951208137258e-13},
{ -4.525483399592, -4.8083261120665, 3.838869872405727e-12},
{ -4.525483399592, -4.525483399592, 6.287097050880779e-12},
{ -4.525483399592, -4.2426406871175, 4.965891936747566e-11},
{ -4.525483399592, -3.959797974643, 5.940323975479749e-11},
{ -4.525483399592, -3.6769552621685, 4.664626809942284e-10},
{ -4.525483399592, -3.3941125496940003, 5.547399503624265e-10},
{ -4.525483399592, -3.1112698372195005, 3.1817225745305085e-09},
{ -4.525483399592, -2.8284271247450006, 2.7637639128435647e-09},
{ -4.525483399592, -2.5455844122705003, 1.5759175077058305e-08},
{ -4.525483399592, -2.2627416997960004, 1.3609174583772522e-08},
{ -4.525483399592, -1.9798989873215005, 5.668007512428817e-08},
{ -4.525483399592, -1.6970562748470002, 3.5751545079757905e-08},
{ -4.525483399592, -1.4142135623725007, 1.4803115231534113e-07},
{ -4.525483399592, -1.1313708498980004, 9.282761463708967e-08},
{ -4.525483399592, -0.8485281374235001, 2.807382499073725e-07},
{ -4.525483399592, -0.5656854249490006, 1.2858542728419975e-07},
{ -4.525483399592, -0.2828427124745003, 3.8661243845842497e-07},
{ -4.525483399592, -8.881784197001252e-16, 1.7604579623063422e-07},
{ -4.525483399592, 0.28284271247449944, 3.86612438458425e-07},
{ -4.525483399592, 0.5656854249489998, 1.285854272841998e-07},
{ -4.525483399592, 0.8485281374234992, 2.8073824990737273e-07},
{ -4.525483399592, 1.1313708498979995, 9.282761463708976e-08},
{ -4.525483399592, 1.4142135623724998, 1.4803115231534135e-07},
{ -4.525483399592, 1.6970562748469993, 3.575154507975796e-08},
{ -4.525483399592, 1.9798989873214996, 5.6680075124288264e-08},
{ -4.525483399592, 2.262741699796, 1.360917458377254e-08},
{ -4.525483399592, 2.5455844122704994, 1.575917507705834e-08},
{ -4.525483399592, 2.828427124744999, 2.763763912843578e-09},
{ -4.525483399592, 3.1112698372195, 3.181722574530514e-09},
{ -4.525483399592, 3.3941125496939994, 5.547399503624279e-10},
{ -4.525483399592, 3.676955262168499, 4.664626809942305e-10},
{ -4.525483399592, 3.959797974643, 5.940323975479749e-11},
{ -4.525483399592, 4.2426406871174995, 4.9658919367475836e-11},
{ -4.525483399592, 4.525483399591999, 6.287097050880801e-12},
{ -4.525483399592, 4.8083261120665, 3.838869872405727e-12},
{ -4.525483399592, 5.091168824541, 3.5499512081372714e-13},
{ -4.525483399592, 5.374011537015499, 2.1549404983912015e-13},
{ -4.525483399592, 5.6568542494899985, 9.905672218836222e-15},
{ -4.2426406871175, -5.65685424949, 7.824039839291393e-14},
{ -4.2426406871175, -5.3740115370155, 1.7020894633131906e-12},
{ -4.2426406871175, -5.0911688245410005, 2.8039449586461262e-12},
{ -4.2426406871175, -4.8083261120665, 3.0321486675527145e-11},
{ -4.2426406871175, -4.525483399592, 4.9658919367475655e-11},
{ -4.2426406871175, -4.2426406871175, 3.9223321236944773e-10},
{ -4.2426406871175, -3.959797974643, 4.691991660502603e-10},
{ -4.2426406871175, -3.6769552621685, 3.6843765057171793e-09},
{ -4.2426406871175, -3.3941125496940003, 4.381638495799254e-09},
{ -4.2426406871175, -3.1112698372195005, 2.5130979130686823e-08},
{ -4.2426406871175, -2.8284271247450006, 2.182971380717122e-08},
{ -4.2426406871175, -2.5455844122705003, 1.2447455449092132e-07},
{ -4.2426406871175, -2.2627416997960004, 1.0749267871072253e-07},
{ -4.2426406871175, -1.9798989873215005, 4.4769012750410344e-07},
{ -4.2426406871175, -1.6970562748470002, 2.8238518985954727e-07},
{ -4.2426406871175, -1.4142135623725007, 1.1692307271878678e-06},
{ -4.2426406871175, -1.1313708498980004, 7.332030972374681e-07},
{ -4.2426406871175, -0.8485281374235001, 2.217423717606424e-06},
{ -4.2426406871175, -0.5656854249490006, 1.0156377917601776e-06},
{ -4.2426406871175, -0.2828427124745003, 3.0536757668120387e-06},
{ -4.2426406871175, -8.881784197001252e-16, 1.390505654557279e-06},
{ -4.2426406871175, 0.28284271247449944, 3.053675766812039e-06},
{ -4.2426406871175, 0.5656854249489998, 1.015637791760178e-06},
{ -4.2426406871175, 0.8485281374234992, 2.2174237176064253e-06},
{ -4.2426406871175, 1.1313708498979995, 7.332030972374688e-07},
{ -4.2426406871175, 1.4142135623724998, 1.1692307271878695e-06},
{ -4.2426406871175, 1.6970562748469993, 2.823851898595477e-07},
{ -4.2426406871175, 1.9798989873214996, 4.476901275041042e-07},
{ -4.2426406871175, 2.262741699796, 1.0749267871072268e-07},
{ -4.2426406871175, 2.5455844122704994, 1.2447455449092159e-07},
{ -4.2426406871175, 2.828427124744999, 2.1829713807171324e-08},
{ -4.2426406871175, 3.1112698372195, 2.5130979130686872e-08},
{ -4.2426406871175, 3.3941125496939994, 4.3816384957992655e-09},
{ -4.2426406871175, 3.676955262168499, 3.6843765057171955e-09},
{ -4.2426406871175, 3.959797974643, 4.691991660502603e-10},
{ -4.2426406871175, 4.2426406871174995, 3.92233212369449e-10},
{ -4.2426406871175, 4.525483399591999, 4.965891936747583e-11},
{ -4.2426406871175, 4.8083261120665, 3.0321486675527145e-11},
{ -4.2426406871175, 5.091168824541, 2.8039449586461363e-12},
{ -4.2426406871175, 5.374011537015499, 1.7020894633131963e-12},
{ -4.2426406871175, 5.6568542494899985, 7.824039839291475e-14},
{ -3.959797974643, -5.65685424949, 9.35931188887125e-14},
{ -3.959797974643, -5.3740115370155, 2.0360819317290713e-12},
{ -3.959797974643, -5.0911688245410005, 3.3541489979905412e-12},
{ -3.959797974643, -4.8083261120665, 3.627131974780621e-11},
{ -3.959797974643, -4.525483399592, 5.940323975479747e-11},
{ -3.959797974643, -4.2426406871175, 4.691991660502603e-10},
{ -3.959797974643, -3.959797974643, 5.612677623405859e-10},
{ -3.959797974643, -3.6769552621685, 4.407343206493666e-09},
{ -3.959797974643, -3.3941125496940003, 5.241425415618029e-09},
{ -3.959797974643, -3.1112698372195005, 3.006230497135542e-08},
{ -3.959797974643, -2.8284271247450006, 2.611324893057019e-08},
{ -3.959797974643, -2.5455844122705003, 1.4889957127497752e-07},
{ -3.959797974643, -2.2627416997960004, 1.2858542728419946e-07},
{ -3.959797974643, -1.9798989873215005, 5.355381131672418e-07},
{ -3.959797974643, -1.6970562748470002, 3.377962176804293e-07},
{ -3.959797974643, -1.4142135623725007, 1.3986630015414256e-06},
{ -3.959797974643, -1.1313708498980004, 8.770758592601135e-07},
{ -3.959797974643, -0.8485281374235001, 2.6525376390131594e-06},
{ -3.959797974643, -0.5656854249490006, 1.2149312956551719e-06},
{ -3.959797974643, -0.2828427124745003, 3.652883228630186e-06},
{ -3.959797974643, -8.881784197001252e-16, 1.6633575967858708e-06},
{ -3.959797974643, 0.28284271247449944, 3.6528832286301865e-06},
{ -3.959797974643, 0.5656854249489998, 1.2149312956551723e-06},
{ -3.959797974643, 0.8485281374234992, 2.652537639013161e-06},
{ -3.959797974643, 1.1313708498979995, 8.770758592601144e-07},
{ -3.959797974643, 1.4142135623724998, 1.3986630015414275e-06},
{ -3.959797974643, 1.6970562748469993, 3.3779621768042983e-07},
{ -3.959797974643, 1.9798989873214996, 5.355381131672427e-07},
{ -3.959797974643, 2.262741699796, 1.2858542728419964e-07},
{ -3.959797974643, 2.5455844122704994, 1.4889957127497786e-07},
{ -3.959797974643, 2.828427124744999, 2.611324893057031e-08},
{ -3.959797974643, 3.1112698372195, 3.006230497135547e-08},
{ -3.959797974643, 3.3941125496939994, 5.241425415618043e-09},
{ -3.959797974643, 3.676955262168499, 4.407343206493685e-09},
{ -3.959797974643, 3.959797974643, 5.612677623405859e-10},
{ -3.959797974643, 4.2426406871174995, 4.691991660502619e-10},
{ -3.959797974643, 4.525483399591999, 5.940323975479768e-11},
{ -3.959797974643, 4.8083261120665, 3.627131974780621e-11},
{ -3.959797974643, 5.091168824541, 3.3541489979905534e-12},
{ -3.959797974643, 5.374011537015499, 2.0360819317290786e-12},
{ -3.959797974643, 5.6568542494899985, 9.35931188887135e-14},
{ -3.6769552621685, -5.65685424949, 7.349379821647615e-13},
{ -3.6769552621685, -5.3740115370155, 1.5988290209736358e-11},
{ -3.6769552621685, -5.0911688245410005, 2.6338383908268485e-11},
{ -3.6769552621685, -4.8083261120665, 2.8481976947047176e-10},
{ -3.6769552621685, -4.525483399592, 4.664626809942285e-10},
{ -3.6769552621685, -4.2426406871175, 3.68437650571718e-09},
{ -3.6769552621685, -3.959797974643, 4.407343206493666e-09},
{ -3.6769552621685, -3.6769552621685, 3.4608569105807075e-08},
{ -3.6769552621685, -3.3941125496940003, 4.115818197277731e-08},
{ -3.6769552621685, -3.1112698372195005, 2.3606361255190733e-07},
{ -3.6769552621685, -2.8284271247450006, 2.0505373370043673e-07},
{ -3.6769552621685, -2.5455844122705003, 1.1692307271878695e-06},
{ -3.6769552621685, -2.2627416997960004, 1.009714342102562e-06},
{ -3.6769552621685, -1.9798989873215005, 4.205301681755619e-06},
{ -3.6769552621685, -1.6970562748470002, 2.6525376390131577e-06},
{ -3.6769552621685, -1.4142135623725007, 1.098297157191258e-05},
{ -3.6769552621685, -1.1313708498980004, 6.887219593317684e-06},
{ -3.6769552621685, -0.8485281374235001, 2.0828995584070857e-05},
{ -3.6769552621685, -0.5656854249490006, 9.540222246032194e-06},
{ -3.6769552621685, -0.2828427124745003, 2.8684188122047303e-05},
{ -3.6769552621685, -8.881784197001252e-16, 1.306148027029438e-05},
{ -3.6769552621685, 0.28284271247449944, 2.8684188122047306e-05},
{ -3.6769552621685, 0.5656854249489998, 9.5402222460322e-06},
{ -3.6769552621685, 0.8485281374234992, 2.082899558407087e-05},
{ -3.6769552621685, 1.1313708498979995, 6.887219593317691e-06},
{ -3.6769552621685, 1.4142135623724998, 1.0982971571912594e-05},
{ -3.6769552621685, 1.6970562748469993, 2.652537639013162e-06},
{ -3.6769552621685, 1.9798989873214996, 4.205301681755626e-06},
{ -3.6769552621685, 2.262741699796, 1.0097143421025634e-06},
{ -3.6769552621685, 2.5455844122704994, 1.169230727187872e-06},
{ -3.6769552621685, 2.828427124744999, 2.0505373370043768e-07},
{ -3.6769552621685, 3.1112698372195, 2.3606361255190775e-07},
{ -3.6769552621685, 3.3941125496939994, 4.1158181972777415e-08},
{ -3.6769552621685, 3.676955262168499, 3.460856910580723e-08},
{ -3.6769552621685, 3.959797974643, 4.407343206493666e-09},
{ -3.6769552621685, 4.2426406871174995, 3.6843765057171926e-09},
{ -3.6769552621685, 4.525483399591999, 4.6646268099423e-10},
{ -3.6769552621685, 4.8083261120665, 2.8481976947047176e-10},
{ -3.6769552621685, 5.091168824541, 2.6338383908268582e-11},
{ -3.6769552621685, 5.374011537015499, 1.5988290209736416e-11},
{ -3.6769552621685, 5.6568542494899985, 7.349379821647693e-13},
{ -3.3941125496940003, -5.65685424949, 8.740237458580017e-13},
{ -3.3941125496940003, -5.3740115370155, 1.901404695103349e-11},
{ -3.3941125496940003, -5.0911688245410005, 3.1322878286334284e-11},
{ -3.3941125496940003, -4.8083261120665, 3.387214266348613e-10},
{ -3.3941125496940003, -4.525483399592, 5.547399503624265e-10},
{ -3.3941125496940003, -4.2426406871175, 4.381638495799255e-09},
{ -3.3941125496940003, -3.959797974643, 5.241425415618029e-09},
{ -3.3941125496940003, -3.6769552621685, 4.115818197277731e-08},
{ -3.3941125496940003, -3.3941125496940003, 4.894729794015119e-08},
{ -3.3941125496940003, -3.1112698372195005, 2.807382499073714e-07},
{ -3.3941125496940003, -2.8284271247450006, 2.4385980420160977e-07},
{ -3.3941125496940003, -2.5455844122705003, 1.3905056545572785e-06},
{ -3.3941125496940003, -2.2627416997960004, 1.2008010647804338e-06},
{ -3.3941125496940003, -1.9798989873215005, 5.001147875804035e-06},
{ -3.3941125496940003, -1.6970562748470002, 3.154525877749336e-06},
{ -3.3941125496940003, -1.4142135623725007, 1.3061480270294357e-05},
{ -3.3941125496940003, -1.1313708498980004, 8.190614192734222e-06},
{ -3.3941125496940003, -0.8485281374235001, 2.477084758801881e-05},
{ -3.3941125496940003, -0.5656854249490006, 1.1345693087237346e-05},
{ -3.3941125496940003, -0.2828427124745003, 3.4112621959585886e-05},
{ -3.3941125496940003, -8.881784197001252e-16, 1.553334320627585e-05},
{ -3.3941125496940003, 0.28284271247449944, 3.411262195958589e-05},
{ -3.3941125496940003, 0.5656854249489998, 1.1345693087237351e-05},
{ -3.3941125496940003, 0.8485281374234992, 2.477084758801882e-05},
{ -3.3941125496940003, 1.1313708498979995, 8.19061419273423e-06},
{ -3.3941125496940003, 1.4142135623724998, 1.3061480270294375e-05},
{ -3.3941125496940003, 1.6970562748469993, 3.1545258777493406e-06},
{ -3.3941125496940003, 1.9798989873214996, 5.001147875804044e-06},
{ -3.3941125496940003, 2.262741699796, 1.2008010647804355e-06},
{ -3.3941125496940003, 2.5455844122704994, 1.3905056545572814e-06},
{ -3.3941125496940003, 2.828427124744999, 2.438598042016109e-07},
{ -3.3941125496940003, 3.1112698372195, 2.807382499073719e-07},
{ -3.3941125496940003, 3.3941125496939994, 4.894729794015132e-08},
{ -3.3941125496940003, 3.676955262168499, 4.115818197277748e-08},
{ -3.3941125496940003, 3.959797974643, 5.241425415618029e-09},
{ -3.3941125496940003, 4.2426406871174995, 4.3816384957992705e-09},
{ -3.3941125496940003, 4.525483399591999, 5.547399503624284e-10},
{ -3.3941125496940003, 4.8083261120665, 3.387214266348613e-10},
{ -3.3941125496940003, 5.091168824541, 3.1322878286334394e-11},
{ -3.3941125496940003, 5.374011537015499, 1.9014046951033558e-11},
{ -3.3941125496940003, 5.6568542494899985, 8.74023745858011e-13},
{ -3.1112698372195005, -5.65685424949, 5.01298145384208e-12},
{ -3.1112698372195005, -5.3740115370155, 1.0905546351540327e-10},
{ -3.1112698372195005, -5.0911688245410005, 1.796530227862447e-10},
{ -3.1112698372195005, -4.8083261120665, 1.942743818787913e-09},
{ -3.1112698372195005, -4.525483399592, 3.1817225745305076e-09},
{ -3.1112698372195005, -4.2426406871175, 2.5130979130686823e-08},
{ -3.1112698372195005, -3.959797974643, 3.006230497135542e-08},
{ -3.1112698372195005, -3.6769552621685, 2.3606361255190733e-07},
{ -3.1112698372195005, -3.3941125496940003, 2.807382499073714e-07},
{ -3.1112698372195005, -3.1112698372195005, 1.6101800973246995e-06},
{ -3.1112698372195005, -2.8284271247450006, 1.3986630015414228e-06},
{ -3.1112698372195005, -2.5455844122705003, 7.975274231154187e-06},
{ -3.1112698372195005, -2.2627416997960004, 6.887219593317673e-06},
{ -3.1112698372195005, -1.9798989873215005, 2.868418812204725e-05},
{ -3.1112698372195005, -1.6970562748470002, 1.8092849073910036e-05},
{ -3.1112698372195005, -1.4142135623725007, 7.491439296129554e-05},
{ -3.1112698372195005, -1.1313708498980004, 4.697743881482949e-05},
{ -3.1112698372195005, -0.8485281374235001, 0.00014207371383575808},
{ -3.1112698372195005, -0.5656854249490006, 6.507345972788413e-05},
{ -3.1112698372195005, -0.2828427124745003, 0.00019565365590549136},
{ -3.1112698372195005, -8.881784197001252e-16, 8.909181447099445e-05},
{ -3.1112698372195005, 0.28284271247449944, 0.00019565365590549138},
{ -3.1112698372195005, 0.5656854249489998, 6.507345972788416e-05},
{ -3.1112698372195005, 0.8485281374234992, 0.00014207371383575816},
{ -3.1112698372195005, 1.1313708498979995, 4.6977438814829547e-05},
{ -3.1112698372195005, 1.4142135623724998, 7.491439296129565e-05},
{ -3.1112698372195005, 1.6970562748469993, 1.8092849073910063e-05},
{ -3.1112698372195005, 1.9798989873214996, 2.8684188122047303e-05},
{ -3.1112698372195005, 2.262741699796, 6.887219593317682e-06},
{ -3.1112698372195005, 2.5455844122704994, 7.975274231154204e-06},
{ -3.1112698372195005, 2.828427124744999, 1.3986630015414294e-06},
{ -3.1112698372195005, 3.1112698372195, 1.6101800973247022e-06},
{ -3.1112698372195005, 3.3941125496939994, 2.807382499073721e-07},
{ -3.1112698372195005, 3.676955262168499, 2.3606361255190836e-07},
{ -3.1112698372195005, 3.959797974643, 3.006230497135542e-08},
{ -3.1112698372195005, 4.2426406871174995, 2.5130979130686915e-08},
{ -3.1112698372195005, 4.525483399591999, 3.181722574530519e-09},
{ -3.1112698372195005, 4.8083261120665, 1.942743818787913e-09},
{ -3.1112698372195005, 5.091168824541, 1.7965302278624535e-10},
{ -3.1112698372195005, 5.374011537015499, 1.0905546351540367e-10},
{ -3.1112698372195005, 5.6568542494899985, 5.012981453842132e-12},
{ -2.8284271247450006, -5.65685424949, 4.354464260582868e-12},
{ -2.8284271247450006, -5.3740115370155, 9.472967787167126e-11},
{ -2.8284271247450006, -5.0911688245410005, 1.5605337347274897e-10},
{ -2.8284271247450006, -4.8083261120665, 1.687540359818523e-09},
{ -2.8284271247450006, -4.525483399592, 2.7637639128435647e-09},
{ -2.8284271247450006, -4.2426406871175, 2.182971380717122e-08},
{ -2.8284271247450006, -3.959797974643, 2.6113248930570185e-08},
{ -2.8284271247450006, -3.6769552621685, 2.050537337004367e-07},
{ -2.8284271247450006, -3.3941125496940003, 2.4385980420160977e-07},
{ -2.8284271247450006, -3.1112698372195005, 1.3986630015414226e-06},
{ -2.8284271247450006, -2.8284271247450006, 1.214931295655168e-06},
{ -2.8284271247450006, -2.5455844122705003, 6.92762319742714e-06},
{ -2.8284271247450006, -2.2627416997960004, 5.982498010421053e-06},
{ -2.8284271247450006, -1.9798989873215005, 2.4916164795614888e-05},
{ -2.8284271247450006, -1.6970562748470002, 1.5716129291497474e-05},
{ -2.8284271247450006, -1.4142135623725007, 6.507345972788405e-05},
{ -2.8284271247450006, -1.1313708498980004, 4.0806370471630636e-05},
{ -2.8284271247450006, -0.8485281374235001, 0.00012341057212408656},
{ -2.8284271247450006, -0.5656854249490006, 5.652525494192193e-05},
{ -2.8284271247450006, -0.2828427124745003, 0.00016995212528461893},
{ -2.8284271247450006, -8.881784197001252e-16, 7.738850135324004e-05},
{ -2.8284271247450006, 0.28284271247449944, 0.00016995212528461898},
{ -2.8284271247450006, 0.5656854249489998, 5.6525254941921955e-05},
{ -2.8284271247450006, 0.8485281374234992, 0.00012341057212408664},
{ -2.8284271247450006, 1.1313708498979995, 4.080637047163068e-05},
{ -2.8284271247450006, 1.4142135623724998, 6.507345972788414e-05},
{ -2.8284271247450006, 1.6970562748469993, 1.5716129291497498e-05},
{ -2.8284271247450006, 1.9798989873214996, 2.4916164795614932e-05},
{ -2.8284271247450006, 2.262741699796, 5.982498010421062e-06},
{ -2.8284271247450006, 2.5455844122704994, 6.927623197427155e-06},
{ -2.8284271247450006, 2.828427124744999, 1.214931295655174e-06},
{ -2.8284271247450006, 3.1112698372195, 1.3986630015414251e-06},
{ -2.8284271247450006, 3.3941125496939994, 2.4385980420161035e-07},
{ -2.8284271247450006, 3.676955262168499, 2.050537337004376e-07},
{ -2.8284271247450006, 3.959797974643, 2.6113248930570185e-08},
{ -2.8284271247450006, 4.2426406871174995, 2.1829713807171298e-08},
{ -2.8284271247450006, 4.525483399591999, 2.7637639128435742e-09},
{ -2.8284271247450006, 4.8083261120665, 1.687540359818523e-09},
{ -2.8284271247450006, 5.091168824541, 1.5605337347274954e-10},
{ -2.8284271247450006, 5.374011537015499, 9.472967787167161e-11},
{ -2.8284271247450006, 5.6568542494899985, 4.354464260582914e-12},
{ -2.5455844122705003, -5.65685424949, 2.482945968373777e-11},
{ -2.5455844122705003, -5.3740115370155, 5.401552468485041e-10},
{ -2.5455844122705003, -5.0911688245410005, 8.898272469996671e-10},
{ -2.5455844122705003, -4.8083261120665, 9.62247312673677e-09},
{ -2.5455844122705003, -4.525483399592, 1.5759175077058305e-08},
{ -2.5455844122705003, -4.2426406871175, 1.2447455449092135e-07},
{ -2.5455844122705003, -3.959797974643, 1.488995712749775e-07},
{ -2.5455844122705003, -3.6769552621685, 1.1692307271878695e-06},
{ -2.5455844122705003, -3.3941125496940003, 1.3905056545572785e-06},
{ -2.5455844122705003, -3.1112698372195005, 7.975274231154187e-06},
{ -2.5455844122705003, -2.8284271247450006, 6.92762319742714e-06},
{ -2.5455844122705003, -2.5455844122705003, 3.9501791860296355e-05},
{ -2.5455844122705003, -2.2627416997960004, 3.411262195958587e-05},
{ -2.5455844122705003, -1.9798989873215005, 0.0001420737138357581},
{ -2.5455844122705003, -1.6970562748470002, 8.961446811264295e-05},
{ -2.5455844122705003, -1.4142135623725007, 0.0003710534173906747},
{ -2.5455844122705003, -1.1313708498980004, 0.00023268077766457507},
{ -2.5455844122705003, -0.8485281374235001, 0.0007036957112817958},
{ -2.5455844122705003, -0.5656854249490006, 0.0003223109559993461},
{ -2.5455844122705003, -0.2828427124745003, 0.0009690789016500395},
{ -2.5455844122705003, -8.881784197001252e-16, 0.00044127464582243575},
{ -2.5455844122705003, 0.28284271247449944, 0.0009690789016500398},
{ -2.5455844122705003, 0.5656854249489998, 0.00032231095599934617},
{ -2.5455844122705003, 0.8485281374234992, 0.0007036957112817962},
{ -2.5455844122705003, 1.1313708498979995, 0.00023268077766457532},
{ -2.5455844122705003, 1.4142135623724998, 0.00037105341739067523},
{ -2.5455844122705003, 1.6970562748469993, 8.961446811264309e-05},
{ -2.5455844122705003, 1.9798989873214996, 0.00014207371383575835},
{ -2.5455844122705003, 2.262741699796, 3.411262195958592e-05},
{ -2.5455844122705003, 2.5455844122704994, 3.950179186029645e-05},
{ -2.5455844122705003, 2.828427124744999, 6.927623197427173e-06},
{ -2.5455844122705003, 3.1112698372195, 7.975274231154202e-06},
{ -2.5455844122705003, 3.3941125496939994, 1.390505654557282e-06},
{ -2.5455844122705003, 3.676955262168499, 1.1692307271878746e-06},
{ -2.5455844122705003, 3.959797974643, 1.488995712749775e-07},
{ -2.5455844122705003, 4.2426406871174995, 1.2447455449092177e-07},
{ -2.5455844122705003, 4.525483399591999, 1.5759175077058358e-08},
{ -2.5455844122705003, 4.8083261120665, 9.62247312673677e-09},
{ -2.5455844122705003, 5.091168824541, 8.898272469996702e-10},
{ -2.5455844122705003, 5.374011537015499, 5.401552468485061e-10},
{ -2.5455844122705003, 5.6568542494899985, 2.4829459683738034e-11},
{ -2.2627416997960004, -5.65685424949, 2.1442013938194314e-11},
{ -2.2627416997960004, -5.3740115370155, 4.66462680994228e-10},
{ -2.2627416997960004, -5.0911688245410005, 7.684294574178072e-10},
{ -2.2627416997960004, -4.8083261120665, 8.309693627305318e-09},
{ -2.2627416997960004, -4.525483399592, 1.3609174583772522e-08},
{ -2.2627416997960004, -4.2426406871175, 1.0749267871072253e-07},
{ -2.2627416997960004, -3.959797974643, 1.2858542728419943e-07},
{ -2.2627416997960004, -3.6769552621685, 1.0097143421025617e-06},
{ -2.2627416997960004, -3.3941125496940003, 1.2008010647804338e-06},
{ -2.2627416997960004, -3.1112698372195005, 6.887219593317672e-06},
{ -2.2627416997960004, -2.8284271247450006, 5.982498010421053e-06},
{ -2.2627416997960004, -2.5455844122705003, 3.4112621959585865e-05},
{ -2.2627416997960004, -2.2627416997960004, 2.9458688382367718e-05},
{ -2.2627416997960004, -1.9798989873215005, 0.00012269081128304138},
{ -2.2627416997960004, -1.6970562748470002, 7.738850135324006e-05},
{ -2.2627416997960004, -1.4142135623725007, 0.00032043115914908143},
{ -2.2627416997960004, -1.1313708498980004, 0.00020093649001558359},
{ -2.2627416997960004, -0.8485281374235001, 0.0006076915664594282},
{ -2.2627416997960004, -0.5656854249490006, 0.0002783385582690355},
{ -2.2627416997960004, -0.2828427124745003, 0.0008368689283238625},
{ -2.2627416997960004, -8.881784197001252e-16, 0.00038107221126899946},
{ -2.2627416997960004, 0.28284271247449944, 0.0008368689283238628},
{ -2.2627416997960004, 0.5656854249489998, 0.00027833855826903554},
{ -2.2627416997960004, 0.8485281374234992, 0.0006076915664594286},
{ -2.2627416997960004, 1.1313708498979995, 0.0002009364900155838},
{ -2.2627416997960004, 1.4142135623724998, 0.0003204311591490819},
{ -2.2627416997960004, 1.6970562748469993, 7.738850135324017e-05},
{ -2.2627416997960004, 1.9798989873214996, 0.0001226908112830416},
{ -2.2627416997960004, 2.262741699796, 2.9458688382367766e-05},
{ -2.2627416997960004, 2.5455844122704994, 3.411262195958595e-05},
{ -2.2627416997960004, 2.828427124744999, 5.982498010421082e-06},
{ -2.2627416997960004, 3.1112698372195, 6.887219593317685e-06},
{ -2.2627416997960004, 3.3941125496939994, 1.200801064780437e-06},
{ -2.2627416997960004, 3.676955262168499, 1.0097143421025661e-06},
{ -2.2627416997960004, 3.959797974643, 1.2858542728419943e-07},
{ -2.2627416997960004, 4.2426406871174995, 1.0749267871072292e-07},
{ -2.2627416997960004, 4.525483399591999, 1.3609174583772568e-08},
{ -2.2627416997960004, 4.8083261120665, 8.309693627305318e-09},
{ -2.2627416997960004, 5.091168824541, 7.684294574178099e-10},
{ -2.2627416997960004, 5.374011537015499, 4.664626809942295e-10},
{ -2.2627416997960004, 5.6568542494899985, 2.1442013938194543e-11},
{ -1.9798989873215005, -5.65685424949, 8.930262106285594e-11},
{ -1.9798989873215005, -5.3740115370155, 1.9427438187879185e-09},
{ -1.9798989873215005, -5.0911688245410005, 3.200388025449503e-09},
{ -1.9798989873215005, -4.8083261120665, 3.4608569105807035e-08},
{ -1.9798989873215005, -4.525483399592, 5.668007512428817e-08},
{ -1.9798989873215005, -4.2426406871175, 4.476901275041035e-07},
{ -1.9798989873215005, -3.959797974643, 5.355381131672417e-07},
{ -1.9798989873215005, -3.6769552621685, 4.205301681755619e-06},
{ -1.9798989873215005, -3.3941125496940003, 5.001147875804035e-06},
{ -1.9798989873215005, -3.1112698372195005, 2.8684188122047252e-05},
{ -1.9798989873215005, -2.8284271247450006, 2.4916164795614895e-05},
{ -1.9798989873215005, -2.5455844122705003, 0.0001420737138357581},
{ -1.9798989873215005, -2.2627416997960004, 0.00012269081128304138},
{ -1.9798989873215005, -1.9798989873215005, 0.000510987963140299},
{ -1.9798989873215005, -1.6970562748470002, 0.000322310955999346},
{ -1.9798989873215005, -1.4142135623725007, 0.0013345454612941024},
{ -1.9798989873215005, -1.1313708498980004, 0.0008368689283238624},
{ -1.9798989873215005, -0.8485281374235001, 0.0025309399499061106},
{ -1.9798989873215005, -0.5656854249490006, 0.0011592363883322118},
{ -1.9798989873215005, -0.2828427124745003, 0.003485427674881823},
{ -1.9798989873215005, -8.881784197001252e-16, 0.001587105921049777},
{ -1.9798989873215005, 0.28284271247449944, 0.0034854276748818246},
{ -1.9798989873215005, 0.5656854249489998, 0.0011592363883322122},
{ -1.9798989873215005, 0.8485281374234992, 0.0025309399499061124},
{ -1.9798989873215005, 1.1313708498979995, 0.0008368689283238635},
{ -1.9798989873215005, 1.4142135623724998, 0.0013345454612941042},
{ -1.9798989873215005, 1.6970562748469993, 0.0003223109559993465},
{ -1.9798989873215005, 1.9798989873214996, 0.0005109879631402999},
{ -1.9798989873215005, 2.262741699796, 0.00012269081128304154},
{ -1.9798989873215005, 2.5455844122704994, 0.0001420737138357584},
{ -1.9798989873215005, 2.828427124744999, 2.4916164795615007e-05},
{ -1.9798989873215005, 3.1112698372195, 2.8684188122047303e-05},
{ -1.9798989873215005, 3.3941125496939994, 5.001147875804048e-06},
{ -1.9798989873215005, 3.676955262168499, 4.205301681755636e-06},
{ -1.9798989873215005, 3.959797974643, 5.355381131672417e-07},
{ -1.9798989873215005, 4.2426406871174995, 4.4769012750410503e-07},
{ -1.9798989873215005, 4.525483399591999, 5.668007512428836e-08},
{ -1.9798989873215005, 4.8083261120665, 3.4608569105807035e-08},
{ -1.9798989873215005, 5.091168824541, 3.200388025449515e-09},
{ -1.9798989873215005, 5.374011537015499, 1.942743818787925e-09},
{ -1.9798989873215005, 5.6568542494899985, 8.930262106285688e-11},
{ -1.6970562748470002, -5.65685424949, 5.6328554181840077e-11},
{ -1.6970562748470002, -5.3740115370155, 1.2254058073055447e-09},
{ -1.6970562748470002, -5.0911688245410005, 2.0186779307133506e-09},
{ -1.6970562748470002, -4.8083261120665, 2.1829713807171248e-08},
{ -1.6970562748470002, -4.525483399592, 3.5751545079757905e-08},
{ -1.6970562748470002, -4.2426406871175, 2.8238518985954727e-07},
{ -1.6970562748470002, -3.959797974643, 3.377962176804293e-07},
{ -1.6970562748470002, -3.6769552621685, 2.6525376390131572e-06},
{ -1.6970562748470002, -3.3941125496940003, 3.1545258777493355e-06},
{ -1.6970562748470002, -3.1112698372195005, 1.8092849073910036e-05},
{ -1.6970562748470002, -2.8284271247450006, 1.5716129291497474e-05},
{ -1.6970562748470002, -2.5455844122705003, 8.961446811264295e-05},
{ -1.6970562748470002, -2.2627416997960004, 7.738850135324006e-05},
{ -1.6970562748470002, -1.9798989873215005, 0.000322310955999346},
{ -1.6970562748470002, -1.6970562748470002, 0.00020330097742182906},
{ -1.6970562748470002, -1.4142135623725007, 0.0008417783871284452},
{ -1.6970562748470002, -1.1313708498980004, 0.0005278637537302488},
{ -1.6970562748470002, -0.8485281374235001, 0.0015964166158003998},
{ -1.6970562748470002, -0.5656854249490006, 0.0007312003716416263},
{ -1.6970562748470002, -0.2828427124745003, 0.0021984696450653867},
{ -1.6970562748470002, -8.881784197001252e-16, 0.001001083515827016},
{ -1.6970562748470002, 0.28284271247449944, 0.0021984696450653876},
{ -1.6970562748470002, 0.5656854249489998, 0.0007312003716416266},
{ -1.6970562748470002, 0.8485281374234992, 0.001596416615800401},
{ -1.6970562748470002, 1.1313708498979995, 0.0005278637537302495},
{ -1.6970562748470002, 1.4142135623724998, 0.0008417783871284463},
{ -1.6970562748470002, 1.6970562748469993, 0.00020330097742182938},
{ -1.6970562748470002, 1.9798989873214996, 0.00032231095599934655},
{ -1.6970562748470002, 2.262741699796, 7.738850135324017e-05},
{ -1.6970562748470002, 2.5455844122704994, 8.961446811264317e-05},
{ -1.6970562748470002, 2.828427124744999, 1.5716129291497545e-05},
{ -1.6970562748470002, 3.1112698372195, 1.8092849073910067e-05},
{ -1.6970562748470002, 3.3941125496939994, 3.154525877749344e-06},
{ -1.6970562748470002, 3.676955262168499, 2.6525376390131687e-06},
{ -1.6970562748470002, 3.959797974643, 3.377962176804293e-07},
{ -1.6970562748470002, 4.2426406871174995, 2.8238518985954833e-07},
{ -1.6970562748470002, 4.525483399591999, 3.5751545079758024e-08},
{ -1.6970562748470002, 4.8083261120665, 2.1829713807171248e-08},
{ -1.6970562748470002, 5.091168824541, 2.018677930713358e-09},
{ -1.6970562748470002, 5.374011537015499, 1.225405807305549e-09},
{ -1.6970562748470002, 5.6568542494899985, 5.6328554181840665e-11},
{ -1.4142135623725007, -5.65685424949, 2.3323134049711337e-10},
{ -1.4142135623725007, -5.3740115370155, 5.0738571802888655e-09},
{ -1.4142135623725007, -5.0911688245410005, 8.358442119645286e-09},
{ -1.4142135623725007, -4.8083261120665, 9.038707788378345e-08},
{ -1.4142135623725007, -4.525483399592, 1.4803115231534113e-07},
{ -1.4142135623725007, -4.2426406871175, 1.169230727187868e-06},
{ -1.4142135623725007, -3.959797974643, 1.3986630015414254e-06},
{ -1.4142135623725007, -3.6769552621685, 1.098297157191258e-05},
{ -1.4142135623725007, -3.3941125496940003, 1.3061480270294358e-05},
{ -1.4142135623725007, -3.1112698372195005, 7.491439296129554e-05},
{ -1.4142135623725007, -2.8284271247450006, 6.507345972788405e-05},
{ -1.4142135623725007, -2.5455844122705003, 0.0003710534173906747},
{ -1.4142135623725007, -2.2627416997960004, 0.0003204311591490814},
{ -1.4142135623725007, -1.9798989873215005, 0.0013345454612941022},
{ -1.4142135623725007, -1.6970562748470002, 0.0008417783871284452},
{ -1.4142135623725007, -1.4142135623725007, 0.003485427674881818},
{ -1.4142135623725007, -1.1313708498980004, 0.0021856476288190487},
{ -1.4142135623725007, -0.8485281374235001, 0.00661004694161013},
{ -1.4142135623725007, -0.5656854249490006, 0.0030275735872685424},
{ -1.4142135623725007, -0.2828427124745003, 0.009102879166852837},
{ -1.4142135623725007, -8.881784197001252e-16, 0.0041450389369513015},
{ -1.4142135623725007, 0.28284271247449944, 0.009102879166852838},
{ -1.4142135623725007, 0.5656854249489998, 0.0030275735872685437},
{ -1.4142135623725007, 0.8485281374234992, 0.006610046941610134},
{ -1.4142135623725007, 1.1313708498979995, 0.0021856476288190513},
{ -1.4142135623725007, 1.4142135623724998, 0.003485427674881823},
{ -1.4142135623725007, 1.6970562748469993, 0.0008417783871284465},
{ -1.4142135623725007, 1.9798989873214996, 0.0013345454612941048},
{ -1.4142135623725007, 2.262741699796, 0.0003204311591490819},
{ -1.4142135623725007, 2.5455844122704994, 0.00037105341739067556},
{ -1.4142135623725007, 2.828427124744999, 6.507345972788436e-05},
{ -1.4142135623725007, 3.1112698372195, 7.491439296129567e-05},
{ -1.4142135623725007, 3.3941125496939994, 1.3061480270294392e-05},
{ -1.4142135623725007, 3.676955262168499, 1.0982971571912626e-05},
{ -1.4142135623725007, 3.959797974643, 1.3986630015414254e-06},
{ -1.4142135623725007, 4.2426406871174995, 1.169230727187872e-06},
{ -1.4142135623725007, 4.525483399591999, 1.4803115231534166e-07},
{ -1.4142135623725007, 4.8083261120665, 9.038707788378345e-08},
{ -1.4142135623725007, 5.091168824541, 8.358442119645318e-09},
{ -1.4142135623725007, 5.374011537015499, 5.073857180288884e-09},
{ -1.4142135623725007, 5.6568542494899985, 2.3323134049711585e-10},
{ -1.1313708498980004, -5.65685424949, 1.4625508657014058e-10},
{ -1.1313708498980004, -5.3740115370155, 3.1817225745305097e-09},
{ -1.1313708498980004, -5.0911688245410005, 5.241425415618022e-09},
{ -1.1313708498980004, -4.8083261120665, 5.6680075124288046e-08},
{ -1.1313708498980004, -4.525483399592, 9.282761463708967e-08},
{ -1.1313708498980004, -4.2426406871175, 7.332030972374682e-07},
{ -1.1313708498980004, -3.959797974643, 8.770758592601136e-07},
{ -1.1313708498980004, -3.6769552621685, 6.887219593317683e-06},
{ -1.1313708498980004, -3.3941125496940003, 8.190614192734222e-06},
{ -1.1313708498980004, -3.1112698372195005, 4.6977438814829506e-05},
{ -1.1313708498980004, -2.8284271247450006, 4.080637047163065e-05},
{ -1.1313708498980004, -2.5455844122705003, 0.00023268077766457504},
{ -1.1313708498980004, -2.2627416997960004, 0.00020093649001558359},
{ -1.1313708498980004, -1.9798989873215005, 0.0008368689283238625},
{ -1.1313708498980004, -1.6970562748470002, 0.000527863753730249},
{ -1.1313708498980004, -1.4142135623725007, 0.002185647628819049},
{ -1.1313708498980004, -1.1313708498980004, 0.0013705794533591376},
{ -1.1313708498980004, -0.8485281374235001, 0.004145038936951305},
{ -1.1313708498980004, -0.5656854249490006, 0.0018985357463522882},
{ -1.1313708498980004, -0.2828427124745003, 0.005708248204327705},
{ -1.1313708498980004, -8.881784197001252e-16, 0.002599277726862438},
{ -1.1313708498980004, 0.28284271247449944, 0.005708248204327706},
{ -1.1313708498980004, 0.5656854249489998, 0.0018985357463522888},
{ -1.1313708498980004, 0.8485281374234992, 0.0041450389369513075},
{ -1.1313708498980004, 1.1313708498979995, 0.0013705794533591389},
{ -1.1313708498980004, 1.4142135623724998, 0.002185647628819052},
{ -1.1313708498980004, 1.6970562748469993, 0.0005278637537302497},
{ -1.1313708498980004, 1.9798989873214996, 0.000836868928323864},
{ -1.1313708498980004, 2.262741699796, 0.00020093649001558388},
{ -1.1313708498980004, 2.5455844122704994, 0.00023268077766457559},
{ -1.1313708498980004, 2.828427124744999, 4.080637047163083e-05},
{ -1.1313708498980004, 3.1112698372195, 4.697743881482958e-05},
{ -1.1313708498980004, 3.3941125496939994, 8.190614192734242e-06},
{ -1.1313708498980004, 3.676955262168499, 6.887219593317714e-06},
{ -1.1313708498980004, 3.959797974643, 8.770758592601136e-07},
{ -1.1313708498980004, 4.2426406871174995, 7.332030972374707e-07},
{ -1.1313708498980004, 4.525483399591999, 9.282761463708999e-08},
{ -1.1313708498980004, 4.8083261120665, 5.6680075124288046e-08},
{ -1.1313708498980004, 5.091168824541, 5.241425415618041e-09},
{ -1.1313708498980004, 5.374011537015499, 3.1817225745305213e-09},
{ -1.1313708498980004, 5.6568542494899985, 1.4625508657014214e-10},
{ -0.8485281374235001, -5.65685424949, 4.4231877770720043e-10},
{ -0.8485281374235001, -5.3740115370155, 9.622473126736799e-09},
{ -0.8485281374235001, -5.0911688245410005, 1.585162566067592e-08},
{ -0.8485281374235001, -4.8083261120665, 1.7141736494275066e-07},
{ -0.8485281374235001, -4.525483399592, 2.8073824990737246e-07},
{ -0.8485281374235001, -4.2426406871175, 2.217423717606424e-06},
{ -0.8485281374235001, -3.959797974643, 2.6525376390131594e-06},
{ -0.8485281374235001, -3.6769552621685, 2.0828995584070857e-05},
{ -0.8485281374235001, -3.3941125496940003, 2.4770847588018805e-05},
{ -0.8485281374235001, -3.1112698372195005, 0.00014207371383575808},
{ -0.8485281374235001, -2.8284271247450006, 0.00012341057212408656},
{ -0.8485281374235001, -2.5455844122705003, 0.0007036957112817957},
{ -0.8485281374235001, -2.2627416997960004, 0.0006076915664594281},
{ -0.8485281374235001, -1.9798989873215005, 0.0025309399499061106},
{ -0.8485281374235001, -1.6970562748470002, 0.0015964166158003996},
{ -0.8485281374235001, -1.4142135623725007, 0.00661004694161013},
{ -0.8485281374235001, -1.1313708498980004, 0.004145038936951305},
{ -0.8485281374235001, -0.8485281374235001, 0.012535827636065047},
{ -0.8485281374235001, -0.5656854249490006, 0.005741735418940405},
{ -0.8485281374235001, -0.2828427124745003, 0.017263436286550516},
{ -0.8485281374235001, -8.881784197001252e-16, 0.00786098708789844},
{ -0.8485281374235001, 0.28284271247449944, 0.017263436286550516},
{ -0.8485281374235001, 0.5656854249489998, 0.005741735418940408},
{ -0.8485281374235001, 0.8485281374234992, 0.012535827636065054},
{ -0.8485281374235001, 1.1313708498979995, 0.004145038936951308},
{ -0.8485281374235001, 1.4142135623724998, 0.0066100469416101384},
{ -0.8485281374235001, 1.6970562748469993, 0.0015964166158004022},
{ -0.8485281374235001, 1.9798989873214996, 0.0025309399499061154},
{ -0.8485281374235001, 2.262741699796, 0.0006076915664594291},
{ -0.8485281374235001, 2.5455844122704994, 0.0007036957112817973},
{ -0.8485281374235001, 2.828427124744999, 0.00012341057212408716},
{ -0.8485281374235001, 3.1112698372195, 0.00014207371383575832},
{ -0.8485281374235001, 3.3941125496939994, 2.477084758801887e-05},
{ -0.8485281374235001, 3.676955262168499, 2.0828995584070945e-05},
{ -0.8485281374235001, 3.959797974643, 2.6525376390131594e-06},
{ -0.8485281374235001, 4.2426406871174995, 2.2174237176064312e-06},
{ -0.8485281374235001, 4.525483399591999, 2.807382499073734e-07},
{ -0.8485281374235001, 4.8083261120665, 1.7141736494275066e-07},
{ -0.8485281374235001, 5.091168824541, 1.5851625660675973e-08},
{ -0.8485281374235001, 5.374011537015499, 9.622473126736832e-09},
{ -0.8485281374235001, 5.6568542494899985, 4.423187777072051e-10},
{ -0.5656854249490006, -5.65685424949, 2.0259351565406946e-10},
{ -0.5656854249490006, -5.3740115370155, 4.407343206493671e-09},
{ -0.5656854249490006, -5.0911688245410005, 7.260457238725809e-09},
{ -0.5656854249490006, -4.8083261120665, 7.851361587659578e-08},
{ -0.5656854249490006, -4.525483399592, 1.2858542728419975e-07},
{ -0.5656854249490006, -4.2426406871175, 1.0156377917601776e-06},
{ -0.5656854249490006, -3.959797974643, 1.2149312956551719e-06},
{ -0.5656854249490006, -3.6769552621685, 9.540222246032196e-06},
{ -0.5656854249490006, -3.3941125496940003, 1.1345693087237346e-05},
{ -0.5656854249490006, -3.1112698372195005, 6.507345972788412e-05},
{ -0.5656854249490006, -2.8284271247450006, 5.6525254941921935e-05},
{ -0.5656854249490006, -2.5455844122705003, 0.0003223109559993461},
{ -0.5656854249490006, -2.2627416997960004, 0.0002783385582690355},
{ -0.5656854249490006, -1.9798989873215005, 0.0011592363883322118},
{ -0.5656854249490006, -1.6970562748470002, 0.0007312003716416263},
{ -0.5656854249490006, -1.4142135623725007, 0.003027573587268543},
{ -0.5656854249490006, -1.1313708498980004, 0.001898535746352288},
{ -0.5656854249490006, -0.8485281374235001, 0.005741735418940406},
{ -0.5656854249490006, -0.5656854249490006, 0.0026298643039944624},
{ -0.5656854249490006, -0.2828427124745003, 0.007907103260891852},
{ -0.5656854249490006, -8.881784197001252e-16, 0.0036005367416321317},
{ -0.5656854249490006, 0.28284271247449944, 0.007907103260891854},
{ -0.5656854249490006, 0.5656854249489998, 0.002629864303994464},
{ -0.5656854249490006, 0.8485281374234992, 0.00574173541894041},
{ -0.5656854249490006, 1.1313708498979995, 0.0018985357463522899},
{ -0.5656854249490006, 1.4142135623724998, 0.003027573587268547},
{ -0.5656854249490006, 1.6970562748469993, 0.0007312003716416275},
{ -0.5656854249490006, 1.9798989873214996, 0.001159236388332214},
{ -0.5656854249490006, 2.262741699796, 0.00027833855826903586},
{ -0.5656854249490006, 2.5455844122704994, 0.0003223109559993468},
{ -0.5656854249490006, 2.828427124744999, 5.65252549419222e-05},
{ -0.5656854249490006, 3.1112698372195, 6.507345972788424e-05},
{ -0.5656854249490006, 3.3941125496939994, 1.1345693087237376e-05},
{ -0.5656854249490006, 3.676955262168499, 9.540222246032237e-06},
{ -0.5656854249490006, 3.959797974643, 1.2149312956551719e-06},
{ -0.5656854249490006, 4.2426406871174995, 1.0156377917601812e-06},
{ -0.5656854249490006, 4.525483399591999, 1.285854272842002e-07},
{ -0.5656854249490006, 4.8083261120665, 7.851361587659578e-08},
{ -0.5656854249490006, 5.091168824541, 7.260457238725836e-09},
{ -0.5656854249490006, 5.374011537015499, 4.407343206493687e-09},
{ -0.5656854249490006, 5.6568542494899985, 2.025935156540716e-10},
{ -0.2828427124745003, -5.65685424949, 6.091294694675659e-10},
{ -0.2828427124745003, -5.3740115370155, 1.3251374904402303e-08},
{ -0.2828427124745003, -5.0911688245410005, 2.1829713807171235e-08},
{ -0.2828427124745003, -4.8083261120665, 2.3606361255190746e-07},
{ -0.2828427124745003, -4.525483399592, 3.866124384584249e-07},
{ -0.2828427124745003, -4.2426406871175, 3.0536757668120387e-06},
{ -0.2828427124745003, -3.959797974643, 3.6528832286301857e-06},
{ -0.2828427124745003, -3.6769552621685, 2.8684188122047296e-05},
{ -0.2828427124745003, -3.3941125496940003, 3.4112621959585886e-05},
{ -0.2828427124745003, -3.1112698372195005, 0.00019565365590549136},
{ -0.2828427124745003, -2.8284271247450006, 0.00016995212528461893},
{ -0.2828427124745003, -2.5455844122705003, 0.0009690789016500393},
{ -0.2828427124745003, -2.2627416997960004, 0.0008368689283238625},
{ -0.2828427124745003, -1.9798989873215005, 0.003485427674881823},
{ -0.2828427124745003, -1.6970562748470002, 0.0021984696450653867},
{ -0.2828427124745003, -1.4142135623725007, 0.009102879166852837},
{ -0.2828427124745003, -1.1313708498980004, 0.005708248204327704},
{ -0.2828427124745003, -0.8485281374235001, 0.017263436286550516},
{ -0.2828427124745003, -0.5656854249490006, 0.00790710326089185},
{ -0.2828427124745003, -0.2828427124745003, 0.02377395741804714},
{ -0.2828427124745003, -8.881784197001252e-16, 0.010825583573828488},
{ -0.2828427124745003, 0.28284271247449944, 0.023773957418047147},
{ -0.2828427124745003, 0.5656854249489998, 0.007907103260891854},
{ -0.2828427124745003, 0.8485281374234992, 0.017263436286550526},
{ -0.2828427124745003, 1.1313708498979995, 0.005708248204327711},
{ -0.2828427124745003, 1.4142135623724998, 0.00910287916685285},
{ -0.2828427124745003, 1.6970562748469993, 0.00219846964506539},
{ -0.2828427124745003, 1.9798989873214996, 0.0034854276748818294},
{ -0.2828427124745003, 2.262741699796, 0.0008368689283238637},
{ -0.2828427124745003, 2.5455844122704994, 0.0009690789016500416},
{ -0.2828427124745003, 2.828427124744999, 0.00016995212528461974},
{ -0.2828427124745003, 3.1112698372195, 0.00019565365590549165},
{ -0.2828427124745003, 3.3941125496939994, 3.4112621959585974e-05},
{ -0.2828427124745003, 3.676955262168499, 2.868418812204742e-05},
{ -0.2828427124745003, 3.959797974643, 3.6528832286301857e-06},
{ -0.2828427124745003, 4.2426406871174995, 3.0536757668120493e-06},
{ -0.2828427124745003, 4.525483399591999, 3.8661243845842624e-07},
{ -0.2828427124745003, 4.8083261120665, 2.3606361255190746e-07},
{ -0.2828427124745003, 5.091168824541, 2.1829713807171314e-08},
{ -0.2828427124745003, 5.374011537015499, 1.3251374904402349e-08},
{ -0.2828427124745003, 5.6568542494899985, 6.091294694675723e-10},
{ -8.881784197001252e-16, -5.65685424949, 2.773699751812127e-10},
{ -8.881784197001252e-16, -5.3740115370155, 6.034076025846787e-09},
{ -8.881784197001252e-16, -5.0911688245410005, 9.940263081017237e-09},
{ -8.881784197001252e-16, -4.8083261120665, 1.0749267871072264e-07},
{ -8.881784197001252e-16, -4.525483399592, 1.7604579623063422e-07},
{ -8.881784197001252e-16, -4.2426406871175, 1.390505654557279e-06},
{ -8.881784197001252e-16, -3.959797974643, 1.6633575967858708e-06},
{ -8.881784197001252e-16, -3.6769552621685, 1.3061480270294382e-05},
{ -8.881784197001252e-16, -3.3941125496940003, 1.553334320627585e-05},
{ -8.881784197001252e-16, -3.1112698372195005, 8.909181447099445e-05},
{ -8.881784197001252e-16, -2.8284271247450006, 7.738850135324004e-05},
{ -8.881784197001252e-16, -2.5455844122705003, 0.00044127464582243564},
{ -8.881784197001252e-16, -2.2627416997960004, 0.00038107221126899946},
{ -8.881784197001252e-16, -1.9798989873215005, 0.0015871059210497767},
{ -8.881784197001252e-16, -1.6970562748470002, 0.001001083515827016},
{ -8.881784197001252e-16, -1.4142135623725007, 0.0041450389369513015},
{ -8.881784197001252e-16, -1.1313708498980004, 0.002599277726862438},
{ -8.881784197001252e-16, -0.8485281374235001, 0.00786098708789844},
{ -8.881784197001252e-16, -0.5656854249490006, 0.0036005367416321317},
{ -8.881784197001252e-16, -0.2828427124745003, 0.010825583573828488},
{ -8.881784197001252e-16, -8.881784197001252e-16, 0.0049294805089951975},
{ -8.881784197001252e-16, 0.28284271247449944, 0.010825583573828493},
{ -8.881784197001252e-16, 0.5656854249489998, 0.003600536741632133},
{ -8.881784197001252e-16, 0.8485281374234992, 0.007860987087898445},
{ -8.881784197001252e-16, 1.1313708498979995, 0.00259927772686244},
{ -8.881784197001252e-16, 1.4142135623724998, 0.0041450389369513075},
{ -8.881784197001252e-16, 1.6970562748469993, 0.0010010835158270174},
{ -8.881784197001252e-16, 1.9798989873214996, 0.0015871059210497795},
{ -8.881784197001252e-16, 2.262741699796, 0.00038107221126899995},
{ -8.881784197001252e-16, 2.5455844122704994, 0.0004412746458224367},
{ -8.881784197001252e-16, 2.828427124744999, 7.738850135324039e-05},
{ -8.881784197001252e-16, 3.1112698372195, 8.90918144709946e-05},
{ -8.881784197001252e-16, 3.3941125496939994, 1.553334320627589e-05},
{ -8.881784197001252e-16, 3.676955262168499, 1.3061480270294436e-05},
{ -8.881784197001252e-16, 3.959797974643, 1.6633575967858708e-06},
{ -8.881784197001252e-16, 4.2426406871174995, 1.390505654557284e-06},
{ -8.881784197001252e-16, 4.525483399591999, 1.7604579623063486e-07},
{ -8.881784197001252e-16, 4.8083261120665, 1.0749267871072264e-07},
{ -8.881784197001252e-16, 5.091168824541, 9.940263081017273e-09},
{ -8.881784197001252e-16, 5.374011537015499, 6.034076025846808e-09},
{ -8.881784197001252e-16, 5.6568542494899985, 2.773699751812156e-10},
{ 0.28284271247449944, -5.65685424949, 6.091294694675661e-10},
{ 0.28284271247449944, -5.3740115370155, 1.3251374904402308e-08},
{ 0.28284271247449944, -5.0911688245410005, 2.1829713807171245e-08},
{ 0.28284271247449944, -4.8083261120665, 2.3606361255190754e-07},
{ 0.28284271247449944, -4.525483399592, 3.866124384584251e-07},
{ 0.28284271247449944, -4.2426406871175, 3.05367576681204e-06},
{ 0.28284271247449944, -3.959797974643, 3.6528832286301874e-06},
{ 0.28284271247449944, -3.6769552621685, 2.8684188122047306e-05},
{ 0.28284271247449944, -3.3941125496940003, 3.411262195958589e-05},
{ 0.28284271247449944, -3.1112698372195005, 0.00019565365590549144},
{ 0.28284271247449944, -2.8284271247450006, 0.000169952125284619},
{ 0.28284271247449944, -2.5455844122705003, 0.0009690789016500398},
{ 0.28284271247449944, -2.2627416997960004, 0.0008368689283238629},
{ 0.28284271247449944, -1.9798989873215005, 0.0034854276748818246},
{ 0.28284271247449944, -1.6970562748470002, 0.0021984696450653876},
{ 0.28284271247449944, -1.4142135623725007, 0.00910287916685284},
{ 0.28284271247449944, -1.1313708498980004, 0.005708248204327707},
{ 0.28284271247449944, -0.8485281374235001, 0.01726343628655052},
{ 0.28284271247449944, -0.5656854249490006, 0.007907103260891854},
{ 0.28284271247449944, -0.2828427124745003, 0.023773957418047147},
{ 0.28284271247449944, -8.881784197001252e-16, 0.010825583573828493},
{ 0.28284271247449944, 0.28284271247449944, 0.02377395741804716},
{ 0.28284271247449944, 0.5656854249489998, 0.007907103260891857},
{ 0.28284271247449944, 0.8485281374234992, 0.01726343628655053},
{ 0.28284271247449944, 1.1313708498979995, 0.005708248204327713},
{ 0.28284271247449944, 1.4142135623724998, 0.009102879166852852},
{ 0.28284271247449944, 1.6970562748469993, 0.0021984696450653906},
{ 0.28284271247449944, 1.9798989873214996, 0.0034854276748818303},
{ 0.28284271247449944, 2.262741699796, 0.000836868928323864},
{ 0.28284271247449944, 2.5455844122704994, 0.0009690789016500419},
{ 0.28284271247449944, 2.828427124744999, 0.0001699521252846198},
{ 0.28284271247449944, 3.1112698372195, 0.00019565365590549174},
{ 0.28284271247449944, 3.3941125496939994, 3.411262195958598e-05},
{ 0.28284271247449944, 3.676955262168499, 2.868418812204743e-05},
{ 0.28284271247449944, 3.959797974643, 3.6528832286301874e-06},
{ 0.28284271247449944, 4.2426406871174995, 3.05367576681205e-06},
{ 0.28284271247449944, 4.525483399591999, 3.866124384584264e-07},
{ 0.28284271247449944, 4.8083261120665, 2.3606361255190754e-07},
{ 0.28284271247449944, 5.091168824541, 2.182971380717132e-08},
{ 0.28284271247449944, 5.374011537015499, 1.3251374904402356e-08},
{ 0.28284271247449944, 5.6568542494899985, 6.091294694675725e-10},
{ 0.5656854249489998, -5.65685424949, 2.025935156540695e-10},
{ 0.5656854249489998, -5.3740115370155, 4.407343206493673e-09},
{ 0.5656854249489998, -5.0911688245410005, 7.260457238725813e-09},
{ 0.5656854249489998, -4.8083261120665, 7.85136158765958e-08},
{ 0.5656854249489998, -4.525483399592, 1.285854272841998e-07},
{ 0.5656854249489998, -4.2426406871175, 1.015637791760178e-06},
{ 0.5656854249489998, -3.959797974643, 1.2149312956551723e-06},
{ 0.5656854249489998, -3.6769552621685, 9.5402222460322e-06},
{ 0.5656854249489998, -3.3941125496940003, 1.134569308723735e-05},
{ 0.5656854249489998, -3.1112698372195005, 6.507345972788416e-05},
{ 0.5656854249489998, -2.8284271247450006, 5.6525254941921955e-05},
{ 0.5656854249489998, -2.5455844122705003, 0.0003223109559993462},
{ 0.5656854249489998, -2.2627416997960004, 0.0002783385582690356},
{ 0.5656854249489998, -1.9798989873215005, 0.0011592363883322122},
{ 0.5656854249489998, -1.6970562748470002, 0.0007312003716416266},
{ 0.5656854249489998, -1.4142135623725007, 0.003027573587268544},
{ 0.5656854249489998, -1.1313708498980004, 0.001898535746352289},
{ 0.5656854249489998, -0.8485281374235001, 0.005741735418940407},
{ 0.5656854249489998, -0.5656854249490006, 0.002629864303994464},
{ 0.5656854249489998, -0.2828427124745003, 0.007907103260891854},
{ 0.5656854249489998, -8.881784197001252e-16, 0.003600536741632133},
{ 0.5656854249489998, 0.28284271247449944, 0.007907103260891855},
{ 0.5656854249489998, 0.5656854249489998, 0.002629864303994465},
{ 0.5656854249489998, 0.8485281374234992, 0.005741735418940412},
{ 0.5656854249489998, 1.1313708498979995, 0.0018985357463522908},
{ 0.5656854249489998, 1.4142135623724998, 0.003027573587268548},
{ 0.5656854249489998, 1.6970562748469993, 0.0007312003716416278},
{ 0.5656854249489998, 1.9798989873214996, 0.0011592363883322144},
{ 0.5656854249489998, 2.262741699796, 0.00027833855826903597},
{ 0.5656854249489998, 2.5455844122704994, 0.000322310955999347},
{ 0.5656854249489998, 2.828427124744999, 5.652525494192222e-05},
{ 0.5656854249489998, 3.1112698372195, 6.507345972788428e-05},
{ 0.5656854249489998, 3.3941125496939994, 1.1345693087237381e-05},
{ 0.5656854249489998, 3.676955262168499, 9.54022224603224e-06},
{ 0.5656854249489998, 3.959797974643, 1.2149312956551723e-06},
{ 0.5656854249489998, 4.2426406871174995, 1.0156377917601816e-06},
{ 0.5656854249489998, 4.525483399591999, 1.2858542728420022e-07},
{ 0.5656854249489998, 4.8083261120665, 7.85136158765958e-08},
{ 0.5656854249489998, 5.091168824541, 7.260457238725838e-09},
{ 0.5656854249489998, 5.374011537015499, 4.407343206493688e-09},
{ 0.5656854249489998, 5.6568542494899985, 2.0259351565407168e-10},
{ 0.8485281374234992, -5.65685424949, 4.423187777072007e-10},
{ 0.8485281374234992, -5.3740115370155, 9.622473126736805e-09},
{ 0.8485281374234992, -5.0911688245410005, 1.585162566067593e-08},
{ 0.8485281374234992, -4.8083261120665, 1.714173649427508e-07},
{ 0.8485281374234992, -4.525483399592, 2.807382499073727e-07},
{ 0.8485281374234992, -4.2426406871175, 2.2174237176064257e-06},
{ 0.8485281374234992, -3.959797974643, 2.6525376390131615e-06},
{ 0.8485281374234992, -3.6769552621685, 2.082899558407087e-05},
{ 0.8485281374234992, -3.3941125496940003, 2.4770847588018826e-05},
{ 0.8485281374234992, -3.1112698372195005, 0.00014207371383575818},
{ 0.8485281374234992, -2.8284271247450006, 0.00012341057212408664},
{ 0.8485281374234992, -2.5455844122705003, 0.0007036957112817962},
{ 0.8485281374234992, -2.2627416997960004, 0.0006076915664594286},
{ 0.8485281374234992, -1.9798989873215005, 0.0025309399499061124},
{ 0.8485281374234992, -1.6970562748470002, 0.001596416615800401},
{ 0.8485281374234992, -1.4142135623725007, 0.006610046941610136},
{ 0.8485281374234992, -1.1313708498980004, 0.004145038936951307},
{ 0.8485281374234992, -0.8485281374235001, 0.012535827636065058},
{ 0.8485281374234992, -0.5656854249490006, 0.00574173541894041},
{ 0.8485281374234992, -0.2828427124745003, 0.01726343628655053},
{ 0.8485281374234992, -8.881784197001252e-16, 0.007860987087898445},
{ 0.8485281374234992, 0.28284271247449944, 0.01726343628655053},
{ 0.8485281374234992, 0.5656854249489998, 0.005741735418940411},
{ 0.8485281374234992, 0.8485281374234992, 0.012535827636065065},
{ 0.8485281374234992, 1.1313708498979995, 0.004145038936951312},
{ 0.8485281374234992, 1.4142135623724998, 0.006610046941610144},
{ 0.8485281374234992, 1.6970562748469993, 0.0015964166158004033},
{ 0.8485281374234992, 1.9798989873214996, 0.002530939949906117},
{ 0.8485281374234992, 2.262741699796, 0.0006076915664594294},
{ 0.8485281374234992, 2.5455844122704994, 0.0007036957112817978},
{ 0.8485281374234992, 2.828427124744999, 0.00012341057212408724},
{ 0.8485281374234992, 3.1112698372195, 0.00014207371383575843},
{ 0.8485281374234992, 3.3941125496939994, 2.4770847588018887e-05},
{ 0.8485281374234992, 3.676955262168499, 2.0828995584070965e-05},
{ 0.8485281374234992, 3.959797974643, 2.6525376390131615e-06},
{ 0.8485281374234992, 4.2426406871174995, 2.217423717606433e-06},
{ 0.8485281374234992, 4.525483399591999, 2.807382499073737e-07},
{ 0.8485281374234992, 4.8083261120665, 1.714173649427508e-07},
{ 0.8485281374234992, 5.091168824541, 1.5851625660675986e-08},
{ 0.8485281374234992, 5.374011537015499, 9.622473126736839e-09},
{ 0.8485281374234992, 5.6568542494899985, 4.4231877770720534e-10},
{ 1.1313708498979995, -5.65685424949, 1.4625508657014074e-10},
{ 1.1313708498979995, -5.3740115370155, 3.1817225745305126e-09},
{ 1.1313708498979995, -5.0911688245410005, 5.241425415618027e-09},
{ 1.1313708498979995, -4.8083261120665, 5.66800751242881e-08},
{ 1.1313708498979995, -4.525483399592, 9.282761463708976e-08},
{ 1.1313708498979995, -4.2426406871175, 7.332030972374689e-07},
{ 1.1313708498979995, -3.959797974643, 8.770758592601144e-07},
{ 1.1313708498979995, -3.6769552621685, 6.88721959331769e-06},
{ 1.1313708498979995, -3.3941125496940003, 8.19061419273423e-06},
{ 1.1313708498979995, -3.1112698372195005, 4.6977438814829547e-05},
{ 1.1313708498979995, -2.8284271247450006, 4.080637047163069e-05},
{ 1.1313708498979995, -2.5455844122705003, 0.00023268077766457526},
{ 1.1313708498979995, -2.2627416997960004, 0.0002009364900155838},
{ 1.1313708498979995, -1.9798989873215005, 0.0008368689283238634},
{ 1.1313708498979995, -1.6970562748470002, 0.0005278637537302494},
{ 1.1313708498979995, -1.4142135623725007, 0.0021856476288190513},
{ 1.1313708498979995, -1.1313708498980004, 0.0013705794533591389},
{ 1.1313708498979995, -0.8485281374235001, 0.004145038936951309},
{ 1.1313708498979995, -0.5656854249490006, 0.0018985357463522899},
{ 1.1313708498979995, -0.2828427124745003, 0.005708248204327711},
{ 1.1313708498979995, -8.881784197001252e-16, 0.00259927772686244},
{ 1.1313708498979995, 0.28284271247449944, 0.005708248204327712},
{ 1.1313708498979995, 0.5656854249489998, 0.0018985357463522908},
{ 1.1313708498979995, 0.8485281374234992, 0.004145038936951312},
{ 1.1313708498979995, 1.1313708498979995, 0.0013705794533591404},
{ 1.1313708498979995, 1.4142135623724998, 0.0021856476288190543},
{ 1.1313708498979995, 1.6970562748469993, 0.0005278637537302502},
{ 1.1313708498979995, 1.9798989873214996, 0.0008368689283238648},
{ 1.1313708498979995, 2.262741699796, 0.00020093649001558413},
{ 1.1313708498979995, 2.5455844122704994, 0.00023268077766457583},
{ 1.1313708498979995, 2.828427124744999, 4.080637047163087e-05},
{ 1.1313708498979995, 3.1112698372195, 4.6977438814829635e-05},
{ 1.1313708498979995, 3.3941125496939994, 8.19061419273425e-06},
{ 1.1313708498979995, 3.676955262168499, 6.8872195933177205e-06},
{ 1.1313708498979995, 3.959797974643, 8.770758592601144e-07},
{ 1.1313708498979995, 4.2426406871174995, 7.332030972374713e-07},
{ 1.1313708498979995, 4.525483399591999, 9.282761463709008e-08},
{ 1.1313708498979995, 4.8083261120665, 5.66800751242881e-08},
{ 1.1313708498979995, 5.091168824541, 5.241425415618046e-09},
{ 1.1313708498979995, 5.374011537015499, 3.1817225745305246e-09},
{ 1.1313708498979995, 5.6568542494899985, 1.462550865701423e-10},
{ 1.4142135623724998, -5.65685424949, 2.3323134049711373e-10},
{ 1.4142135623724998, -5.3740115370155, 5.073857180288873e-09},
{ 1.4142135623724998, -5.0911688245410005, 8.3584421196453e-09},
{ 1.4142135623724998, -4.8083261120665, 9.038707788378358e-08},
{ 1.4142135623724998, -4.525483399592, 1.4803115231534135e-07},
{ 1.4142135623724998, -4.2426406871175, 1.1692307271878697e-06},
{ 1.4142135623724998, -3.959797974643, 1.3986630015414273e-06},
{ 1.4142135623724998, -3.6769552621685, 1.0982971571912594e-05},
{ 1.4142135623724998, -3.3941125496940003, 1.3061480270294377e-05},
{ 1.4142135623724998, -3.1112698372195005, 7.491439296129565e-05},
{ 1.4142135623724998, -2.8284271247450006, 6.507345972788416e-05},
{ 1.4142135623724998, -2.5455844122705003, 0.00037105341739067523},
{ 1.4142135623724998, -2.2627416997960004, 0.0003204311591490819},
{ 1.4142135623724998, -1.9798989873215005, 0.0013345454612941042},
{ 1.4142135623724998, -1.6970562748470002, 0.0008417783871284465},
{ 1.4142135623724998, -1.4142135623725007, 0.003485427674881823},
{ 1.4142135623724998, -1.1313708498980004, 0.002185647628819052},
{ 1.4142135623724998, -0.8485281374235001, 0.00661004694161014},
{ 1.4142135623724998, -0.5656854249490006, 0.0030275735872685467},
{ 1.4142135623724998, -0.2828427124745003, 0.00910287916685285},
{ 1.4142135623724998, -8.881784197001252e-16, 0.004145038936951307},
{ 1.4142135623724998, 0.28284271247449944, 0.009102879166852852},
{ 1.4142135623724998, 0.5656854249489998, 0.003027573587268548},
{ 1.4142135623724998, 0.8485281374234992, 0.006610046941610144},
{ 1.4142135623724998, 1.1313708498979995, 0.0021856476288190543},
{ 1.4142135623724998, 1.4142135623724998, 0.003485427674881827},
{ 1.4142135623724998, 1.6970562748469993, 0.0008417783871284478},
{ 1.4142135623724998, 1.9798989873214996, 0.0013345454612941066},
{ 1.4142135623724998, 2.262741699796, 0.0003204311591490823},
{ 1.4142135623724998, 2.5455844122704994, 0.00037105341739067604},
{ 1.4142135623724998, 2.828427124744999, 6.507345972788446e-05},
{ 1.4142135623724998, 3.1112698372195, 7.491439296129578e-05},
{ 1.4142135623724998, 3.3941125496939994, 1.306148027029441e-05},
{ 1.4142135623724998, 3.676955262168499, 1.0982971571912643e-05},
{ 1.4142135623724998, 3.959797974643, 1.3986630015414273e-06},
{ 1.4142135623724998, 4.2426406871174995, 1.1692307271878737e-06},
{ 1.4142135623724998, 4.525483399591999, 1.4803115231534188e-07},
{ 1.4142135623724998, 4.8083261120665, 9.038707788378358e-08},
{ 1.4142135623724998, 5.091168824541, 8.358442119645331e-09},
{ 1.4142135623724998, 5.374011537015499, 5.073857180288892e-09},
{ 1.4142135623724998, 5.6568542494899985, 2.332313404971162e-10},
{ 1.6970562748469993, -5.65685424949, 5.6328554181840154e-11},
{ 1.6970562748469993, -5.3740115370155, 1.2254058073055466e-09},
{ 1.6970562748469993, -5.0911688245410005, 2.018677930713354e-09},
{ 1.6970562748469993, -4.8083261120665, 2.182971380717128e-08},
{ 1.6970562748469993, -4.525483399592, 3.575154507975795e-08},
{ 1.6970562748469993, -4.2426406871175, 2.8238518985954775e-07},
{ 1.6970562748469993, -3.959797974643, 3.377962176804298e-07},
{ 1.6970562748469993, -3.6769552621685, 2.652537639013161e-06},
{ 1.6970562748469993, -3.3941125496940003, 3.15452587774934e-06},
{ 1.6970562748469993, -3.1112698372195005, 1.8092849073910063e-05},
{ 1.6970562748469993, -2.8284271247450006, 1.5716129291497498e-05},
{ 1.6970562748469993, -2.5455844122705003, 8.961446811264309e-05},
{ 1.6970562748469993, -2.2627416997960004, 7.738850135324017e-05},
{ 1.6970562748469993, -1.9798989873215005, 0.0003223109559993465},
{ 1.6970562748469993, -1.6970562748470002, 0.00020330097742182938},
{ 1.6970562748469993, -1.4142135623725007, 0.0008417783871284465},
{ 1.6970562748469993, -1.1313708498980004, 0.0005278637537302496},
{ 1.6970562748469993, -0.8485281374235001, 0.001596416615800402},
{ 1.6970562748469993, -0.5656854249490006, 0.0007312003716416275},
{ 1.6970562748469993, -0.2828427124745003, 0.0021984696450653898},
{ 1.6970562748469993, -8.881784197001252e-16, 0.0010010835158270174},
{ 1.6970562748469993, 0.28284271247449944, 0.0021984696450653906},
{ 1.6970562748469993, 0.5656854249489998, 0.0007312003716416276},
{ 1.6970562748469993, 0.8485281374234992, 0.001596416615800403},
{ 1.6970562748469993, 1.1313708498979995, 0.0005278637537302501},
{ 1.6970562748469993, 1.4142135623724998, 0.0008417783871284477},
{ 1.6970562748469993, 1.6970562748469993, 0.00020330097742182968},
{ 1.6970562748469993, 1.9798989873214996, 0.00032231095599934704},
{ 1.6970562748469993, 2.262741699796, 7.738850135324028e-05},
{ 1.6970562748469993, 2.5455844122704994, 8.961446811264329e-05},
{ 1.6970562748469993, 2.828427124744999, 1.5716129291497572e-05},
{ 1.6970562748469993, 3.1112698372195, 1.8092849073910097e-05},
{ 1.6970562748469993, 3.3941125496939994, 3.1545258777493487e-06},
{ 1.6970562748469993, 3.676955262168499, 2.652537639013173e-06},
{ 1.6970562748469993, 3.959797974643, 3.377962176804298e-07},
{ 1.6970562748469993, 4.2426406871174995, 2.8238518985954875e-07},
{ 1.6970562748469993, 4.525483399591999, 3.5751545079758083e-08},
{ 1.6970562748469993, 4.8083261120665, 2.182971380717128e-08},
{ 1.6970562748469993, 5.091168824541, 2.018677930713361e-09},
{ 1.6970562748469993, 5.374011537015499, 1.225405807305551e-09},
{ 1.6970562748469993, 5.6568542494899985, 5.632855418184075e-11},
{ 1.9798989873214996, -5.65685424949, 8.930262106285608e-11},
{ 1.9798989873214996, -5.3740115370155, 1.9427438187879214e-09},
{ 1.9798989873214996, -5.0911688245410005, 3.200388025449509e-09},
{ 1.9798989873214996, -4.8083261120665, 3.4608569105807095e-08},
{ 1.9798989873214996, -4.525483399592, 5.6680075124288264e-08},
{ 1.9798989873214996, -4.2426406871175, 4.476901275041042e-07},
{ 1.9798989873214996, -3.959797974643, 5.355381131672426e-07},
{ 1.9798989873214996, -3.6769552621685, 4.205301681755626e-06},
{ 1.9798989873214996, -3.3941125496940003, 5.001147875804043e-06},
{ 1.9798989873214996, -3.1112698372195005, 2.8684188122047303e-05},
{ 1.9798989873214996, -2.8284271247450006, 2.4916164795614936e-05},
{ 1.9798989873214996, -2.5455844122705003, 0.00014207371383575832},
{ 1.9798989873214996, -2.2627416997960004, 0.00012269081128304157},
{ 1.9798989873214996, -1.9798989873215005, 0.0005109879631402999},
{ 1.9798989873214996, -1.6970562748470002, 0.0003223109559993466},
{ 1.9798989873214996, -1.4142135623725007, 0.0013345454612941048},
{ 1.9798989873214996, -1.1313708498980004, 0.0008368689283238639},
{ 1.9798989873214996, -0.8485281374235001, 0.0025309399499061154},
{ 1.9798989873214996, -0.5656854249490006, 0.0011592363883322137},
{ 1.9798989873214996, -0.2828427124745003, 0.0034854276748818294},
{ 1.9798989873214996, -8.881784197001252e-16, 0.0015871059210497797},
{ 1.9798989873214996, 0.28284271247449944, 0.0034854276748818303},
{ 1.9798989873214996, 0.5656854249489998, 0.0011592363883322144},
{ 1.9798989873214996, 0.8485281374234992, 0.002530939949906117},
{ 1.9798989873214996, 1.1313708498979995, 0.0008368689283238648},
{ 1.9798989873214996, 1.4142135623724998, 0.0013345454612941066},
{ 1.9798989873214996, 1.6970562748469993, 0.00032231095599934704},
{ 1.9798989873214996, 1.9798989873214996, 0.0005109879631403008},
{ 1.9798989873214996, 2.262741699796, 0.00012269081128304176},
{ 1.9798989873214996, 2.5455844122704994, 0.00014207371383575864},
{ 1.9798989873214996, 2.828427124744999, 2.491616479561505e-05},
{ 1.9798989873214996, 3.1112698372195, 2.868418812204735e-05},
{ 1.9798989873214996, 3.3941125496939994, 5.001147875804057e-06},
{ 1.9798989873214996, 3.676955262168499, 4.205301681755644e-06},
{ 1.9798989873214996, 3.959797974643, 5.355381131672426e-07},
{ 1.9798989873214996, 4.2426406871174995, 4.4769012750410583e-07},
{ 1.9798989873214996, 4.525483399591999, 5.6680075124288456e-08},
{ 1.9798989873214996, 4.8083261120665, 3.4608569105807095e-08},
{ 1.9798989873214996, 5.091168824541, 3.2003880254495207e-09},
{ 1.9798989873214996, 5.374011537015499, 1.9427438187879284e-09},
{ 1.9798989873214996, 5.6568542494899985, 8.930262106285703e-11},
{ 2.262741699796, -5.65685424949, 2.1442013938194343e-11},
{ 2.262741699796, -5.3740115370155, 4.664626809942285e-10},
{ 2.262741699796, -5.0911688245410005, 7.684294574178082e-10},
{ 2.262741699796, -4.8083261120665, 8.30969362730533e-09},
{ 2.262741699796, -4.525483399592, 1.360917458377254e-08},
{ 2.262741699796, -4.2426406871175, 1.0749267871072268e-07},
{ 2.262741699796, -3.959797974643, 1.2858542728419961e-07},
{ 2.262741699796, -3.6769552621685, 1.0097143421025632e-06},
{ 2.262741699796, -3.3941125496940003, 1.2008010647804355e-06},
{ 2.262741699796, -3.1112698372195005, 6.887219593317683e-06},
{ 2.262741699796, -2.8284271247450006, 5.982498010421063e-06},
{ 2.262741699796, -2.5455844122705003, 3.411262195958592e-05},
{ 2.262741699796, -2.2627416997960004, 2.9458688382367766e-05},
{ 2.262741699796, -1.9798989873215005, 0.00012269081128304154},
{ 2.262741699796, -1.6970562748470002, 7.738850135324016e-05},
{ 2.262741699796, -1.4142135623725007, 0.0003204311591490819},
{ 2.262741699796, -1.1313708498980004, 0.00020093649001558386},
{ 2.262741699796, -0.8485281374235001, 0.0006076915664594291},
{ 2.262741699796, -0.5656854249490006, 0.00027833855826903586},
{ 2.262741699796, -0.2828427124745003, 0.0008368689283238639},
{ 2.262741699796, -8.881784197001252e-16, 0.00038107221126899995},
{ 2.262741699796, 0.28284271247449944, 0.000836868928323864},
{ 2.262741699796, 0.5656854249489998, 0.00027833855826903597},
{ 2.262741699796, 0.8485281374234992, 0.0006076915664594294},
{ 2.262741699796, 1.1313708498979995, 0.00020093649001558407},
{ 2.262741699796, 1.4142135623724998, 0.00032043115914908235},
{ 2.262741699796, 1.6970562748469993, 7.738850135324028e-05},
{ 2.262741699796, 1.9798989873214996, 0.00012269081128304176},
{ 2.262741699796, 2.262741699796, 2.9458688382367803e-05},
{ 2.262741699796, 2.5455844122704994, 3.4112621959585994e-05},
{ 2.262741699796, 2.828427124744999, 5.98249801042109e-06},
{ 2.262741699796, 3.1112698372195, 6.887219593317694e-06},
{ 2.262741699796, 3.3941125496939994, 1.2008010647804384e-06},
{ 2.262741699796, 3.676955262168499, 1.0097143421025676e-06},
{ 2.262741699796, 3.959797974643, 1.2858542728419961e-07},
{ 2.262741699796, 4.2426406871174995, 1.0749267871072306e-07},
{ 2.262741699796, 4.525483399591999, 1.3609174583772587e-08},
{ 2.262741699796, 4.8083261120665, 8.30969362730533e-09},
{ 2.262741699796, 5.091168824541, 7.68429457417811e-10},
{ 2.262741699796, 5.374011537015499, 4.664626809942302e-10},
{ 2.262741699796, 5.6568542494899985, 2.144201393819457e-11},
{ 2.5455844122704994, -5.65685424949, 2.4829459683737828e-11},
{ 2.5455844122704994, -5.3740115370155, 5.401552468485054e-10},
{ 2.5455844122704994, -5.0911688245410005, 8.898272469996692e-10},
{ 2.5455844122704994, -4.8083261120665, 9.622473126736792e-09},
{ 2.5455844122704994, -4.525483399592, 1.5759175077058338e-08},
{ 2.5455844122704994, -4.2426406871175, 1.2447455449092159e-07},
{ 2.5455844122704994, -3.959797974643, 1.488995712749778e-07},
{ 2.5455844122704994, -3.6769552621685, 1.169230727187872e-06},
{ 2.5455844122704994, -3.3941125496940003, 1.3905056545572814e-06},
{ 2.5455844122704994, -3.1112698372195005, 7.975274231154204e-06},
{ 2.5455844122704994, -2.8284271247450006, 6.927623197427155e-06},
{ 2.5455844122704994, -2.5455844122705003, 3.950179186029645e-05},
{ 2.5455844122704994, -2.2627416997960004, 3.411262195958595e-05},
{ 2.5455844122704994, -1.9798989873215005, 0.0001420737138357584},
{ 2.5455844122704994, -1.6970562748470002, 8.961446811264316e-05},
{ 2.5455844122704994, -1.4142135623725007, 0.00037105341739067556},
{ 2.5455844122704994, -1.1313708498980004, 0.00023268077766457556},
{ 2.5455844122704994, -0.8485281374235001, 0.0007036957112817973},
{ 2.5455844122704994, -0.5656854249490006, 0.0003223109559993468},
{ 2.5455844122704994, -0.2828427124745003, 0.0009690789016500416},
{ 2.5455844122704994, -8.881784197001252e-16, 0.0004412746458224367},
{ 2.5455844122704994, 0.28284271247449944, 0.0009690789016500419},
{ 2.5455844122704994, 0.5656854249489998, 0.000322310955999347},
{ 2.5455844122704994, 0.8485281374234992, 0.0007036957112817978},
{ 2.5455844122704994, 1.1313708498979995, 0.00023268077766457583},
{ 2.5455844122704994, 1.4142135623724998, 0.00037105341739067604},
{ 2.5455844122704994, 1.6970562748469993, 8.96144681126433e-05},
{ 2.5455844122704994, 1.9798989873214996, 0.00014207371383575864},
{ 2.5455844122704994, 2.262741699796, 3.4112621959585994e-05},
{ 2.5455844122704994, 2.5455844122704994, 3.950179186029654e-05},
{ 2.5455844122704994, 2.828427124744999, 6.927623197427188e-06},
{ 2.5455844122704994, 3.1112698372195, 7.975274231154218e-06},
{ 2.5455844122704994, 3.3941125496939994, 1.390505654557285e-06},
{ 2.5455844122704994, 3.676955262168499, 1.1692307271878771e-06},
{ 2.5455844122704994, 3.959797974643, 1.488995712749778e-07},
{ 2.5455844122704994, 4.2426406871174995, 1.2447455449092204e-07},
{ 2.5455844122704994, 4.525483399591999, 1.5759175077058394e-08},
{ 2.5455844122704994, 4.8083261120665, 9.622473126736792e-09},
{ 2.5455844122704994, 5.091168824541, 8.898272469996724e-10},
{ 2.5455844122704994, 5.374011537015499, 5.401552468485073e-10},
{ 2.5455844122704994, 5.6568542494899985, 2.482945968373809e-11},
{ 2.828427124744999, -5.65685424949, 4.354464260582888e-12},
{ 2.828427124744999, -5.3740115370155, 9.472967787167172e-11},
{ 2.828427124744999, -5.0911688245410005, 1.5605337347274972e-10},
{ 2.828427124744999, -4.8083261120665, 1.6875403598185311e-09},
{ 2.828427124744999, -4.525483399592, 2.7637639128435783e-09},
{ 2.828427124744999, -4.2426406871175, 2.1829713807171324e-08},
{ 2.828427124744999, -3.959797974643, 2.611324893057031e-08},
{ 2.828427124744999, -3.6769552621685, 2.0505373370043768e-07},
{ 2.828427124744999, -3.3941125496940003, 2.438598042016109e-07},
{ 2.828427124744999, -3.1112698372195005, 1.3986630015414294e-06},
{ 2.828427124744999, -2.8284271247450006, 1.214931295655174e-06},
{ 2.828427124744999, -2.5455844122705003, 6.927623197427173e-06},
{ 2.828427124744999, -2.2627416997960004, 5.982498010421082e-06},
{ 2.828427124744999, -1.9798989873215005, 2.4916164795615007e-05},
{ 2.828427124744999, -1.6970562748470002, 1.5716129291497545e-05},
{ 2.828427124744999, -1.4142135623725007, 6.507345972788436e-05},
{ 2.828427124744999, -1.1313708498980004, 4.080637047163083e-05},
{ 2.828427124744999, -0.8485281374235001, 0.00012341057212408716},
{ 2.828427124744999, -0.5656854249490006, 5.65252549419222e-05},
{ 2.828427124744999, -0.2828427124745003, 0.00016995212528461974},
{ 2.828427124744999, -8.881784197001252e-16, 7.738850135324039e-05},
{ 2.828427124744999, 0.28284271247449944, 0.00016995212528461977},
{ 2.828427124744999, 0.5656854249489998, 5.652525494192222e-05},
{ 2.828427124744999, 0.8485281374234992, 0.00012341057212408721},
{ 2.828427124744999, 1.1313708498979995, 4.080637047163087e-05},
{ 2.828427124744999, 1.4142135623724998, 6.507345972788446e-05},
{ 2.828427124744999, 1.6970562748469993, 1.5716129291497572e-05},
{ 2.828427124744999, 1.9798989873214996, 2.491616479561505e-05},
{ 2.828427124744999, 2.262741699796, 5.982498010421091e-06},
{ 2.828427124744999, 2.5455844122704994, 6.927623197427188e-06},
{ 2.828427124744999, 2.828427124744999, 1.2149312956551795e-06},
{ 2.828427124744999, 3.1112698372195, 1.3986630015414317e-06},
{ 2.828427124744999, 3.3941125496939994, 2.438598042016115e-07},
{ 2.828427124744999, 3.676955262168499, 2.0505373370043853e-07},
{ 2.828427124744999, 3.959797974643, 2.611324893057031e-08},
{ 2.828427124744999, 4.2426406871174995, 2.1829713807171403e-08},
{ 2.828427124744999, 4.525483399591999, 2.7637639128435874e-09},
{ 2.828427124744999, 4.8083261120665, 1.6875403598185311e-09},
{ 2.828427124744999, 5.091168824541, 1.5605337347275029e-10},
{ 2.828427124744999, 5.374011537015499, 9.472967787167205e-11},
{ 2.828427124744999, 5.6568542494899985, 4.354464260582934e-12},
{ 3.1112698372195, -5.65685424949, 5.012981453842087e-12},
{ 3.1112698372195, -5.3740115370155, 1.0905546351540346e-10},
{ 3.1112698372195, -5.0911688245410005, 1.7965302278624502e-10},
{ 3.1112698372195, -4.8083261120665, 1.942743818787916e-09},
{ 3.1112698372195, -4.525483399592, 3.1817225745305134e-09},
{ 3.1112698372195, -4.2426406871175, 2.5130979130686872e-08},
{ 3.1112698372195, -3.959797974643, 3.006230497135547e-08},
{ 3.1112698372195, -3.6769552621685, 2.3606361255190773e-07},
{ 3.1112698372195, -3.3941125496940003, 2.807382499073719e-07},
{ 3.1112698372195, -3.1112698372195005, 1.6101800973247022e-06},
{ 3.1112698372195, -2.8284271247450006, 1.398663001541425e-06},
{ 3.1112698372195, -2.5455844122705003, 7.9752742311542e-06},
{ 3.1112698372195, -2.2627416997960004, 6.887219593317685e-06},
{ 3.1112698372195, -1.9798989873215005, 2.8684188122047296e-05},
{ 3.1112698372195, -1.6970562748470002, 1.8092849073910067e-05},
{ 3.1112698372195, -1.4142135623725007, 7.491439296129567e-05},
{ 3.1112698372195, -1.1313708498980004, 4.697743881482958e-05},
{ 3.1112698372195, -0.8485281374235001, 0.00014207371383575832},
{ 3.1112698372195, -0.5656854249490006, 6.507345972788423e-05},
{ 3.1112698372195, -0.2828427124745003, 0.00019565365590549165},
{ 3.1112698372195, -8.881784197001252e-16, 8.90918144709946e-05},
{ 3.1112698372195, 0.28284271247449944, 0.00019565365590549174},
{ 3.1112698372195, 0.5656854249489998, 6.507345972788427e-05},
{ 3.1112698372195, 0.8485281374234992, 0.0001420737138357584},
{ 3.1112698372195, 1.1313708498979995, 4.697743881482963e-05},
{ 3.1112698372195, 1.4142135623724998, 7.491439296129577e-05},
{ 3.1112698372195, 1.6970562748469993, 1.8092849073910097e-05},
{ 3.1112698372195, 1.9798989873214996, 2.868418812204735e-05},
{ 3.1112698372195, 2.262741699796, 6.887219593317694e-06},
{ 3.1112698372195, 2.5455844122704994, 7.975274231154218e-06},
{ 3.1112698372195, 2.828427124744999, 1.398663001541432e-06},
{ 3.1112698372195, 3.1112698372195, 1.610180097324705e-06},
{ 3.1112698372195, 3.3941125496939994, 2.8073824990737257e-07},
{ 3.1112698372195, 3.676955262168499, 2.3606361255190873e-07},
{ 3.1112698372195, 3.959797974643, 3.006230497135547e-08},
{ 3.1112698372195, 4.2426406871174995, 2.5130979130686958e-08},
{ 3.1112698372195, 4.525483399591999, 3.181722574530524e-09},
{ 3.1112698372195, 4.8083261120665, 1.942743818787916e-09},
{ 3.1112698372195, 5.091168824541, 1.7965302278624564e-10},
{ 3.1112698372195, 5.374011537015499, 1.0905546351540388e-10},
{ 3.1112698372195, 5.6568542494899985, 5.01298145384214e-12},
{ 3.3941125496939994, -5.65685424949, 8.74023745858004e-13},
{ 3.3941125496939994, -5.3740115370155, 1.9014046951033542e-11},
{ 3.3941125496939994, -5.0911688245410005, 3.132287828633437e-11},
{ 3.3941125496939994, -4.8083261120665, 3.3872142663486224e-10},
{ 3.3941125496939994, -4.525483399592, 5.547399503624279e-10},
{ 3.3941125496939994, -4.2426406871175, 4.381638495799266e-09},
{ 3.3941125496939994, -3.959797974643, 5.241425415618043e-09},
{ 3.3941125496939994, -3.6769552621685, 4.1158181972777415e-08},
{ 3.3941125496939994, -3.3941125496940003, 4.894729794015132e-08},
{ 3.3941125496939994, -3.1112698372195005, 2.807382499073721e-07},
{ 3.3941125496939994, -2.8284271247450006, 2.4385980420161035e-07},
{ 3.3941125496939994, -2.5455844122705003, 1.390505654557282e-06},
{ 3.3941125496939994, -2.2627416997960004, 1.200801064780437e-06},
{ 3.3941125496939994, -1.9798989873215005, 5.001147875804048e-06},
{ 3.3941125496939994, -1.6970562748470002, 3.154525877749344e-06},
{ 3.3941125496939994, -1.4142135623725007, 1.3061480270294392e-05},
{ 3.3941125496939994, -1.1313708498980004, 8.190614192734242e-06},
{ 3.3941125496939994, -0.8485281374235001, 2.4770847588018873e-05},
{ 3.3941125496939994, -0.5656854249490006, 1.1345693087237376e-05},
{ 3.3941125496939994, -0.2828427124745003, 3.4112621959585974e-05},
{ 3.3941125496939994, -8.881784197001252e-16, 1.553334320627589e-05},
{ 3.3941125496939994, 0.28284271247449944, 3.411262195958599e-05},
{ 3.3941125496939994, 0.5656854249489998, 1.1345693087237381e-05},
{ 3.3941125496939994, 0.8485281374234992, 2.4770847588018883e-05},
{ 3.3941125496939994, 1.1313708498979995, 8.19061419273425e-06},
{ 3.3941125496939994, 1.4142135623724998, 1.306148027029441e-05},
{ 3.3941125496939994, 1.6970562748469993, 3.1545258777493487e-06},
{ 3.3941125496939994, 1.9798989873214996, 5.0011478758040574e-06},
{ 3.3941125496939994, 2.262741699796, 1.2008010647804384e-06},
{ 3.3941125496939994, 2.5455844122704994, 1.390505654557285e-06},
{ 3.3941125496939994, 2.828427124744999, 2.438598042016115e-07},
{ 3.3941125496939994, 3.1112698372195, 2.8073824990737257e-07},
{ 3.3941125496939994, 3.3941125496939994, 4.894729794015145e-08},
{ 3.3941125496939994, 3.676955262168499, 4.115818197277759e-08},
{ 3.3941125496939994, 3.959797974643, 5.241425415618043e-09},
{ 3.3941125496939994, 4.2426406871174995, 4.381638495799281e-09},
{ 3.3941125496939994, 4.525483399591999, 5.547399503624299e-10},
{ 3.3941125496939994, 4.8083261120665, 3.3872142663486224e-10},
{ 3.3941125496939994, 5.091168824541, 3.132287828633447e-11},
{ 3.3941125496939994, 5.374011537015499, 1.9014046951033607e-11},
{ 3.3941125496939994, 5.6568542494899985, 8.740237458580132e-13},
{ 3.676955262168499, -5.65685424949, 7.349379821647647e-13},
{ 3.676955262168499, -5.3740115370155, 1.5988290209736426e-11},
{ 3.676955262168499, -5.0911688245410005, 2.6338383908268598e-11},
{ 3.676955262168499, -4.8083261120665, 2.84819769470473e-10},
{ 3.676955262168499, -4.525483399592, 4.664626809942305e-10},
{ 3.676955262168499, -4.2426406871175, 3.6843765057171955e-09},
{ 3.676955262168499, -3.959797974643, 4.407343206493684e-09},
{ 3.676955262168499, -3.6769552621685, 3.460856910580722e-08},
{ 3.676955262168499, -3.3941125496940003, 4.115818197277748e-08},
{ 3.676955262168499, -3.1112698372195005, 2.3606361255190836e-07},
{ 3.676955262168499, -2.8284271247450006, 2.050537337004376e-07},
{ 3.676955262168499, -2.5455844122705003, 1.1692307271878746e-06},
{ 3.676955262168499, -2.2627416997960004, 1.0097143421025661e-06},
{ 3.676955262168499, -1.9798989873215005, 4.205301681755636e-06},
{ 3.676955262168499, -1.6970562748470002, 2.652537639013169e-06},
{ 3.676955262168499, -1.4142135623725007, 1.0982971571912628e-05},
{ 3.676955262168499, -1.1313708498980004, 6.887219593317712e-06},
{ 3.676955262168499, -0.8485281374235001, 2.0828995584070952e-05},
{ 3.676955262168499, -0.5656854249490006, 9.540222246032237e-06},
{ 3.676955262168499, -0.2828427124745003, 2.868418812204742e-05},
{ 3.676955262168499, -8.881784197001252e-16, 1.3061480270294436e-05},
{ 3.676955262168499, 0.28284271247449944, 2.868418812204743e-05},
{ 3.676955262168499, 0.5656854249489998, 9.54022224603224e-06},
{ 3.676955262168499, 0.8485281374234992, 2.0828995584070965e-05},
{ 3.676955262168499, 1.1313708498979995, 6.88721959331772e-06},
{ 3.676955262168499, 1.4142135623724998, 1.0982971571912643e-05},
{ 3.676955262168499, 1.6970562748469993, 2.652537639013173e-06},
{ 3.676955262168499, 1.9798989873214996, 4.205301681755645e-06},
{ 3.676955262168499, 2.262741699796, 1.0097143421025676e-06},
{ 3.676955262168499, 2.5455844122704994, 1.1692307271878771e-06},
{ 3.676955262168499, 2.828427124744999, 2.0505373370043856e-07},
{ 3.676955262168499, 3.1112698372195, 2.3606361255190873e-07},
{ 3.676955262168499, 3.3941125496939994, 4.1158181972777594e-08},
{ 3.676955262168499, 3.676955262168499, 3.460856910580737e-08},
{ 3.676955262168499, 3.959797974643, 4.407343206493684e-09},
{ 3.676955262168499, 4.2426406871174995, 3.684376505717208e-09},
{ 3.676955262168499, 4.525483399591999, 4.66462680994232e-10},
{ 3.676955262168499, 4.8083261120665, 2.84819769470473e-10},
{ 3.676955262168499, 5.091168824541, 2.6338383908268695e-11},
{ 3.676955262168499, 5.374011537015499, 1.5988290209736484e-11},
{ 3.676955262168499, 5.6568542494899985, 7.349379821647724e-13},
{ 3.959797974643, -5.65685424949, 9.35931188887125e-14},
{ 3.959797974643, -5.3740115370155, 2.0360819317290713e-12},
{ 3.959797974643, -5.0911688245410005, 3.3541489979905412e-12},
{ 3.959797974643, -4.8083261120665, 3.627131974780621e-11},
{ 3.959797974643, -4.525483399592, 5.940323975479747e-11},
{ 3.959797974643, -4.2426406871175, 4.691991660502603e-10},
{ 3.959797974643, -3.959797974643, 5.612677623405859e-10},
{ 3.959797974643, -3.6769552621685, 4.407343206493666e-09},
{ 3.959797974643, -3.3941125496940003, 5.241425415618029e-09},
{ 3.959797974643, -3.1112698372195005, 3.006230497135542e-08},
{ 3.959797974643, -2.8284271247450006, 2.611324893057019e-08},
{ 3.959797974643, -2.5455844122705003, 1.4889957127497752e-07},
{ 3.959797974643, -2.2627416997960004, 1.2858542728419946e-07},
{ 3.959797974643, -1.9798989873215005, 5.355381131672418e-07},
{ 3.959797974643, -1.6970562748470002, 3.377962176804293e-07},
{ 3.959797974643, -1.4142135623725007, 1.3986630015414256e-06},
{ 3.959797974643, -1.1313708498980004, 8.770758592601135e-07},
{ 3.959797974643, -0.8485281374235001, 2.6525376390131594e-06},
{ 3.959797974643, -0.5656854249490006, 1.2149312956551719e-06},
{ 3.959797974643, -0.2828427124745003, 3.652883228630186e-06},
{ 3.959797974643, -8.881784197001252e-16, 1.6633575967858708e-06},
{ 3.959797974643, 0.28284271247449944, 3.6528832286301865e-06},
{ 3.959797974643, 0.5656854249489998, 1.2149312956551723e-06},
{ 3.959797974643, 0.8485281374234992, 2.652537639013161e-06},
{ 3.959797974643, 1.1313708498979995, 8.770758592601144e-07},
{ 3.959797974643, 1.4142135623724998, 1.3986630015414275e-06},
{ 3.959797974643, 1.6970562748469993, 3.3779621768042983e-07},
{ 3.959797974643, 1.9798989873214996, 5.355381131672427e-07},
{ 3.959797974643, 2.262741699796, 1.2858542728419964e-07},
{ 3.959797974643, 2.5455844122704994, 1.4889957127497786e-07},
{ 3.959797974643, 2.828427124744999, 2.611324893057031e-08},
{ 3.959797974643, 3.1112698372195, 3.006230497135547e-08},
{ 3.959797974643, 3.3941125496939994, 5.241425415618043e-09},
{ 3.959797974643, 3.676955262168499, 4.407343206493685e-09},
{ 3.959797974643, 3.959797974643, 5.612677623405859e-10},
{ 3.959797974643, 4.2426406871174995, 4.691991660502619e-10},
{ 3.959797974643, 4.525483399591999, 5.940323975479768e-11},
{ 3.959797974643, 4.8083261120665, 3.627131974780621e-11},
{ 3.959797974643, 5.091168824541, 3.3541489979905534e-12},
{ 3.959797974643, 5.374011537015499, 2.0360819317290786e-12},
{ 3.959797974643, 5.6568542494899985, 9.35931188887135e-14},
{ 4.2426406871174995, -5.65685424949, 7.82403983929142e-14},
{ 4.2426406871174995, -5.3740115370155, 1.7020894633131967e-12},
{ 4.2426406871174995, -5.0911688245410005, 2.8039449586461363e-12},
{ 4.2426406871174995, -4.8083261120665, 3.032148667552725e-11},
{ 4.2426406871174995, -4.525483399592, 4.965891936747584e-11},
{ 4.2426406871174995, -4.2426406871175, 3.922332123694491e-10},
{ 4.2426406871174995, -3.959797974643, 4.69199166050262e-10},
{ 4.2426406871174995, -3.6769552621685, 3.6843765057171926e-09},
{ 4.2426406871174995, -3.3941125496940003, 4.3816384957992705e-09},
{ 4.2426406871174995, -3.1112698372195005, 2.5130979130686915e-08},
{ 4.2426406871174995, -2.8284271247450006, 2.1829713807171298e-08},
{ 4.2426406871174995, -2.5455844122705003, 1.2447455449092177e-07},
{ 4.2426406871174995, -2.2627416997960004, 1.0749267871072292e-07},
{ 4.2426406871174995, -1.9798989873215005, 4.4769012750410503e-07},
{ 4.2426406871174995, -1.6970562748470002, 2.8238518985954833e-07},
{ 4.2426406871174995, -1.4142135623725007, 1.169230727187872e-06},
{ 4.2426406871174995, -1.1313708498980004, 7.332030972374707e-07},
{ 4.2426406871174995, -0.8485281374235001, 2.2174237176064316e-06},
{ 4.2426406871174995, -0.5656854249490006, 1.0156377917601812e-06},
{ 4.2426406871174995, -0.2828427124745003, 3.0536757668120497e-06},
{ 4.2426406871174995, -8.881784197001252e-16, 1.390505654557284e-06},
{ 4.2426406871174995, 0.28284271247449944, 3.05367576681205e-06},
{ 4.2426406871174995, 0.5656854249489998, 1.0156377917601816e-06},
{ 4.2426406871174995, 0.8485281374234992, 2.217423717606433e-06},
{ 4.2426406871174995, 1.1313708498979995, 7.332030972374714e-07},
{ 4.2426406871174995, 1.4142135623724998, 1.1692307271878737e-06},
{ 4.2426406871174995, 1.6970562748469993, 2.823851898595487e-07},
{ 4.2426406871174995, 1.9798989873214996, 4.4769012750410593e-07},
{ 4.2426406871174995, 2.262741699796, 1.0749267871072306e-07},
{ 4.2426406871174995, 2.5455844122704994, 1.2447455449092204e-07},
{ 4.2426406871174995, 2.828427124744999, 2.1829713807171407e-08},
{ 4.2426406871174995, 3.1112698372195, 2.5130979130686958e-08},
{ 4.2426406871174995, 3.3941125496939994, 4.381638495799281e-09},
{ 4.2426406871174995, 3.676955262168499, 3.6843765057172087e-09},
{ 4.2426406871174995, 3.959797974643, 4.69199166050262e-10},
{ 4.2426406871174995, 4.2426406871174995, 3.9223321236945047e-10},
{ 4.2426406871174995, 4.525483399591999, 4.9658919367476004e-11},
{ 4.2426406871174995, 4.8083261120665, 3.032148667552725e-11},
{ 4.2426406871174995, 5.091168824541, 2.8039449586461464e-12},
{ 4.2426406871174995, 5.374011537015499, 1.702089463313203e-12},
{ 4.2426406871174995, 5.6568542494899985, 7.824039839291504e-14},
{ 4.525483399591999, -5.65685424949, 9.905672218836151e-15},
{ 4.525483399591999, -5.3740115370155, 2.154940498391201e-13},
{ 4.525483399591999, -5.0911688245410005, 3.549951208137271e-13},
{ 4.525483399591999, -4.8083261120665, 3.8388698724057396e-12},
{ 4.525483399591999, -4.525483399592, 6.287097050880801e-12},
{ 4.525483399591999, -4.2426406871175, 4.965891936747583e-11},
{ 4.525483399591999, -3.959797974643, 5.940323975479768e-11},
{ 4.525483399591999, -3.6769552621685, 4.664626809942301e-10},
{ 4.525483399591999, -3.3941125496940003, 5.547399503624284e-10},
{ 4.525483399591999, -3.1112698372195005, 3.1817225745305192e-09},
{ 4.525483399591999, -2.8284271247450006, 2.7637639128435742e-09},
{ 4.525483399591999, -2.5455844122705003, 1.5759175077058358e-08},
{ 4.525483399591999, -2.2627416997960004, 1.3609174583772568e-08},
{ 4.525483399591999, -1.9798989873215005, 5.668007512428836e-08},
{ 4.525483399591999, -1.6970562748470002, 3.575154507975803e-08},
{ 4.525483399591999, -1.4142135623725007, 1.4803115231534164e-07},
{ 4.525483399591999, -1.1313708498980004, 9.282761463708999e-08},
{ 4.525483399591999, -0.8485281374235001, 2.8073824990737347e-07},
{ 4.525483399591999, -0.5656854249490006, 1.285854272842002e-07},
{ 4.525483399591999, -0.2828427124745003, 3.8661243845842635e-07},
{ 4.525483399591999, -8.881784197001252e-16, 1.7604579623063486e-07},
{ 4.525483399591999, 0.28284271247449944, 3.8661243845842635e-07},
{ 4.525483399591999, 0.5656854249489998, 1.2858542728420025e-07},
{ 4.525483399591999, 0.8485281374234992, 2.8073824990737363e-07},
{ 4.525483399591999, 1.1313708498979995, 9.282761463709008e-08},
{ 4.525483399591999, 1.4142135623724998, 1.4803115231534185e-07},
{ 4.525483399591999, 1.6970562748469993, 3.5751545079758083e-08},
{ 4.525483399591999, 1.9798989873214996, 5.668007512428847e-08},
{ 4.525483399591999, 2.262741699796, 1.3609174583772587e-08},
{ 4.525483399591999, 2.5455844122704994, 1.5759175077058394e-08},
{ 4.525483399591999, 2.828427124744999, 2.7637639128435874e-09},
{ 4.525483399591999, 3.1112698372195, 3.1817225745305246e-09},
{ 4.525483399591999, 3.3941125496939994, 5.547399503624299e-10},
{ 4.525483399591999, 3.676955262168499, 4.664626809942321e-10},
{ 4.525483399591999, 3.959797974643, 5.940323975479768e-11},
{ 4.525483399591999, 4.2426406871174995, 4.9658919367476004e-11},
{ 4.525483399591999, 4.525483399591999, 6.287097050880822e-12},
{ 4.525483399591999, 4.8083261120665, 3.8388698724057396e-12},
{ 4.525483399591999, 5.091168824541, 3.5499512081372835e-13},
{ 4.525483399591999, 5.374011537015499, 2.1549404983912088e-13},
{ 4.525483399591999, 5.6568542494899985, 9.905672218836255e-15},
{ 4.8083261120665, -5.65685424949, 6.0483536899576065e-15},
{ 4.8083261120665, -5.3740115370155, 1.31579584172985e-13},
{ 4.8083261120665, -5.0911688245410005, 2.167582372459046e-13},
{ 4.8083261120665, -4.8083261120665, 2.3439946573116464e-12},
{ 4.8083261120665, -4.525483399592, 3.838869872405726e-12},
{ 4.8083261120665, -4.2426406871175, 3.0321486675527145e-11},
{ 4.8083261120665, -3.959797974643, 3.62713197478062e-11},
{ 4.8083261120665, -3.6769552621685, 2.8481976947047176e-10},
{ 4.8083261120665, -3.3941125496940003, 3.387214266348613e-10},
{ 4.8083261120665, -3.1112698372195005, 1.942743818787913e-09},
{ 4.8083261120665, -2.8284271247450006, 1.6875403598185235e-09},
{ 4.8083261120665, -2.5455844122705003, 9.62247312673677e-09},
{ 4.8083261120665, -2.2627416997960004, 8.30969362730532e-09},
{ 4.8083261120665, -1.9798989873215005, 3.460856910580704e-08},
{ 4.8083261120665, -1.6970562748470002, 2.182971380717125e-08},
{ 4.8083261120665, -1.4142135623725007, 9.038707788378346e-08},
{ 4.8083261120665, -1.1313708498980004, 5.668007512428804e-08},
{ 4.8083261120665, -0.8485281374235001, 1.7141736494275066e-07},
{ 4.8083261120665, -0.5656854249490006, 7.851361587659578e-08},
{ 4.8083261120665, -0.2828427124745003, 2.3606361255190752e-07},
{ 4.8083261120665, -8.881784197001252e-16, 1.0749267871072263e-07},
{ 4.8083261120665, 0.28284271247449944, 2.3606361255190754e-07},
{ 4.8083261120665, 0.5656854249489998, 7.85136158765958e-08},
{ 4.8083261120665, 0.8485281374234992, 1.7141736494275074e-07},
{ 4.8083261120665, 1.1313708498979995, 5.66800751242881e-08},
{ 4.8083261120665, 1.4142135623724998, 9.038707788378358e-08},
{ 4.8083261120665, 1.6970562748469993, 2.182971380717128e-08},
{ 4.8083261120665, 1.9798989873214996, 3.46085691058071e-08},
{ 4.8083261120665, 2.262741699796, 8.309693627305331e-09},
{ 4.8083261120665, 2.5455844122704994, 9.622473126736794e-09},
{ 4.8083261120665, 2.828427124744999, 1.6875403598185314e-09},
{ 4.8083261120665, 3.1112698372195, 1.9427438187879164e-09},
{ 4.8083261120665, 3.3941125496939994, 3.3872142663486224e-10},
{ 4.8083261120665, 3.676955262168499, 2.84819769470473e-10},
{ 4.8083261120665, 3.959797974643, 3.62713197478062e-11},
{ 4.8083261120665, 4.2426406871174995, 3.032148667552725e-11},
{ 4.8083261120665, 4.525483399591999, 3.8388698724057396e-12},
{ 4.8083261120665, 4.8083261120665, 2.3439946573116464e-12},
{ 4.8083261120665, 5.091168824541, 2.1675823724590537e-13},
{ 4.8083261120665, 5.374011537015499, 1.315795841729855e-13},
{ 4.8083261120665, 5.6568542494899985, 6.048353689957671e-15},
{ 5.091168824541, -5.65685424949, 5.593146212963699e-16},
{ 5.091168824541, -5.3740115370155, 1.2167672240173303e-14},
{ 5.091168824541, -5.0911688245410005, 2.0044471205339113e-14},
{ 5.091168824541, -4.8083261120665, 2.1675823724590535e-13},
{ 5.091168824541, -4.525483399592, 3.549951208137271e-13},
{ 5.091168824541, -4.2426406871175, 2.8039449586461363e-12},
{ 5.091168824541, -3.959797974643, 3.3541489979905534e-12},
{ 5.091168824541, -3.6769552621685, 2.633838390826858e-11},
{ 5.091168824541, -3.3941125496940003, 3.1322878286334394e-11},
{ 5.091168824541, -3.1112698372195005, 1.7965302278624533e-10},
{ 5.091168824541, -2.8284271247450006, 1.5605337347274954e-10},
{ 5.091168824541, -2.5455844122705003, 8.898272469996702e-10},
{ 5.091168824541, -2.2627416997960004, 7.6842945741781e-10},
{ 5.091168824541, -1.9798989873215005, 3.200388025449515e-09},
{ 5.091168824541, -1.6970562748470002, 2.018677930713358e-09},
{ 5.091168824541, -1.4142135623725007, 8.358442119645318e-09},
{ 5.091168824541, -1.1313708498980004, 5.2414254156180405e-09},
{ 5.091168824541, -0.8485281374235001, 1.5851625660675976e-08},
{ 5.091168824541, -0.5656854249490006, 7.260457238725836e-09},
{ 5.091168824541, -0.2828427124745003, 2.1829713807171314e-08},
{ 5.091168824541, -8.881784197001252e-16, 9.940263081017272e-09},
{ 5.091168824541, 0.28284271247449944, 2.1829713807171317e-08},
{ 5.091168824541, 0.5656854249489998, 7.260457238725838e-09},
{ 5.091168824541, 0.8485281374234992, 1.5851625660675986e-08},
{ 5.091168824541, 1.1313708498979995, 5.241425415618046e-09},
{ 5.091168824541, 1.4142135623724998, 8.358442119645328e-09},
{ 5.091168824541, 1.6970562748469993, 2.018677930713361e-09},
{ 5.091168824541, 1.9798989873214996, 3.2003880254495203e-09},
{ 5.091168824541, 2.262741699796, 7.68429457417811e-10},
{ 5.091168824541, 2.5455844122704994, 8.898272469996722e-10},
{ 5.091168824541, 2.828427124744999, 1.5605337347275029e-10},
{ 5.091168824541, 3.1112698372195, 1.7965302278624564e-10},
{ 5.091168824541, 3.3941125496939994, 3.132287828633448e-11},
{ 5.091168824541, 3.676955262168499, 2.6338383908268692e-11},
{ 5.091168824541, 3.959797974643, 3.3541489979905534e-12},
{ 5.091168824541, 4.2426406871174995, 2.8039449586461464e-12},
{ 5.091168824541, 4.525483399591999, 3.549951208137283e-13},
{ 5.091168824541, 4.8083261120665, 2.1675823724590535e-13},
{ 5.091168824541, 5.091168824541, 2.0044471205339186e-14},
{ 5.091168824541, 5.374011537015499, 1.2167672240173347e-14},
{ 5.091168824541, 5.6568542494899985, 5.593146212963758e-16},
{ 5.374011537015499, -5.65685424949, 3.395228999235526e-16},
{ 5.374011537015499, -5.3740115370155, 7.386188751382392e-15},
{ 5.374011537015499, -5.0911688245410005, 1.2167672240173304e-14},
{ 5.374011537015499, -4.8083261120665, 1.3157958417298546e-13},
{ 5.374011537015499, -4.525483399592, 2.1549404983912015e-13},
{ 5.374011537015499, -4.2426406871175, 1.7020894633131967e-12},
{ 5.374011537015499, -3.959797974643, 2.0360819317290786e-12},
{ 5.374011537015499, -3.6769552621685, 1.5988290209736413e-11},
{ 5.374011537015499, -3.3941125496940003, 1.9014046951033558e-11},
{ 5.374011537015499, -3.1112698372195005, 1.0905546351540368e-10},
{ 5.374011537015499, -2.8284271247450006, 9.472967787167161e-11},
{ 5.374011537015499, -2.5455844122705003, 5.401552468485061e-10},
{ 5.374011537015499, -2.2627416997960004, 4.664626809942295e-10},
{ 5.374011537015499, -1.9798989873215005, 1.942743818787925e-09},
{ 5.374011537015499, -1.6970562748470002, 1.225405807305549e-09},
{ 5.374011537015499, -1.4142135623725007, 5.073857180288884e-09},
{ 5.374011537015499, -1.1313708498980004, 3.1817225745305205e-09},
{ 5.374011537015499, -0.8485281374235001, 9.622473126736832e-09},
{ 5.374011537015499, -0.5656854249490006, 4.407343206493687e-09},
{ 5.374011537015499, -0.2828427124745003, 1.325137490440235e-08},
{ 5.374011537015499, -8.881784197001252e-16, 6.034076025846808e-09},
{ 5.374011537015499, 0.28284271247449944, 1.3251374904402354e-08},
{ 5.374011537015499, 0.5656854249489998, 4.407343206493688e-09},
{ 5.374011537015499, 0.8485281374234992, 9.622473126736839e-09},
{ 5.374011537015499, 1.1313708498979995, 3.181722574530524e-09},
{ 5.374011537015499, 1.4142135623724998, 5.073857180288892e-09},
{ 5.374011537015499, 1.6970562748469993, 1.2254058073055511e-09},
{ 5.374011537015499, 1.9798989873214996, 1.9427438187879284e-09},
{ 5.374011537015499, 2.262741699796, 4.664626809942303e-10},
{ 5.374011537015499, 2.5455844122704994, 5.401552468485073e-10},
{ 5.374011537015499, 2.828427124744999, 9.472967787167207e-11},
{ 5.374011537015499, 3.1112698372195, 1.0905546351540388e-10},
{ 5.374011537015499, 3.3941125496939994, 1.9014046951033607e-11},
{ 5.374011537015499, 3.676955262168499, 1.5988290209736484e-11},
{ 5.374011537015499, 3.959797974643, 2.0360819317290786e-12},
{ 5.374011537015499, 4.2426406871174995, 1.702089463313203e-12},
{ 5.374011537015499, 4.525483399591999, 2.1549404983912086e-13},
{ 5.374011537015499, 4.8083261120665, 1.3157958417298546e-13},
{ 5.374011537015499, 5.091168824541, 1.2167672240173347e-14},
{ 5.374011537015499, 5.374011537015499, 7.386188751382418e-15},
{ 5.374011537015499, 5.6568542494899985, 3.395228999235563e-16},
{ 5.6568542494899985, -5.65685424949, 1.560693930965745e-17},
{ 5.6568542494899985, -5.3740115370155, 3.39522899923555e-16},
{ 5.6568542494899985, -5.0911688245410005, 5.593146212963738e-16},
{ 5.6568542494899985, -4.8083261120665, 6.0483536899576704e-15},
{ 5.6568542494899985, -4.525483399592, 9.905672218836222e-15},
{ 5.6568542494899985, -4.2426406871175, 7.824039839291475e-14},
{ 5.6568542494899985, -3.959797974643, 9.35931188887135e-14},
{ 5.6568542494899985, -3.6769552621685, 7.349379821647692e-13},
{ 5.6568542494899985, -3.3941125496940003, 8.740237458580108e-13},
{ 5.6568542494899985, -3.1112698372195005, 5.012981453842132e-12},
{ 5.6568542494899985, -2.8284271247450006, 4.354464260582914e-12},
{ 5.6568542494899985, -2.5455844122705003, 2.4829459683738034e-11},
{ 5.6568542494899985, -2.2627416997960004, 2.1442013938194543e-11},
{ 5.6568542494899985, -1.9798989873215005, 8.930262106285688e-11},
{ 5.6568542494899985, -1.6970562748470002, 5.6328554181840665e-11},
{ 5.6568542494899985, -1.4142135623725007, 2.3323134049711585e-10},
{ 5.6568542494899985, -1.1313708498980004, 1.462550865701421e-10},
{ 5.6568542494899985, -0.8485281374235001, 4.423187777072051e-10},
{ 5.6568542494899985, -0.5656854249490006, 2.0259351565407158e-10},
{ 5.6568542494899985, -0.2828427124745003, 6.091294694675725e-10},
{ 5.6568542494899985, -8.881784197001252e-16, 2.773699751812156e-10},
{ 5.6568542494899985, 0.28284271247449944, 6.091294694675725e-10},
{ 5.6568542494899985, 0.5656854249489998, 2.0259351565407165e-10},
{ 5.6568542494899985, 0.8485281374234992, 4.423187777072054e-10},
{ 5.6568542494899985, 1.1313708498979995, 1.4625508657014226e-10},
{ 5.6568542494899985, 1.4142135623724998, 2.332313404971161e-10},
{ 5.6568542494899985, 1.6970562748469993, 5.6328554181840755e-11},
{ 5.6568542494899985, 1.9798989873214996, 8.930262106285704e-11},
{ 5.6568542494899985, 2.262741699796, 2.144201393819457e-11},
{ 5.6568542494899985, 2.5455844122704994, 2.482945968373809e-11},
{ 5.6568542494899985, 2.828427124744999, 4.354464260582935e-12},
{ 5.6568542494899985, 3.1112698372195, 5.01298145384214e-12},
{ 5.6568542494899985, 3.3941125496939994, 8.740237458580132e-13},
{ 5.6568542494899985, 3.676955262168499, 7.349379821647723e-13},
{ 5.6568542494899985, 3.959797974643, 9.35931188887135e-14},
{ 5.6568542494899985, 4.2426406871174995, 7.824039839291503e-14},
{ 5.6568542494899985, 4.525483399591999, 9.905672218836254e-15},
{ 5.6568542494899985, 4.8083261120665, 6.0483536899576704e-15},
{ 5.6568542494899985, 5.091168824541, 5.593146212963758e-16},
{ 5.6568542494899985, 5.374011537015499, 3.395228999235562e-16},
{ 5.6568542494899985, 5.6568542494899985, 1.5606939309657615e-17}};
#endif // 1681
#if 0
const Real ew[961][3] = {
{ -5.65685424949, -5.65685424949, 2.7745669883835176e-17},
{ -5.65685424949, -5.2797306328573335, 9.97375933674294e-16},
{ -5.65685424949, -4.902607016224667, 2.551147433194298e-15},
{ -5.65685424949, -4.525483399592, 4.025162044479438e-14},
{ -5.65685424949, -4.148359782959334, 9.03803832968571e-14},
{ -5.65685424949, -3.7712361663266667, 9.196922943532192e-13},
{ -5.65685424949, -3.3941125496940003, 1.331845707974098e-12},
{ -5.65685424949, -3.0169889330613335, 1.1896971506240275e-11},
{ -5.65685424949, -2.6398653164286667, 1.512383484541152e-11},
{ -5.65685424949, -2.262741699796, 8.712945346313893e-11},
{ -5.65685424949, -1.8856180831633331, 7.143500053264028e-11},
{ -5.65685424949, -1.5084944665306663, 3.6126696699524893e-10},
{ -5.65685424949, -1.1313708498980004, 2.60009042791361e-10},
{ -5.65685424949, -0.7542472332653336, 8.480592800917793e-10},
{ -5.65685424949, -0.3771236166326668, 3.936470200052649e-10},
{ -5.65685424949, 0.0, 1.1270906927998486e-09},
{ -5.65685424949, 0.3771236166326668, 4.59254856672809e-10},
{ -5.65685424949, 0.7542472332653336, 8.480592800917793e-10},
{ -5.65685424949, 1.1313708498980004, 2.2286489382116662e-10},
{ -5.65685424949, 1.5084944665306672, 3.612669669952484e-10},
{ -5.65685424949, 1.885618083163334, 8.334083395474685e-11},
{ -5.65685424949, 2.262741699796, 8.712945346313893e-11},
{ -5.65685424949, 2.6398653164286676, 1.2963287010352702e-11},
{ -5.65685424949, 3.0169889330613335, 1.1896971506240275e-11},
{ -5.65685424949, 3.3941125496939994, 1.5538199926364517e-12},
{ -5.65685424949, 3.771236166326667, 9.196922943532178e-13},
{ -5.65685424949, 4.148359782959333, 7.746889996873494e-14},
{ -5.65685424949, 4.525483399592001, 4.0251620444794164e-14},
{ -5.65685424949, 4.902607016224667, 0.0},
{ -5.65685424949, 5.279730632857334, 0.0},
{ -5.65685424949, 5.65685424949, 2.7745669883835176e-17},
{ -5.2797306328573335, -5.65685424949, 9.973759336742942e-16},
{ -5.2797306328573335, -5.2797306328573335, 3.585275674501639e-14},
{ -5.2797306328573335, -4.902607016224667, 9.170631178760464e-14},
{ -5.2797306328573335, -4.525483399592, 1.4469283924703306e-12},
{ -5.2797306328573335, -4.148359782959334, 3.248911255484283e-12},
{ -5.2797306328573335, -3.7712361663266667, 3.306025641529055e-11},
{ -5.2797306328573335, -3.3941125496940003, 4.7875969910341706e-11},
{ -5.2797306328573335, -3.0169889330613335, 4.276614373922879e-10},
{ -5.2797306328573335, -2.6398653164286667, 5.436577658002867e-10},
{ -5.2797306328573335, -2.262741699796, 3.1320498067685213e-09},
{ -5.2797306328573335, -1.8856180831633331, 2.56787998457284e-09},
{ -5.2797306328573335, -1.5084944665306663, 1.2986494109572432e-08},
{ -5.2797306328573335, -1.1313708498980004, 9.346566974361602e-09},
{ -5.2797306328573335, -0.7542472332653336, 3.048525841452027e-08},
{ -5.2797306328573335, -0.3771236166326668, 1.4150462604061842e-08},
{ -5.2797306328573335, 0.0, 4.0515624123452276e-08},
{ -5.2797306328573335, 0.3771236166326668, 1.6508873038072147e-08},
{ -5.2797306328573335, 0.7542472332653336, 3.048525841452027e-08},
{ -5.2797306328573335, 1.1313708498980004, 8.011343120881374e-09},
{ -5.2797306328573335, 1.5084944665306672, 1.2986494109572415e-08},
{ -5.2797306328573335, 1.885618083163334, 2.9958599820016414e-09},
{ -5.2797306328573335, 2.262741699796, 3.1320498067685213e-09},
{ -5.2797306328573335, 2.6398653164286676, 4.659923706859589e-10},
{ -5.2797306328573335, 3.0169889330613335, 4.276614373922879e-10},
{ -5.2797306328573335, 3.3941125496939994, 5.585529822873213e-11},
{ -5.2797306328573335, 3.771236166326667, 3.306025641529049e-11},
{ -5.2797306328573335, 4.148359782959333, 2.784781076129396e-12},
{ -5.2797306328573335, 4.525483399592001, 1.4469283924703228e-12},
{ -5.2797306328573335, 4.902607016224667, 0.0},
{ -5.2797306328573335, 5.279730632857334, 0.0},
{ -5.2797306328573335, 5.65685424949, 9.973759336742942e-16},
{ -4.902607016224667, -5.65685424949, 2.5511474331942975e-15},
{ -4.902607016224667, -5.2797306328573335, 9.170631178760466e-14},
{ -4.902607016224667, -4.902607016224667, 2.345718540277763e-13},
{ -4.902607016224667, -4.525483399592, 3.7010394273981806e-12},
{ -4.902607016224667, -4.148359782959334, 8.31025827901267e-12},
{ -4.902607016224667, -3.7712361663266667, 8.456348849716344e-11},
{ -4.902607016224667, -3.3941125496940003, 1.2246000091309767e-10},
{ -4.902607016224667, -3.0169889330613335, 1.093897838761977e-09},
{ -4.902607016224667, -2.6398653164286667, 1.390600140759437e-09},
{ -4.902607016224667, -2.262741699796, 8.01134312088139e-09},
{ -4.902607016224667, -1.8856180831633331, 6.568276023324762e-09},
{ -4.902607016224667, -1.5084944665306663, 3.32176263686023e-08},
{ -4.902607016224667, -1.1313708498980004, 2.3907204435923272e-08},
{ -4.902607016224667, -0.7542472332653336, 7.797700558901376e-08},
{ -4.902607016224667, -0.3771236166326668, 3.619489415377568e-08},
{ -4.902607016224667, 0.0, 1.0363327106363109e-07},
{ -4.902607016224667, 0.3771236166326668, 4.22273765127383e-08},
{ -4.902607016224667, 0.7542472332653336, 7.797700558901376e-08},
{ -4.902607016224667, 1.1313708498980004, 2.0491889516505663e-08},
{ -4.902607016224667, 1.5084944665306672, 3.321762636860226e-08},
{ -4.902607016224667, 1.885618083163334, 7.662988693878875e-09},
{ -4.902607016224667, 2.262741699796, 8.01134312088139e-09},
{ -4.902607016224667, 2.6398653164286676, 1.1919429777938005e-09},
{ -4.902607016224667, 3.0169889330613335, 1.093897838761977e-09},
{ -4.902607016224667, 3.3941125496939994, 1.4287000106528098e-10},
{ -4.902607016224667, 3.771236166326667, 8.456348849716328e-11},
{ -4.902607016224667, 4.148359782959333, 7.123078524868028e-12},
{ -4.902607016224667, 4.525483399592001, 3.701039427398161e-12},
{ -4.902607016224667, 4.902607016224667, 0.0},
{ -4.902607016224667, 5.279730632857334, 0.0},
{ -4.902607016224667, 5.65685424949, 2.5511474331942975e-15},
{ -4.525483399592, -5.65685424949, 4.0251620444794385e-14},
{ -4.525483399592, -5.2797306328573335, 1.4469283924703306e-12},
{ -4.525483399592, -4.902607016224667, 3.701039427398181e-12},
{ -4.525483399592, -4.525483399592, 5.83944433569335e-11},
{ -4.525483399592, -4.148359782959334, 1.3111800505633585e-10},
{ -4.525483399592, -3.7712361663266667, 1.334230001052362e-09},
{ -4.525483399592, -3.3941125496940003, 1.9321554733711725e-09},
{ -4.525483399592, -3.0169889330613335, 1.7259355550493002e-08},
{ -4.525483399592, -2.6398653164286667, 2.194067983998927e-08},
{ -4.525483399592, -2.262741699796, 1.2640176665562885e-07},
{ -4.525483399592, -1.8856180831633331, 1.0363327106363126e-07},
{ -4.525483399592, -1.5084944665306663, 5.24102712085061e-07},
{ -4.525483399592, -1.1313708498980004, 3.772042753507136e-07},
{ -4.525483399592, -0.7542472332653336, 1.2303094644987327e-06},
{ -4.525483399592, -0.3771236166326668, 5.710775953442621e-07},
{ -4.525483399592, 0.0, 1.635110161815596e-06},
{ -4.525483399592, 0.3771236166326668, 6.662571945683058e-07},
{ -4.525483399592, 0.7542472332653336, 1.2303094644987327e-06},
{ -4.525483399592, 1.1313708498980004, 3.2331795030061166e-07},
{ -4.525483399592, 1.5084944665306672, 5.241027120850604e-07},
{ -4.525483399592, 1.885618083163334, 1.2090548290756956e-07},
{ -4.525483399592, 2.262741699796, 1.2640176665562885e-07},
{ -4.525483399592, 2.6398653164286676, 1.8806297005705047e-08},
{ -4.525483399592, 3.0169889330613335, 1.7259355550493002e-08},
{ -4.525483399592, 3.3941125496939994, 2.2541813855997076e-09},
{ -4.525483399592, 3.771236166326667, 1.3342300010523597e-09},
{ -4.525483399592, 4.148359782959333, 1.1238686147685969e-10},
{ -4.525483399592, 4.525483399592001, 5.83944433569332e-11},
{ -4.525483399592, 4.902607016224667, 0.0},
{ -4.525483399592, 5.279730632857334, 0.0},
{ -4.525483399592, 5.65685424949, 4.0251620444794385e-14},
{ -4.148359782959334, -5.65685424949, 9.038038329685711e-14},
{ -4.148359782959334, -5.2797306328573335, 3.2489112554842834e-12},
{ -4.148359782959334, -4.902607016224667, 8.310258279012669e-12},
{ -4.148359782959334, -4.525483399592, 1.3111800505633585e-10},
{ -4.148359782959334, -4.148359782959334, 2.944103969767873e-10},
{ -4.148359782959334, -3.7712361663266667, 2.9958599820016397e-09},
{ -4.148359782959334, -3.3941125496940003, 4.338432846744962e-09},
{ -4.148359782959334, -3.0169889330613335, 3.8753897430035856e-08},
{ -4.148359782959334, -2.6398653164286667, 4.926527259819454e-08},
{ -4.148359782959334, -2.262741699796, 2.838206261883077e-07},
{ -4.148359782959334, -1.8856180831633331, 2.3269658854813667e-07},
{ -4.148359782959334, -1.5084944665306663, 1.1768123489621197e-06},
{ -4.148359782959334, -1.1313708498980004, 8.469688079804926e-07},
{ -4.148359782959334, -0.7542472332653336, 2.762518371841775e-06},
{ -4.148359782959334, -0.3771236166326668, 1.2822890454870365e-06},
{ -4.148359782959334, 0.0, 3.671451770747078e-06},
{ -4.148359782959334, 0.3771236166326668, 1.4960038864015424e-06},
{ -4.148359782959334, 0.7542472332653336, 2.762518371841775e-06},
{ -4.148359782959334, 1.1313708498980004, 7.259732639832794e-07},
{ -4.148359782959334, 1.5084944665306672, 1.1768123489621185e-06},
{ -4.148359782959334, 1.885618083163334, 2.7147935330615887e-07},
{ -4.148359782959334, 2.262741699796, 2.838206261883077e-07},
{ -4.148359782959334, 2.6398653164286676, 4.222737651273808e-08},
{ -4.148359782959334, 3.0169889330613335, 3.8753897430035856e-08},
{ -4.148359782959334, 3.3941125496939994, 5.061504987869134e-09},
{ -4.148359782959334, 3.771236166326667, 2.9958599820016343e-09},
{ -4.148359782959334, 4.148359782959333, 2.5235176883724714e-10},
{ -4.148359782959334, 4.525483399592001, 1.3111800505633515e-10},
{ -4.148359782959334, 4.902607016224667, 0.0},
{ -4.148359782959334, 5.279730632857334, 0.0},
{ -4.148359782959334, 5.65685424949, 9.038038329685711e-14},
{ -3.7712361663266667, -5.65685424949, 9.196922943532194e-13},
{ -3.7712361663266667, -5.2797306328573335, 3.306025641529055e-11},
{ -3.7712361663266667, -4.902607016224667, 8.456348849716344e-11},
{ -3.7712361663266667, -4.525483399592, 1.334230001052362e-09},
{ -3.7712361663266667, -4.148359782959334, 2.9958599820016397e-09},
{ -3.7712361663266667, -3.7712361663266667, 3.0485258414520296e-08},
{ -3.7712361663266667, -3.3941125496940003, 4.414700528116694e-08},
{ -3.7712361663266667, -3.0169889330613335, 3.94351733666507e-07},
{ -3.7712361663266667, -2.6398653164286667, 5.013133374191598e-07},
{ -3.7712361663266667, -2.262741699796, 2.888100640451357e-06},
{ -3.7712361663266667, -1.8856180831633331, 2.3678728901501e-06},
{ -3.7712361663266667, -1.5084944665306663, 1.1975001762111466e-05},
{ -3.7712361663266667, -1.1313708498980004, 8.618581354083256e-06},
{ -3.7712361663266667, -0.7542472332653336, 2.8110821916379622e-05},
{ -3.7712361663266667, -0.3771236166326668, 1.3048311052128295e-05},
{ -3.7712361663266667, 0.0, 3.735994227370121e-05},
{ -3.7712361663266667, 0.3771236166326668, 1.5223029560816344e-05},
{ -3.7712361663266667, 0.7542472332653336, 2.8110821916379622e-05},
{ -3.7712361663266667, 1.1313708498980004, 7.387355446357077e-06},
{ -3.7712361663266667, 1.5084944665306672, 1.197500176211145e-05},
{ -3.7712361663266667, 1.885618083163334, 2.762518371841778e-06},
{ -3.7712361663266667, 2.262741699796, 2.888100640451357e-06},
{ -3.7712361663266667, 2.6398653164286676, 4.296971463592789e-07},
{ -3.7712361663266667, 3.0169889330613335, 3.94351733666507e-07},
{ -3.7712361663266667, 3.3941125496939994, 5.1504839494694884e-08},
{ -3.7712361663266667, 3.771236166326667, 3.0485258414520243e-08},
{ -3.7712361663266667, 4.148359782959333, 2.5678799845728434e-09},
{ -3.7712361663266667, 4.525483399592001, 1.3342300010523547e-09},
{ -3.7712361663266667, 4.902607016224667, 0.0},
{ -3.7712361663266667, 5.279730632857334, 0.0},
{ -3.7712361663266667, 5.65685424949, 9.196922943532194e-13},
{ -3.3941125496940003, -5.65685424949, 1.331845707974098e-12},
{ -3.3941125496940003, -5.2797306328573335, 4.7875969910341706e-11},
{ -3.3941125496940003, -4.902607016224667, 1.2246000091309767e-10},
{ -3.3941125496940003, -4.525483399592, 1.9321554733711725e-09},
{ -3.3941125496940003, -4.148359782959334, 4.338432846744962e-09},
{ -3.3941125496940003, -3.7712361663266667, 4.414700528116694e-08},
{ -3.3941125496940003, -3.3941125496940003, 6.393116465652402e-08},
{ -3.3941125496940003, -3.0169889330613335, 5.710775953442602e-07},
{ -3.3941125496940003, -2.6398653164286667, 7.259732639832808e-07},
{ -3.3941125496940003, -2.262741699796, 4.18238193991553e-06},
{ -3.3941125496940003, -1.8856180831633331, 3.4290179064645265e-06},
{ -3.3941125496940003, -1.5084944665306663, 1.7341511718402046e-05},
{ -3.3941125496940003, -1.1313708498980004, 1.2480935912737862e-05},
{ -3.3941125496940003, -0.7542472332653336, 4.070848233352207e-05},
{ -3.3941125496940003, -0.3771236166326668, 1.889581676152838e-05},
{ -3.3941125496940003, 0.0, 5.410252871845739e-05},
{ -3.3941125496940003, 0.3771236166326668, 2.2045119555116444e-05},
{ -3.3941125496940003, 0.7542472332653336, 4.070848233352207e-05},
{ -3.3941125496940003, 1.1313708498980004, 1.0697945068061025e-05},
{ -3.3941125496940003, 1.5084944665306672, 1.734151171840202e-05},
{ -3.3941125496940003, 1.885618083163334, 4.000520890875274e-06},
{ -3.3941125496940003, 2.262741699796, 4.18238193991553e-06},
{ -3.3941125496940003, 2.6398653164286676, 6.222627976999535e-07},
{ -3.3941125496940003, 3.0169889330613335, 5.710775953442602e-07},
{ -3.3941125496940003, 3.3941125496939994, 7.458635876594487e-08},
{ -3.3941125496940003, 3.771236166326667, 4.414700528116685e-08},
{ -3.3941125496940003, 4.148359782959333, 3.7186567257814092e-09},
{ -3.3941125496940003, 4.525483399592001, 1.9321554733711625e-09},
{ -3.3941125496940003, 4.902607016224667, 0.0},
{ -3.3941125496940003, 5.279730632857334, 0.0},
{ -3.3941125496940003, 5.65685424949, 1.331845707974098e-12},
{ -3.0169889330613335, -5.65685424949, 1.1896971506240274e-11},
{ -3.0169889330613335, -5.2797306328573335, 4.276614373922879e-10},
{ -3.0169889330613335, -4.902607016224667, 1.093897838761977e-09},
{ -3.0169889330613335, -4.525483399592, 1.7259355550493002e-08},
{ -3.0169889330613335, -4.148359782959334, 3.8753897430035856e-08},
{ -3.0169889330613335, -3.7712361663266667, 3.9435173366650695e-07},
{ -3.0169889330613335, -3.3941125496940003, 5.710775953442601e-07},
{ -3.0169889330613335, -3.0169889330613335, 5.101261984766638e-06},
{ -3.0169889330613335, -2.6398653164286667, 6.48489775068548e-06},
{ -3.0169889330613335, -2.262741699796, 3.735994227370118e-05},
{ -3.0169889330613335, -1.8856180831633331, 3.0630371133342676e-05},
{ -3.0169889330613335, -1.5084944665306663, 0.00015490643514764647},
{ -3.0169889330613335, -1.1313708498980004, 0.00011148839391532661},
{ -3.0169889330613335, -0.7542472332653336, 0.00036363645689926763},
{ -3.0169889330613335, -0.3771236166326668, 0.0001687905680463495},
{ -3.0169889330613335, 0.0, 0.00048328138817079223},
{ -3.0169889330613335, 0.3771236166326668, 0.00019692232938740774},
{ -3.0169889330613335, 0.7542472332653336, 0.00036363645689926763},
{ -3.0169889330613335, 1.1313708498980004, 9.556148049885139e-05},
{ -3.0169889330613335, 1.5084944665306672, 0.00015490643514764623},
{ -3.0169889330613335, 1.885618083163334, 3.573543298889972e-05},
{ -3.0169889330613335, 2.262741699796, 3.735994227370118e-05},
{ -3.0169889330613335, 2.6398653164286676, 5.558483786301827e-06},
{ -3.0169889330613335, 3.0169889330613335, 5.101261984766638e-06},
{ -3.0169889330613335, 3.3941125496939994, 6.66257194568305e-07},
{ -3.0169889330613335, 3.771236166326667, 3.9435173366650627e-07},
{ -3.0169889330613335, 4.148359782959333, 3.321762636860228e-08},
{ -3.0169889330613335, 4.525483399592001, 1.7259355550492913e-08},
{ -3.0169889330613335, 4.902607016224667, 0.0},
{ -3.0169889330613335, 5.279730632857334, 0.0},
{ -3.0169889330613335, 5.65685424949, 1.1896971506240274e-11},
{ -2.6398653164286667, -5.65685424949, 1.512383484541152e-11},
{ -2.6398653164286667, -5.2797306328573335, 5.436577658002867e-10},
{ -2.6398653164286667, -4.902607016224667, 1.390600140759437e-09},
{ -2.6398653164286667, -4.525483399592, 2.194067983998927e-08},
{ -2.6398653164286667, -4.148359782959334, 4.926527259819454e-08},
{ -2.6398653164286667, -3.7712361663266667, 5.013133374191598e-07},
{ -2.6398653164286667, -3.3941125496940003, 7.259732639832806e-07},
{ -2.6398653164286667, -3.0169889330613335, 6.484897750685479e-06},
{ -2.6398653164286667, -2.6398653164286667, 8.243822599667833e-06},
{ -2.6398653164286667, -2.262741699796, 4.749322938910916e-05},
{ -2.6398653164286667, -1.8856180831633331, 3.893836965410474e-05},
{ -2.6398653164286667, -1.5084944665306663, 0.00019692232938740804},
{ -2.6398653164286667, -1.1313708498980004, 0.00014172783854035133},
{ -2.6398653164286667, -0.7542472332653336, 0.00046226703283524335},
{ -2.6398653164286667, -0.3771236166326668, 0.00021457231138674197},
{ -2.6398653164286667, 0.0, 0.0006143637391013738},
{ -2.6398653164286667, 0.3771236166326668, 0.0002503343632845323},
{ -2.6398653164286667, 0.7542472332653336, 0.00046226703283524335},
{ -2.6398653164286667, 1.1313708498980004, 0.00012148100446315829},
{ -2.6398653164286667, 1.5084944665306672, 0.0001969223293874078},
{ -2.6398653164286667, 1.885618083163334, 4.542809792978878e-05},
{ -2.6398653164286667, 2.262741699796, 4.749322938910916e-05},
{ -2.6398653164286667, 2.6398653164286676, 7.0661336568581275e-06},
{ -2.6398653164286667, 3.0169889330613335, 6.484897750685479e-06},
{ -2.6398653164286667, 3.3941125496939994, 8.469688079804964e-07},
{ -2.6398653164286667, 3.771236166326667, 5.01313337419159e-07},
{ -2.6398653164286667, 4.148359782959333, 4.2227376512738324e-08},
{ -2.6398653164286667, 4.525483399592001, 2.1940679839989155e-08},
{ -2.6398653164286667, 4.902607016224667, 0.0},
{ -2.6398653164286667, 5.279730632857334, 0.0},
{ -2.6398653164286667, 5.65685424949, 1.512383484541152e-11},
{ -2.262741699796, -5.65685424949, 8.712945346313892e-11},
{ -2.262741699796, -5.2797306328573335, 3.1320498067685213e-09},
{ -2.262741699796, -4.902607016224667, 8.011343120881389e-09},
{ -2.262741699796, -4.525483399592, 1.2640176665562885e-07},
{ -2.262741699796, -4.148359782959334, 2.8382062618830766e-07},
{ -2.262741699796, -3.7712361663266667, 2.8881006404513565e-06},
{ -2.262741699796, -3.3941125496940003, 4.182381939915531e-06},
{ -2.262741699796, -3.0169889330613335, 3.735994227370118e-05},
{ -2.262741699796, -2.6398653164286667, 4.749322938910915e-05},
{ -2.262741699796, -2.262741699796, 0.00027361176329745697},
{ -2.262741699796, -1.8856180831633331, 0.00022432662756411532},
{ -2.262741699796, -1.5084944665306663, 0.0011344830930508764},
{ -2.262741699796, -1.1313708498980004, 0.0008165038324442774},
{ -2.262741699796, -0.7542472332653336, 0.0026631521923278258},
{ -2.262741699796, -0.3771236166326668, 0.001236165854133313},
{ -2.262741699796, 0.0, 0.003539391785391891},
{ -2.262741699796, 0.3771236166326668, 0.001442193496488865},
{ -2.262741699796, 0.7542472332653336, 0.0026631521923278258},
{ -2.262741699796, 1.1313708498980004, 0.0006998604278093807},
{ -2.262741699796, 1.5084944665306672, 0.001134483093050875},
{ -2.262741699796, 1.885618083163334, 0.0002617143988248008},
{ -2.262741699796, 2.262741699796, 0.00027361176329745697},
{ -2.262741699796, 2.6398653164286676, 4.0708482333522044e-05},
{ -2.262741699796, 3.0169889330613335, 3.735994227370118e-05},
{ -2.262741699796, 3.3941125496939994, 4.879445596568131e-06},
{ -2.262741699796, 3.771236166326667, 2.8881006404513514e-06},
{ -2.262741699796, 4.148359782959333, 2.4327482244712175e-07},
{ -2.262741699796, 4.525483399592001, 1.264017666556282e-07},
{ -2.262741699796, 4.902607016224667, 0.0},
{ -2.262741699796, 5.279730632857334, 0.0},
{ -2.262741699796, 5.65685424949, 8.712945346313892e-11},
{ -1.8856180831633331, -5.65685424949, 7.143500053264028e-11},
{ -1.8856180831633331, -5.2797306328573335, 2.56787998457284e-09},
{ -1.8856180831633331, -4.902607016224667, 6.568276023324763e-09},
{ -1.8856180831633331, -4.525483399592, 1.0363327106363124e-07},
{ -1.8856180831633331, -4.148359782959334, 2.326965885481366e-07},
{ -1.8856180831633331, -3.7712361663266667, 2.3678728901500997e-06},
{ -1.8856180831633331, -3.3941125496940003, 3.4290179064645265e-06},
{ -1.8856180831633331, -3.0169889330613335, 3.0630371133342676e-05},
{ -1.8856180831633331, -2.6398653164286667, 3.893836965410474e-05},
{ -1.8856180831633331, -2.262741699796, 0.0002243266275641154},
{ -1.8856180831633331, -1.8856180831633331, 0.00018391912404577905},
{ -1.8856180831633331, -1.5084944665306663, 0.000930130938909727},
{ -1.8856180831633331, -1.1313708498980004, 0.0006694286419486798},
{ -1.8856180831633331, -0.7542472332653336, 0.0021834439528296188},
{ -1.8856180831633331, -0.3771236166326668, 0.0010134977890777605},
{ -1.8856180831633331, 0.0, 0.0029018482731750137},
{ -1.8856180831633331, 0.3771236166326668, 0.0011824140872573872},
{ -1.8856180831633331, 0.7542472332653336, 0.0021834439528296188},
{ -1.8856180831633331, 1.1313708498980004, 0.0005737959788131541},
{ -1.8856180831633331, 1.5084944665306672, 0.0009301309389097256},
{ -1.8856180831633331, 1.885618083163334, 0.0002145723113867418},
{ -1.8856180831633331, 2.262741699796, 0.0002243266275641154},
{ -1.8856180831633331, 2.6398653164286676, 3.3375745417803985e-05},
{ -1.8856180831633331, 3.0169889330613335, 3.0630371133342676e-05},
{ -1.8856180831633331, 3.3941125496939994, 4.000520890875291e-06},
{ -1.8856180831633331, 3.771236166326667, 2.3678728901500954e-06},
{ -1.8856180831633331, 4.148359782959333, 1.9945421875554638e-07},
{ -1.8856180831633331, 4.525483399592001, 1.0363327106363069e-07},
{ -1.8856180831633331, 4.902607016224667, 0.0},
{ -1.8856180831633331, 5.279730632857334, 0.0},
{ -1.8856180831633331, 5.65685424949, 7.143500053264028e-11},
{ -1.5084944665306663, -5.65685424949, 3.6126696699524893e-10},
{ -1.5084944665306663, -5.2797306328573335, 1.2986494109572432e-08},
{ -1.5084944665306663, -4.902607016224667, 3.321762636860231e-08},
{ -1.5084944665306663, -4.525483399592, 5.24102712085061e-07},
{ -1.5084944665306663, -4.148359782959334, 1.17681234896212e-06},
{ -1.5084944665306663, -3.7712361663266667, 1.1975001762111464e-05},
{ -1.5084944665306663, -3.3941125496940003, 1.7341511718402043e-05},
{ -1.5084944665306663, -3.0169889330613335, 0.00015490643514764647},
{ -1.5084944665306663, -2.6398653164286667, 0.00019692232938740804},
{ -1.5084944665306663, -2.262741699796, 0.0011344830930508764},
{ -1.5084944665306663, -1.8856180831633331, 0.0009301309389097269},
{ -1.5084944665306663, -1.5084944665306663, 0.0047039347757101575},
{ -1.5084944665306663, -1.1313708498980004, 0.0033854896520375145},
{ -1.5084944665306663, -0.7542472332653336, 0.011042292553528437},
{ -1.5084944665306663, -0.3771236166326668, 0.005125544475207414},
{ -1.5084944665306663, 0.0, 0.014675466039246774},
{ -1.5084944665306663, 0.3771236166326668, 0.005979801887741983},
{ -1.5084944665306663, 0.7542472332653336, 0.011042292553528437},
{ -1.5084944665306663, 1.1313708498980004, 0.0029018482731750124},
{ -1.5084944665306663, 1.5084944665306672, 0.0047039347757101505},
{ -1.5084944665306663, 1.885618083163334, 0.001085152762061346},
{ -1.5084944665306663, 2.262741699796, 0.0011344830930508764},
{ -1.5084944665306663, 2.6398653164286676, 0.00016879056804634937},
{ -1.5084944665306663, 3.0169889330613335, 0.00015490643514764647},
{ -1.5084944665306663, 3.3941125496939994, 2.0231763671469103e-05},
{ -1.5084944665306663, 3.771236166326667, 1.1975001762111442e-05},
{ -1.5084944665306663, 4.148359782959333, 1.0086962991103919e-06},
{ -1.5084944665306663, 4.525483399592001, 5.241027120850583e-07},
{ -1.5084944665306663, 4.902607016224667, 0.0},
{ -1.5084944665306663, 5.279730632857334, 0.0},
{ -1.5084944665306663, 5.65685424949, 3.6126696699524893e-10},
{ -1.1313708498980004, -5.65685424949, 2.60009042791361e-10},
{ -1.1313708498980004, -5.2797306328573335, 9.346566974361605e-09},
{ -1.1313708498980004, -4.902607016224667, 2.3907204435923272e-08},
{ -1.1313708498980004, -4.525483399592, 3.7720427535071363e-07},
{ -1.1313708498980004, -4.148359782959334, 8.469688079804926e-07},
{ -1.1313708498980004, -3.7712361663266667, 8.618581354083257e-06},
{ -1.1313708498980004, -3.3941125496940003, 1.2480935912737864e-05},
{ -1.1313708498980004, -3.0169889330613335, 0.00011148839391532663},
{ -1.1313708498980004, -2.6398653164286667, 0.00014172783854035133},
{ -1.1313708498980004, -2.262741699796, 0.0008165038324442775},
{ -1.1313708498980004, -1.8856180831633331, 0.0006694286419486799},
{ -1.1313708498980004, -1.5084944665306663, 0.003385489652037515},
{ -1.1313708498980004, -1.1313708498980004, 0.002436585694860689},
{ -1.1313708498980004, -0.7542472332653336, 0.007947297094292214},
{ -1.1313708498980004, -0.3771236166326668, 0.003688928229080948},
{ -1.1313708498980004, 0.0, 0.010562144413917209},
{ -1.1313708498980004, 0.3771236166326668, 0.004303749600594439},
{ -1.1313708498980004, 0.7542472332653336, 0.007947297094292214},
{ -1.1313708498980004, 1.1313708498980004, 0.002088502024166305},
{ -1.1313708498980004, 1.5084944665306672, 0.00338548965203751},
{ -1.1313708498980004, 1.885618083163334, 0.0007810000822734583},
{ -1.1313708498980004, 2.262741699796, 0.0008165038324442775},
{ -1.1313708498980004, 2.6398653164286676, 0.00012148100446315802},
{ -1.1313708498980004, 3.0169889330613335, 0.00011148839391532663},
{ -1.1313708498980004, 3.3941125496939994, 1.4561091898194212e-05},
{ -1.1313708498980004, 3.771236166326667, 8.618581354083244e-06},
{ -1.1313708498980004, 4.148359782959333, 7.259732639832819e-07},
{ -1.1313708498980004, 4.525483399592001, 3.772042753507116e-07},
{ -1.1313708498980004, 4.902607016224667, 0.0},
{ -1.1313708498980004, 5.279730632857334, 0.0},
{ -1.1313708498980004, 5.65685424949, 2.60009042791361e-10},
{ -0.7542472332653336, -5.65685424949, 8.480592800917794e-10},
{ -0.7542472332653336, -5.2797306328573335, 3.048525841452027e-08},
{ -0.7542472332653336, -4.902607016224667, 7.797700558901377e-08},
{ -0.7542472332653336, -4.525483399592, 1.2303094644987327e-06},
{ -0.7542472332653336, -4.148359782959334, 2.762518371841775e-06},
{ -0.7542472332653336, -3.7712361663266667, 2.8110821916379622e-05},
{ -0.7542472332653336, -3.3941125496940003, 4.070848233352207e-05},
{ -0.7542472332653336, -3.0169889330613335, 0.00036363645689926763},
{ -0.7542472332653336, -2.6398653164286667, 0.0004622670328352433},
{ -0.7542472332653336, -2.262741699796, 0.0026631521923278258},
{ -0.7542472332653336, -1.8856180831633331, 0.0021834439528296188},
{ -0.7542472332653336, -1.5084944665306663, 0.011042292553528437},
{ -0.7542472332653336, -1.1313708498980004, 0.007947297094292214},
{ -0.7542472332653336, -0.7542472332653336, 0.025921325582007326},
{ -0.7542472332653336, -0.3771236166326668, 0.012032003905244849},
{ -0.7542472332653336, 0.0, 0.03445005024336656},
{ -0.7542472332653336, 0.3771236166326668, 0.014037337889452323},
{ -0.7542472332653336, 0.7542472332653336, 0.025921325582007326},
{ -0.7542472332653336, 1.1313708498980004, 0.006811968937964755},
{ -0.7542472332653336, 1.5084944665306672, 0.011042292553528423},
{ -0.7542472332653336, 1.885618083163334, 0.0025473512783012174},
{ -0.7542472332653336, 2.262741699796, 0.0026631521923278258},
{ -0.7542472332653336, 2.6398653164286676, 0.0003962288852873505},
{ -0.7542472332653336, 3.0169889330613335, 0.00036363645689926763},
{ -0.7542472332653336, 3.3941125496939994, 4.749322938910921e-05},
{ -0.7542472332653336, 3.771236166326667, 2.8110821916379575e-05},
{ -0.7542472332653336, 4.148359782959333, 2.367872890150101e-06},
{ -0.7542472332653336, 4.525483399592001, 1.2303094644987261e-06},
{ -0.7542472332653336, 4.902607016224667, 0.0},
{ -0.7542472332653336, 5.279730632857334, 0.0},
{ -0.7542472332653336, 5.65685424949, 8.480592800917794e-10},
{ -0.3771236166326668, -5.65685424949, 3.93647020005265e-10},
{ -0.3771236166326668, -5.2797306328573335, 1.4150462604061845e-08},
{ -0.3771236166326668, -4.902607016224667, 3.619489415377569e-08},
{ -0.3771236166326668, -4.525483399592, 5.710775953442621e-07},
{ -0.3771236166326668, -4.148359782959334, 1.2822890454870363e-06},
{ -0.3771236166326668, -3.7712361663266667, 1.3048311052128297e-05},
{ -0.3771236166326668, -3.3941125496940003, 1.8895816761528383e-05},
{ -0.3771236166326668, -3.0169889330613335, 0.00016879056804634953},
{ -0.3771236166326668, -2.6398653164286667, 0.00021457231138674194},
{ -0.3771236166326668, -2.262741699796, 0.0012361658541333131},
{ -0.3771236166326668, -1.8856180831633331, 0.0010134977890777607},
{ -0.3771236166326668, -1.5084944665306663, 0.005125544475207415},
{ -0.3771236166326668, -1.1313708498980004, 0.003688928229080948},
{ -0.3771236166326668, -0.7542472332653336, 0.01203200390524485},
{ -0.3771236166326668, -0.3771236166326668, 0.005584942695844049},
{ -0.3771236166326668, 0.0, 0.015990815660746352},
{ -0.3771236166326668, 0.3771236166326668, 0.006515766478484724},
{ -0.3771236166326668, 0.7542472332653336, 0.01203200390524485},
{ -0.3771236166326668, 1.1313708498980004, 0.003161938482069384},
{ -0.3771236166326668, 1.5084944665306672, 0.005125544475207407},
{ -0.3771236166326668, 1.885618083163334, 0.0011824140872573855},
{ -0.3771236166326668, 2.262741699796, 0.0012361658541333131},
{ -0.3771236166326668, 2.6398653164286676, 0.00018391912404577845},
{ -0.3771236166326668, 3.0169889330613335, 0.00016879056804634953},
{ -0.3771236166326668, 3.3941125496939994, 2.2045119555116505e-05},
{ -0.3771236166326668, 3.771236166326667, 1.3048311052128275e-05},
{ -0.3771236166326668, 4.148359782959333, 1.0991048961317496e-06},
{ -0.3771236166326668, 4.525483399592001, 5.710775953442591e-07},
{ -0.3771236166326668, 4.902607016224667, 0.0},
{ -0.3771236166326668, 5.279730632857334, 0.0},
{ -0.3771236166326668, 5.65685424949, 3.93647020005265e-10},
{ 0.0, -5.65685424949, 1.1270906927998486e-09},
{ 0.0, -5.2797306328573335, 4.0515624123452276e-08},
{ 0.0, -4.902607016224667, 1.0363327106363108e-07},
{ 0.0, -4.525483399592, 1.635110161815596e-06},
{ 0.0, -4.148359782959334, 3.671451770747078e-06},
{ 0.0, -3.7712361663266667, 3.735994227370121e-05},
{ 0.0, -3.3941125496940003, 5.4102528718457394e-05},
{ 0.0, -3.0169889330613335, 0.00048328138817079223},
{ 0.0, -2.6398653164286667, 0.0006143637391013738},
{ 0.0, -2.262741699796, 0.003539391785391891},
{ 0.0, -1.8856180831633331, 0.0029018482731750137},
{ 0.0, -1.5084944665306663, 0.014675466039246774},
{ 0.0, -1.1313708498980004, 0.010562144413917209},
{ 0.0, -0.7542472332653336, 0.03445005024336656},
{ 0.0, -0.3771236166326668, 0.015990815660746352},
{ 0.0, 0.0, 0.0457849255438647},
{ 0.0, 0.3771236166326668, 0.018655951604204076},
{ 0.0, 0.7542472332653336, 0.03445005024336656},
{ 0.0, 1.1313708498980004, 0.009053266640500464},
{ 0.0, 1.5084944665306672, 0.014675466039246755},
{ 0.0, 1.885618083163334, 0.0033854896520375097},
{ 0.0, 2.262741699796, 0.003539391785391891},
{ 0.0, 2.6398653164286676, 0.0005265974906583192},
{ 0.0, 3.0169889330613335, 0.00048328138817079223},
{ 0.0, 3.3941125496939994, 6.311961683820045e-05},
{ 0.0, 3.771236166326667, 3.735994227370114e-05},
{ 0.0, 4.148359782959333, 3.1469586606403638e-06},
{ 0.0, 4.525483399592001, 1.6351101618155874e-06},
{ 0.0, 4.902607016224667, 0.0},
{ 0.0, 5.279730632857334, 0.0},
{ 0.0, 5.65685424949, 1.1270906927998486e-09},
{ 0.3771236166326668, -5.65685424949, 4.592548566728091e-10},
{ 0.3771236166326668, -5.2797306328573335, 1.650887303807215e-08},
{ 0.3771236166326668, -4.902607016224667, 4.2227376512738304e-08},
{ 0.3771236166326668, -4.525483399592, 6.662571945683058e-07},
{ 0.3771236166326668, -4.148359782959334, 1.4960038864015424e-06},
{ 0.3771236166326668, -3.7712361663266667, 1.5223029560816344e-05},
{ 0.3771236166326668, -3.3941125496940003, 2.2045119555116448e-05},
{ 0.3771236166326668, -3.0169889330613335, 0.0001969223293874078},
{ 0.3771236166326668, -2.6398653164286667, 0.0002503343632845323},
{ 0.3771236166326668, -2.262741699796, 0.0014421934964888652},
{ 0.3771236166326668, -1.8856180831633331, 0.0011824140872573874},
{ 0.3771236166326668, -1.5084944665306663, 0.005979801887741983},
{ 0.3771236166326668, -1.1313708498980004, 0.004303749600594439},
{ 0.3771236166326668, -0.7542472332653336, 0.014037337889452323},
{ 0.3771236166326668, -0.3771236166326668, 0.006515766478484723},
{ 0.3771236166326668, 0.0, 0.018655951604204076},
{ 0.3771236166326668, 0.3771236166326668, 0.007601727558232177},
{ 0.3771236166326668, 0.7542472332653336, 0.014037337889452323},
{ 0.3771236166326668, 1.1313708498980004, 0.003688928229080948},
{ 0.3771236166326668, 1.5084944665306672, 0.005979801887741976},
{ 0.3771236166326668, 1.885618083163334, 0.001379483101800283},
{ 0.3771236166326668, 2.262741699796, 0.0014421934964888652},
{ 0.3771236166326668, 2.6398653164286676, 0.00021457231138674148},
{ 0.3771236166326668, 3.0169889330613335, 0.0001969223293874078},
{ 0.3771236166326668, 3.3941125496939994, 2.571930614763592e-05},
{ 0.3771236166326668, 3.771236166326667, 1.5223029560816319e-05},
{ 0.3771236166326668, 4.148359782959333, 1.282289045487041e-06},
{ 0.3771236166326668, 4.525483399592001, 6.662571945683023e-07},
{ 0.3771236166326668, 4.902607016224667, 0.0},
{ 0.3771236166326668, 5.279730632857334, 0.0},
{ 0.3771236166326668, 5.65685424949, 4.592548566728091e-10},
{ 0.7542472332653336, -5.65685424949, 8.480592800917794e-10},
{ 0.7542472332653336, -5.2797306328573335, 3.048525841452027e-08},
{ 0.7542472332653336, -4.902607016224667, 7.797700558901377e-08},
{ 0.7542472332653336, -4.525483399592, 1.2303094644987327e-06},
{ 0.7542472332653336, -4.148359782959334, 2.762518371841775e-06},
{ 0.7542472332653336, -3.7712361663266667, 2.8110821916379622e-05},
{ 0.7542472332653336, -3.3941125496940003, 4.070848233352207e-05},
{ 0.7542472332653336, -3.0169889330613335, 0.00036363645689926763},
{ 0.7542472332653336, -2.6398653164286667, 0.0004622670328352433},
{ 0.7542472332653336, -2.262741699796, 0.0026631521923278258},
{ 0.7542472332653336, -1.8856180831633331, 0.0021834439528296188},
{ 0.7542472332653336, -1.5084944665306663, 0.011042292553528437},
{ 0.7542472332653336, -1.1313708498980004, 0.007947297094292214},
{ 0.7542472332653336, -0.7542472332653336, 0.025921325582007326},
{ 0.7542472332653336, -0.3771236166326668, 0.012032003905244849},
{ 0.7542472332653336, 0.0, 0.03445005024336656},
{ 0.7542472332653336, 0.3771236166326668, 0.014037337889452323},
{ 0.7542472332653336, 0.7542472332653336, 0.025921325582007326},
{ 0.7542472332653336, 1.1313708498980004, 0.006811968937964755},
{ 0.7542472332653336, 1.5084944665306672, 0.011042292553528423},
{ 0.7542472332653336, 1.885618083163334, 0.0025473512783012174},
{ 0.7542472332653336, 2.262741699796, 0.0026631521923278258},
{ 0.7542472332653336, 2.6398653164286676, 0.0003962288852873505},
{ 0.7542472332653336, 3.0169889330613335, 0.00036363645689926763},
{ 0.7542472332653336, 3.3941125496939994, 4.749322938910921e-05},
{ 0.7542472332653336, 3.771236166326667, 2.8110821916379575e-05},
{ 0.7542472332653336, 4.148359782959333, 2.367872890150101e-06},
{ 0.7542472332653336, 4.525483399592001, 1.2303094644987261e-06},
{ 0.7542472332653336, 4.902607016224667, 0.0},
{ 0.7542472332653336, 5.279730632857334, 0.0},
{ 0.7542472332653336, 5.65685424949, 8.480592800917794e-10},
{ 1.1313708498980004, -5.65685424949, 2.2286489382116662e-10},
{ 1.1313708498980004, -5.2797306328573335, 8.011343120881375e-09},
{ 1.1313708498980004, -4.902607016224667, 2.0491889516505663e-08},
{ 1.1313708498980004, -4.525483399592, 3.233179503006117e-07},
{ 1.1313708498980004, -4.148359782959334, 7.259732639832794e-07},
{ 1.1313708498980004, -3.7712361663266667, 7.387355446357079e-06},
{ 1.1313708498980004, -3.3941125496940003, 1.0697945068061025e-05},
{ 1.1313708498980004, -3.0169889330613335, 9.556148049885139e-05},
{ 1.1313708498980004, -2.6398653164286667, 0.0001214810044631583},
{ 1.1313708498980004, -2.262741699796, 0.0006998604278093807},
{ 1.1313708498980004, -1.8856180831633331, 0.0005737959788131542},
{ 1.1313708498980004, -1.5084944665306663, 0.002901848273175013},
{ 1.1313708498980004, -1.1313708498980004, 0.002088502024166305},
{ 1.1313708498980004, -0.7542472332653336, 0.006811968937964755},
{ 1.1313708498980004, -0.3771236166326668, 0.003161938482069384},
{ 1.1313708498980004, 0.0, 0.009053266640500464},
{ 1.1313708498980004, 0.3771236166326668, 0.003688928229080948},
{ 1.1313708498980004, 0.7542472332653336, 0.006811968937964755},
{ 1.1313708498980004, 1.1313708498980004, 0.0017901445921425473},
{ 1.1313708498980004, 1.5084944665306672, 0.002901848273175009},
{ 1.1313708498980004, 1.885618083163334, 0.0006694286419486787},
{ 1.1313708498980004, 2.262741699796, 0.0006998604278093807},
{ 1.1313708498980004, 2.6398653164286676, 0.00010412657525413545},
{ 1.1313708498980004, 3.0169889330613335, 9.556148049885139e-05},
{ 1.1313708498980004, 3.3941125496939994, 1.2480935912737894e-05},
{ 1.1313708498980004, 3.771236166326667, 7.387355446357065e-06},
{ 1.1313708498980004, 4.148359782959333, 6.22262797699956e-07},
{ 1.1313708498980004, 4.525483399592001, 3.2331795030060997e-07},
{ 1.1313708498980004, 4.902607016224667, 0.0},
{ 1.1313708498980004, 5.279730632857334, 0.0},
{ 1.1313708498980004, 5.65685424949, 2.2286489382116662e-10},
{ 1.5084944665306672, -5.65685424949, 3.612669669952484e-10},
{ 1.5084944665306672, -5.2797306328573335, 1.2986494109572415e-08},
{ 1.5084944665306672, -4.902607016224667, 3.321762636860227e-08},
{ 1.5084944665306672, -4.525483399592, 5.241027120850604e-07},
{ 1.5084944665306672, -4.148359782959334, 1.176812348962118e-06},
{ 1.5084944665306672, -3.7712361663266667, 1.197500176211145e-05},
{ 1.5084944665306672, -3.3941125496940003, 1.7341511718402022e-05},
{ 1.5084944665306672, -3.0169889330613335, 0.00015490643514764628},
{ 1.5084944665306672, -2.6398653164286667, 0.00019692232938740777},
{ 1.5084944665306672, -2.262741699796, 0.001134483093050875},
{ 1.5084944665306672, -1.8856180831633331, 0.0009301309389097257},
{ 1.5084944665306672, -1.5084944665306663, 0.0047039347757101505},
{ 1.5084944665306672, -1.1313708498980004, 0.0033854896520375097},
{ 1.5084944665306672, -0.7542472332653336, 0.011042292553528423},
{ 1.5084944665306672, -0.3771236166326668, 0.005125544475207407},
{ 1.5084944665306672, 0.0, 0.014675466039246755},
{ 1.5084944665306672, 0.3771236166326668, 0.005979801887741974},
{ 1.5084944665306672, 0.7542472332653336, 0.011042292553528423},
{ 1.5084944665306672, 1.1313708498980004, 0.0029018482731750085},
{ 1.5084944665306672, 1.5084944665306672, 0.0047039347757101444},
{ 1.5084944665306672, 1.885618083163334, 0.0010851527620613446},
{ 1.5084944665306672, 2.262741699796, 0.001134483093050875},
{ 1.5084944665306672, 2.6398653164286676, 0.00016879056804634912},
{ 1.5084944665306672, 3.0169889330613335, 0.00015490643514764628},
{ 1.5084944665306672, 3.3941125496939994, 2.0231763671469076e-05},
{ 1.5084944665306672, 3.771236166326667, 1.1975001762111427e-05},
{ 1.5084944665306672, 4.148359782959333, 1.0086962991103908e-06},
{ 1.5084944665306672, 4.525483399592001, 5.241027120850575e-07},
{ 1.5084944665306672, 4.902607016224667, 0.0},
{ 1.5084944665306672, 5.279730632857334, 0.0},
{ 1.5084944665306672, 5.65685424949, 3.612669669952484e-10},
{ 1.885618083163334, -5.65685424949, 8.334083395474685e-11},
{ 1.885618083163334, -5.2797306328573335, 2.995859982001641e-09},
{ 1.885618083163334, -4.902607016224667, 7.662988693878875e-09},
{ 1.885618083163334, -4.525483399592, 1.2090548290756956e-07},
{ 1.885618083163334, -4.148359782959334, 2.7147935330615887e-07},
{ 1.885618083163334, -3.7712361663266667, 2.762518371841778e-06},
{ 1.885618083163334, -3.3941125496940003, 4.000520890875274e-06},
{ 1.885618083163334, -3.0169889330613335, 3.573543298889972e-05},
{ 1.885618083163334, -2.6398653164286667, 4.542809792978878e-05},
{ 1.885618083163334, -2.262741699796, 0.0002617143988248008},
{ 1.885618083163334, -1.8856180831633331, 0.0002145723113867418},
{ 1.885618083163334, -1.5084944665306663, 0.0010851527620613461},
{ 1.885618083163334, -1.1313708498980004, 0.0007810000822734582},
{ 1.885618083163334, -0.7542472332653336, 0.0025473512783012174},
{ 1.885618083163334, -0.3771236166326668, 0.0011824140872573852},
{ 1.885618083163334, 0.0, 0.0033854896520375097},
{ 1.885618083163334, 0.3771236166326668, 0.0013794831018002828},
{ 1.885618083163334, 0.7542472332653336, 0.0025473512783012174},
{ 1.885618083163334, 1.1313708498980004, 0.0006694286419486786},
{ 1.885618083163334, 1.5084944665306672, 0.0010851527620613444},
{ 1.885618083163334, 1.885618083163334, 0.0002503343632845317},
{ 1.885618083163334, 2.262741699796, 0.0002617143988248008},
{ 1.885618083163334, 2.6398653164286676, 3.893836965410458e-05},
{ 1.885618083163334, 3.0169889330613335, 3.573543298889972e-05},
{ 1.885618083163334, 3.3941125496939994, 4.667274372687831e-06},
{ 1.885618083163334, 3.771236166326667, 2.762518371841773e-06},
{ 1.885618083163334, 4.148359782959333, 2.3269658854813704e-07},
{ 1.885618083163334, 4.525483399592001, 1.2090548290756892e-07},
{ 1.885618083163334, 4.902607016224667, 0.0},
{ 1.885618083163334, 5.279730632857334, 0.0},
{ 1.885618083163334, 5.65685424949, 8.334083395474685e-11},
{ 2.262741699796, -5.65685424949, 8.712945346313892e-11},
{ 2.262741699796, -5.2797306328573335, 3.1320498067685213e-09},
{ 2.262741699796, -4.902607016224667, 8.011343120881389e-09},
{ 2.262741699796, -4.525483399592, 1.2640176665562885e-07},
{ 2.262741699796, -4.148359782959334, 2.8382062618830766e-07},
{ 2.262741699796, -3.7712361663266667, 2.8881006404513565e-06},
{ 2.262741699796, -3.3941125496940003, 4.182381939915531e-06},
{ 2.262741699796, -3.0169889330613335, 3.735994227370118e-05},
{ 2.262741699796, -2.6398653164286667, 4.749322938910915e-05},
{ 2.262741699796, -2.262741699796, 0.00027361176329745697},
{ 2.262741699796, -1.8856180831633331, 0.00022432662756411532},
{ 2.262741699796, -1.5084944665306663, 0.0011344830930508764},
{ 2.262741699796, -1.1313708498980004, 0.0008165038324442774},
{ 2.262741699796, -0.7542472332653336, 0.0026631521923278258},
{ 2.262741699796, -0.3771236166326668, 0.001236165854133313},
{ 2.262741699796, 0.0, 0.003539391785391891},
{ 2.262741699796, 0.3771236166326668, 0.001442193496488865},
{ 2.262741699796, 0.7542472332653336, 0.0026631521923278258},
{ 2.262741699796, 1.1313708498980004, 0.0006998604278093807},
{ 2.262741699796, 1.5084944665306672, 0.001134483093050875},
{ 2.262741699796, 1.885618083163334, 0.0002617143988248008},
{ 2.262741699796, 2.262741699796, 0.00027361176329745697},
{ 2.262741699796, 2.6398653164286676, 4.0708482333522044e-05},
{ 2.262741699796, 3.0169889330613335, 3.735994227370118e-05},
{ 2.262741699796, 3.3941125496939994, 4.879445596568131e-06},
{ 2.262741699796, 3.771236166326667, 2.8881006404513514e-06},
{ 2.262741699796, 4.148359782959333, 2.4327482244712175e-07},
{ 2.262741699796, 4.525483399592001, 1.264017666556282e-07},
{ 2.262741699796, 4.902607016224667, 0.0},
{ 2.262741699796, 5.279730632857334, 0.0},
{ 2.262741699796, 5.65685424949, 8.712945346313892e-11},
{ 2.6398653164286676, -5.65685424949, 1.2963287010352699e-11},
{ 2.6398653164286676, -5.2797306328573335, 4.659923706859589e-10},
{ 2.6398653164286676, -4.902607016224667, 1.1919429777938005e-09},
{ 2.6398653164286676, -4.525483399592, 1.8806297005705047e-08},
{ 2.6398653164286676, -4.148359782959334, 4.222737651273807e-08},
{ 2.6398653164286676, -3.7712361663266667, 4.2969714635927883e-07},
{ 2.6398653164286676, -3.3941125496940003, 6.222627976999534e-07},
{ 2.6398653164286676, -3.0169889330613335, 5.558483786301828e-06},
{ 2.6398653164286676, -2.6398653164286667, 7.066133656858127e-06},
{ 2.6398653164286676, -2.262741699796, 4.0708482333522044e-05},
{ 2.6398653164286676, -1.8856180831633331, 3.3375745417803985e-05},
{ 2.6398653164286676, -1.5084944665306663, 0.00016879056804634937},
{ 2.6398653164286676, -1.1313708498980004, 0.000121481004463158},
{ 2.6398653164286676, -0.7542472332653336, 0.0003962288852873505},
{ 2.6398653164286676, -0.3771236166326668, 0.00018391912404577842},
{ 2.6398653164286676, 0.0, 0.0005265974906583193},
{ 2.6398653164286676, 0.3771236166326668, 0.00021457231138674148},
{ 2.6398653164286676, 0.7542472332653336, 0.0003962288852873505},
{ 2.6398653164286676, 1.1313708498980004, 0.00010412657525413544},
{ 2.6398653164286676, 1.5084944665306672, 0.00016879056804634912},
{ 2.6398653164286676, 1.885618083163334, 3.893836965410457e-05},
{ 2.6398653164286676, 2.262741699796, 4.0708482333522044e-05},
{ 2.6398653164286676, 2.6398653164286676, 6.056685991592666e-06},
{ 2.6398653164286676, 3.0169889330613335, 5.558483786301828e-06},
{ 2.6398653164286676, 3.3941125496939994, 7.259732639832809e-07},
{ 2.6398653164286676, 3.771236166326667, 4.296971463592781e-07},
{ 2.6398653164286676, 4.148359782959333, 3.619489415377563e-08},
{ 2.6398653164286676, 4.525483399592001, 1.880629700570494e-08},
{ 2.6398653164286676, 4.902607016224667, 0.0},
{ 2.6398653164286676, 5.279730632857334, 0.0},
{ 2.6398653164286676, 5.65685424949, 1.2963287010352699e-11},
{ 3.0169889330613335, -5.65685424949, 1.1896971506240274e-11},
{ 3.0169889330613335, -5.2797306328573335, 4.276614373922879e-10},
{ 3.0169889330613335, -4.902607016224667, 1.093897838761977e-09},
{ 3.0169889330613335, -4.525483399592, 1.7259355550493002e-08},
{ 3.0169889330613335, -4.148359782959334, 3.8753897430035856e-08},
{ 3.0169889330613335, -3.7712361663266667, 3.9435173366650695e-07},
{ 3.0169889330613335, -3.3941125496940003, 5.710775953442601e-07},
{ 3.0169889330613335, -3.0169889330613335, 5.101261984766638e-06},
{ 3.0169889330613335, -2.6398653164286667, 6.48489775068548e-06},
{ 3.0169889330613335, -2.262741699796, 3.735994227370118e-05},
{ 3.0169889330613335, -1.8856180831633331, 3.0630371133342676e-05},
{ 3.0169889330613335, -1.5084944665306663, 0.00015490643514764647},
{ 3.0169889330613335, -1.1313708498980004, 0.00011148839391532661},
{ 3.0169889330613335, -0.7542472332653336, 0.00036363645689926763},
{ 3.0169889330613335, -0.3771236166326668, 0.0001687905680463495},
{ 3.0169889330613335, 0.0, 0.00048328138817079223},
{ 3.0169889330613335, 0.3771236166326668, 0.00019692232938740774},
{ 3.0169889330613335, 0.7542472332653336, 0.00036363645689926763},
{ 3.0169889330613335, 1.1313708498980004, 9.556148049885139e-05},
{ 3.0169889330613335, 1.5084944665306672, 0.00015490643514764623},
{ 3.0169889330613335, 1.885618083163334, 3.573543298889972e-05},
{ 3.0169889330613335, 2.262741699796, 3.735994227370118e-05},
{ 3.0169889330613335, 2.6398653164286676, 5.558483786301827e-06},
{ 3.0169889330613335, 3.0169889330613335, 5.101261984766638e-06},
{ 3.0169889330613335, 3.3941125496939994, 6.66257194568305e-07},
{ 3.0169889330613335, 3.771236166326667, 3.9435173366650627e-07},
{ 3.0169889330613335, 4.148359782959333, 3.321762636860228e-08},
{ 3.0169889330613335, 4.525483399592001, 1.7259355550492913e-08},
{ 3.0169889330613335, 4.902607016224667, 0.0},
{ 3.0169889330613335, 5.279730632857334, 0.0},
{ 3.0169889330613335, 5.65685424949, 1.1896971506240274e-11},
{ 3.3941125496939994, -5.65685424949, 1.5538199926364517e-12},
{ 3.3941125496939994, -5.2797306328573335, 5.585529822873214e-11},
{ 3.3941125496939994, -4.902607016224667, 1.4287000106528098e-10},
{ 3.3941125496939994, -4.525483399592, 2.2541813855997072e-09},
{ 3.3941125496939994, -4.148359782959334, 5.061504987869134e-09},
{ 3.3941125496939994, -3.7712361663266667, 5.1504839494694884e-08},
{ 3.3941125496939994, -3.3941125496940003, 7.458635876594487e-08},
{ 3.3941125496939994, -3.0169889330613335, 6.662571945683052e-07},
{ 3.3941125496939994, -2.6398653164286667, 8.469688079804964e-07},
{ 3.3941125496939994, -2.262741699796, 4.879445596568131e-06},
{ 3.3941125496939994, -1.8856180831633331, 4.000520890875291e-06},
{ 3.3941125496939994, -1.5084944665306663, 2.0231763671469103e-05},
{ 3.3941125496939994, -1.1313708498980004, 1.4561091898194212e-05},
{ 3.3941125496939994, -0.7542472332653336, 4.74932293891092e-05},
{ 3.3941125496939994, -0.3771236166326668, 2.2045119555116502e-05},
{ 3.3941125496939994, 0.0, 6.311961683820045e-05},
{ 3.3941125496939994, 0.3771236166326668, 2.571930614763592e-05},
{ 3.3941125496939994, 0.7542472332653336, 4.74932293891092e-05},
{ 3.3941125496939994, 1.1313708498980004, 1.2480935912737896e-05},
{ 3.3941125496939994, 1.5084944665306672, 2.0231763671469076e-05},
{ 3.3941125496939994, 1.885618083163334, 4.667274372687831e-06},
{ 3.3941125496939994, 2.262741699796, 4.879445596568131e-06},
{ 3.3941125496939994, 2.6398653164286676, 7.259732639832809e-07},
{ 3.3941125496939994, 3.0169889330613335, 6.662571945683052e-07},
{ 3.3941125496939994, 3.3941125496939994, 8.701741856026924e-08},
{ 3.3941125496939994, 3.771236166326667, 5.15048394946948e-08},
{ 3.3941125496939994, 4.148359782959333, 4.338432846744988e-09},
{ 3.3941125496939994, 4.525483399592001, 2.2541813855996952e-09},
{ 3.3941125496939994, 4.902607016224667, 0.0},
{ 3.3941125496939994, 5.279730632857334, 0.0},
{ 3.3941125496939994, 5.65685424949, 1.5538199926364517e-12},
{ 3.771236166326667, -5.65685424949, 9.196922943532178e-13},
{ 3.771236166326667, -5.2797306328573335, 3.30602564152905e-11},
{ 3.771236166326667, -4.902607016224667, 8.45634884971633e-11},
{ 3.771236166326667, -4.525483399592, 1.3342300010523597e-09},
{ 3.771236166326667, -4.148359782959334, 2.9958599820016348e-09},
{ 3.771236166326667, -3.7712361663266667, 3.0485258414520243e-08},
{ 3.771236166326667, -3.3941125496940003, 4.414700528116686e-08},
{ 3.771236166326667, -3.0169889330613335, 3.943517336665063e-07},
{ 3.771236166326667, -2.6398653164286667, 5.01313337419159e-07},
{ 3.771236166326667, -2.262741699796, 2.888100640451352e-06},
{ 3.771236166326667, -1.8856180831633331, 2.367872890150096e-06},
{ 3.771236166326667, -1.5084944665306663, 1.1975001762111444e-05},
{ 3.771236166326667, -1.1313708498980004, 8.618581354083244e-06},
{ 3.771236166326667, -0.7542472332653336, 2.8110821916379575e-05},
{ 3.771236166326667, -0.3771236166326668, 1.3048311052128273e-05},
{ 3.771236166326667, 0.0, 3.735994227370114e-05},
{ 3.771236166326667, 0.3771236166326668, 1.5223029560816319e-05},
{ 3.771236166326667, 0.7542472332653336, 2.8110821916379575e-05},
{ 3.771236166326667, 1.1313708498980004, 7.387355446357066e-06},
{ 3.771236166326667, 1.5084944665306672, 1.1975001762111429e-05},
{ 3.771236166326667, 1.885618083163334, 2.7625183718417734e-06},
{ 3.771236166326667, 2.262741699796, 2.888100640451352e-06},
{ 3.771236166326667, 2.6398653164286676, 4.296971463592781e-07},
{ 3.771236166326667, 3.0169889330613335, 3.943517336665063e-07},
{ 3.771236166326667, 3.3941125496939994, 5.15048394946948e-08},
{ 3.771236166326667, 3.771236166326667, 3.048525841452019e-08},
{ 3.771236166326667, 4.148359782959333, 2.5678799845728392e-09},
{ 3.771236166326667, 4.525483399592001, 1.3342300010523527e-09},
{ 3.771236166326667, 4.902607016224667, 0.0},
{ 3.771236166326667, 5.279730632857334, 0.0},
{ 3.771236166326667, 5.65685424949, 9.196922943532178e-13},
{ 4.148359782959333, -5.65685424949, 7.746889996873494e-14},
{ 4.148359782959333, -5.2797306328573335, 2.784781076129396e-12},
{ 4.148359782959333, -4.902607016224667, 7.123078524868028e-12},
{ 4.148359782959333, -4.525483399592, 1.1238686147685969e-10},
{ 4.148359782959333, -4.148359782959334, 2.5235176883724714e-10},
{ 4.148359782959333, -3.7712361663266667, 2.567879984572843e-09},
{ 4.148359782959333, -3.3941125496940003, 3.7186567257814084e-09},
{ 4.148359782959333, -3.0169889330613335, 3.321762636860228e-08},
{ 4.148359782959333, -2.6398653164286667, 4.222737651273833e-08},
{ 4.148359782959333, -2.262741699796, 2.4327482244712175e-07},
{ 4.148359782959333, -1.8856180831633331, 1.9945421875554638e-07},
{ 4.148359782959333, -1.5084944665306663, 1.0086962991103919e-06},
{ 4.148359782959333, -1.1313708498980004, 7.25973263983282e-07},
{ 4.148359782959333, -0.7542472332653336, 2.367872890150101e-06},
{ 4.148359782959333, -0.3771236166326668, 1.0991048961317494e-06},
{ 4.148359782959333, 0.0, 3.1469586606403638e-06},
{ 4.148359782959333, 0.3771236166326668, 1.282289045487041e-06},
{ 4.148359782959333, 0.7542472332653336, 2.367872890150101e-06},
{ 4.148359782959333, 1.1313708498980004, 6.22262797699956e-07},
{ 4.148359782959333, 1.5084944665306672, 1.0086962991103906e-06},
{ 4.148359782959333, 1.885618083163334, 2.32696588548137e-07},
{ 4.148359782959333, 2.262741699796, 2.4327482244712175e-07},
{ 4.148359782959333, 2.6398653164286676, 3.619489415377563e-08},
{ 4.148359782959333, 3.0169889330613335, 3.321762636860228e-08},
{ 4.148359782959333, 3.3941125496939994, 4.338432846744988e-09},
{ 4.148359782959333, 3.771236166326667, 2.567879984572839e-09},
{ 4.148359782959333, 4.148359782959333, 2.1630151614621264e-10},
{ 4.148359782959333, 4.525483399592001, 1.1238686147685909e-10},
{ 4.148359782959333, 4.902607016224667, 0.0},
{ 4.148359782959333, 5.279730632857334, 0.0},
{ 4.148359782959333, 5.65685424949, 7.746889996873494e-14},
{ 4.525483399592001, -5.65685424949, 4.0251620444794164e-14},
{ 4.525483399592001, -5.2797306328573335, 1.446928392470323e-12},
{ 4.525483399592001, -4.902607016224667, 3.701039427398161e-12},
{ 4.525483399592001, -4.525483399592, 5.83944433569332e-11},
{ 4.525483399592001, -4.148359782959334, 1.3111800505633512e-10},
{ 4.525483399592001, -3.7712361663266667, 1.3342300010523547e-09},
{ 4.525483399592001, -3.3941125496940003, 1.932155473371162e-09},
{ 4.525483399592001, -3.0169889330613335, 1.7259355550492913e-08},
{ 4.525483399592001, -2.6398653164286667, 2.194067983998915e-08},
{ 4.525483399592001, -2.262741699796, 1.264017666556282e-07},
{ 4.525483399592001, -1.8856180831633331, 1.0363327106363069e-07},
{ 4.525483399592001, -1.5084944665306663, 5.241027120850583e-07},
{ 4.525483399592001, -1.1313708498980004, 3.772042753507116e-07},
{ 4.525483399592001, -0.7542472332653336, 1.2303094644987261e-06},
{ 4.525483399592001, -0.3771236166326668, 5.71077595344259e-07},
{ 4.525483399592001, 0.0, 1.6351101618155874e-06},
{ 4.525483399592001, 0.3771236166326668, 6.662571945683022e-07},
{ 4.525483399592001, 0.7542472332653336, 1.2303094644987261e-06},
{ 4.525483399592001, 1.1313708498980004, 3.2331795030060997e-07},
{ 4.525483399592001, 1.5084944665306672, 5.241027120850575e-07},
{ 4.525483399592001, 1.885618083163334, 1.2090548290756892e-07},
{ 4.525483399592001, 2.262741699796, 1.264017666556282e-07},
{ 4.525483399592001, 2.6398653164286676, 1.8806297005704947e-08},
{ 4.525483399592001, 3.0169889330613335, 1.7259355550492913e-08},
{ 4.525483399592001, 3.3941125496939994, 2.254181385599695e-09},
{ 4.525483399592001, 3.771236166326667, 1.3342300010523525e-09},
{ 4.525483399592001, 4.148359782959333, 1.1238686147685908e-10},
{ 4.525483399592001, 4.525483399592001, 5.839444335693287e-11},
{ 4.525483399592001, 4.902607016224667, 0.0},
{ 4.525483399592001, 5.279730632857334, 0.0},
{ 4.525483399592001, 5.65685424949, 4.0251620444794164e-14},
{ 4.902607016224667, -5.65685424949, 0.0},
{ 4.902607016224667, -5.2797306328573335, 0.0},
{ 4.902607016224667, -4.902607016224667, 0.0},
{ 4.902607016224667, -4.525483399592, 0.0},
{ 4.902607016224667, -4.148359782959334, 0.0},
{ 4.902607016224667, -3.7712361663266667, 0.0},
{ 4.902607016224667, -3.3941125496940003, 0.0},
{ 4.902607016224667, -3.0169889330613335, 0.0},
{ 4.902607016224667, -2.6398653164286667, 0.0},
{ 4.902607016224667, -2.262741699796, 0.0},
{ 4.902607016224667, -1.8856180831633331, 0.0},
{ 4.902607016224667, -1.5084944665306663, 0.0},
{ 4.902607016224667, -1.1313708498980004, 0.0},
{ 4.902607016224667, -0.7542472332653336, 0.0},
{ 4.902607016224667, -0.3771236166326668, 0.0},
{ 4.902607016224667, 0.0, 0.0},
{ 4.902607016224667, 0.3771236166326668, 0.0},
{ 4.902607016224667, 0.7542472332653336, 0.0},
{ 4.902607016224667, 1.1313708498980004, 0.0},
{ 4.902607016224667, 1.5084944665306672, 0.0},
{ 4.902607016224667, 1.885618083163334, 0.0},
{ 4.902607016224667, 2.262741699796, 0.0},
{ 4.902607016224667, 2.6398653164286676, 0.0},
{ 4.902607016224667, 3.0169889330613335, 0.0},
{ 4.902607016224667, 3.3941125496939994, 0.0},
{ 4.902607016224667, 3.771236166326667, 0.0},
{ 4.902607016224667, 4.148359782959333, 0.0},
{ 4.902607016224667, 4.525483399592001, 0.0},
{ 4.902607016224667, 4.902607016224667, 0.0},
{ 4.902607016224667, 5.279730632857334, 0.0},
{ 4.902607016224667, 5.65685424949, 0.0},
{ 5.279730632857334, -5.65685424949, 0.0},
{ 5.279730632857334, -5.2797306328573335, 0.0},
{ 5.279730632857334, -4.902607016224667, 0.0},
{ 5.279730632857334, -4.525483399592, 0.0},
{ 5.279730632857334, -4.148359782959334, 0.0},
{ 5.279730632857334, -3.7712361663266667, 0.0},
{ 5.279730632857334, -3.3941125496940003, 0.0},
{ 5.279730632857334, -3.0169889330613335, 0.0},
{ 5.279730632857334, -2.6398653164286667, 0.0},
{ 5.279730632857334, -2.262741699796, 0.0},
{ 5.279730632857334, -1.8856180831633331, 0.0},
{ 5.279730632857334, -1.5084944665306663, 0.0},
{ 5.279730632857334, -1.1313708498980004, 0.0},
{ 5.279730632857334, -0.7542472332653336, 0.0},
{ 5.279730632857334, -0.3771236166326668, 0.0},
{ 5.279730632857334, 0.0, 0.0},
{ 5.279730632857334, 0.3771236166326668, 0.0},
{ 5.279730632857334, 0.7542472332653336, 0.0},
{ 5.279730632857334, 1.1313708498980004, 0.0},
{ 5.279730632857334, 1.5084944665306672, 0.0},
{ 5.279730632857334, 1.885618083163334, 0.0},
{ 5.279730632857334, 2.262741699796, 0.0},
{ 5.279730632857334, 2.6398653164286676, 0.0},
{ 5.279730632857334, 3.0169889330613335, 0.0},
{ 5.279730632857334, 3.3941125496939994, 0.0},
{ 5.279730632857334, 3.771236166326667, 0.0},
{ 5.279730632857334, 4.148359782959333, 0.0},
{ 5.279730632857334, 4.525483399592001, 0.0},
{ 5.279730632857334, 4.902607016224667, 0.0},
{ 5.279730632857334, 5.279730632857334, 0.0},
{ 5.279730632857334, 5.65685424949, 0.0},
{ 5.65685424949, -5.65685424949, 2.7745669883835176e-17},
{ 5.65685424949, -5.2797306328573335, 9.97375933674294e-16},
{ 5.65685424949, -4.902607016224667, 2.551147433194298e-15},
{ 5.65685424949, -4.525483399592, 4.025162044479438e-14},
{ 5.65685424949, -4.148359782959334, 9.03803832968571e-14},
{ 5.65685424949, -3.7712361663266667, 9.196922943532192e-13},
{ 5.65685424949, -3.3941125496940003, 1.331845707974098e-12},
{ 5.65685424949, -3.0169889330613335, 1.1896971506240275e-11},
{ 5.65685424949, -2.6398653164286667, 1.512383484541152e-11},
{ 5.65685424949, -2.262741699796, 8.712945346313893e-11},
{ 5.65685424949, -1.8856180831633331, 7.143500053264028e-11},
{ 5.65685424949, -1.5084944665306663, 3.6126696699524893e-10},
{ 5.65685424949, -1.1313708498980004, 2.60009042791361e-10},
{ 5.65685424949, -0.7542472332653336, 8.480592800917793e-10},
{ 5.65685424949, -0.3771236166326668, 3.936470200052649e-10},
{ 5.65685424949, 0.0, 1.1270906927998486e-09},
{ 5.65685424949, 0.3771236166326668, 4.59254856672809e-10},
{ 5.65685424949, 0.7542472332653336, 8.480592800917793e-10},
{ 5.65685424949, 1.1313708498980004, 2.2286489382116662e-10},
{ 5.65685424949, 1.5084944665306672, 3.612669669952484e-10},
{ 5.65685424949, 1.885618083163334, 8.334083395474685e-11},
{ 5.65685424949, 2.262741699796, 8.712945346313893e-11},
{ 5.65685424949, 2.6398653164286676, 1.2963287010352702e-11},
{ 5.65685424949, 3.0169889330613335, 1.1896971506240275e-11},
{ 5.65685424949, 3.3941125496939994, 1.5538199926364517e-12},
{ 5.65685424949, 3.771236166326667, 9.196922943532178e-13},
{ 5.65685424949, 4.148359782959333, 7.746889996873494e-14},
{ 5.65685424949, 4.525483399592001, 4.0251620444794164e-14},
{ 5.65685424949, 4.902607016224667, 0.0},
{ 5.65685424949, 5.279730632857334, 0.0},
{ 5.65685424949, 5.65685424949, 2.7745669883835176e-17}
};
#endif //961
#if 0
#define NON_LB_GH
const Real ew[196][3] = {
{ -4.304448570473632, -4.304448570473632, 7.445258554664748e-17},
{ -4.304448570473632, -3.4626569336022706, 4.069661525031671e-14},
{ -4.304448570473632, -2.7484707249854026, 3.0639489891606082e-12},
{ -4.304448570473632, -2.095183258507717, 6.773491288201418e-11},
{ -4.304448570473632, -1.4766827311411408, 5.911062475682877e-10},
{ -4.304448570473632, -0.8787137873293994, 2.3565166463372002e-09},
{ -4.304448570473632, -0.2917455106725621, 4.628427295071882e-09},
{ -4.304448570473632, 0.2917455106725621, 4.628427295071882e-09},
{ -4.304448570473632, 0.8787137873293994, 2.3565166463372002e-09},
{ -4.304448570473632, 1.4766827311411408, 5.911062475682877e-10},
{ -4.304448570473632, 2.095183258507717, 6.773491288201418e-11},
{ -4.304448570473632, 2.7484707249854026, 3.0639489891606082e-12},
{ -4.304448570473632, 3.4626569336022706, 4.069661525031671e-14},
{ -4.304448570473632, 4.304448570473632, 7.445258554664748e-17},
{ -3.4626569336022706, -4.304448570473632, 4.069661525031671e-14},
{ -3.4626569336022706, -3.4626569336022706, 2.2245224671138205e-11},
{ -3.4626569336022706, -2.7484707249854026, 1.6747887564004258e-09},
{ -3.4626569336022706, -2.095183258507717, 3.7024660303381195e-08},
{ -3.4626569336022706, -1.4766827311411408, 3.2310528039718663e-07},
{ -3.4626569336022706, -0.8787137873293994, 1.2880983324194313e-06},
{ -3.4626569336022706, -0.2917455106725621, 2.5299500810967625e-06},
{ -3.4626569336022706, 0.2917455106725621, 2.5299500810967625e-06},
{ -3.4626569336022706, 0.8787137873293994, 1.2880983324194313e-06},
{ -3.4626569336022706, 1.4766827311411408, 3.2310528039718663e-07},
{ -3.4626569336022706, 2.095183258507717, 3.7024660303381195e-08},
{ -3.4626569336022706, 2.7484707249854026, 1.6747887564004258e-09},
{ -3.4626569336022706, 3.4626569336022706, 2.2245224671138205e-11},
{ -3.4626569336022706, 4.304448570473632, 4.069661525031671e-14},
{ -2.7484707249854026, -4.304448570473632, 3.0639489891606082e-12},
{ -2.7484707249854026, -3.4626569336022706, 1.6747887564004258e-09},
{ -2.7484707249854026, -2.7484707249854026, 1.2609076419913576e-07},
{ -2.7484707249854026, -2.095183258507717, 2.7874964493435825e-06},
{ -2.7484707249854026, -1.4766827311411408, 2.432580919018101e-05},
{ -2.7484707249854026, -0.8787137873293994, 9.697778449831324e-05},
{ -2.7484707249854026, -0.2917455106725621, 0.00019047377640436325},
{ -2.7484707249854026, 0.2917455106725621, 0.00019047377640436325},
{ -2.7484707249854026, 0.8787137873293994, 9.697778449831324e-05},
{ -2.7484707249854026, 1.4766827311411408, 2.432580919018101e-05},
{ -2.7484707249854026, 2.095183258507717, 2.7874964493435825e-06},
{ -2.7484707249854026, 2.7484707249854026, 1.2609076419913576e-07},
{ -2.7484707249854026, 3.4626569336022706, 1.6747887564004258e-09},
{ -2.7484707249854026, 4.304448570473632, 3.0639489891606082e-12},
{ -2.095183258507717, -4.304448570473632, 6.773491288201418e-11},
{ -2.095183258507717, -3.4626569336022706, 3.7024660303381195e-08},
{ -2.095183258507717, -2.7484707249854026, 2.7874964493435825e-06},
{ -2.095183258507717, -2.095183258507717, 6.162335920838472e-05},
{ -2.095183258507717, -1.4766827311411408, 0.0005377721927194395},
{ -2.095183258507717, -0.8787137873293994, 0.0021438939772569646},
{ -2.095183258507717, -0.2917455106725621, 0.004210815746835367},
{ -2.095183258507717, 0.2917455106725621, 0.004210815746835367},
{ -2.095183258507717, 0.8787137873293994, 0.0021438939772569646},
{ -2.095183258507717, 1.4766827311411408, 0.0005377721927194395},
{ -2.095183258507717, 2.095183258507717, 6.162335920838472e-05},
{ -2.095183258507717, 2.7484707249854026, 2.7874964493435825e-06},
{ -2.095183258507717, 3.4626569336022706, 3.7024660303381195e-08},
{ -2.095183258507717, 4.304448570473632, 6.773491288201418e-11},
{ -1.4766827311411408, -4.304448570473632, 5.911062475682877e-10},
{ -1.4766827311411408, -3.4626569336022706, 3.2310528039718663e-07},
{ -1.4766827311411408, -2.7484707249854026, 2.432580919018101e-05},
{ -1.4766827311411408, -2.095183258507717, 0.0005377721927194395},
{ -1.4766827311411408, -1.4766827311411408, 0.004693008219242363},
{ -1.4766827311411408, -0.8787137873293994, 0.018709245648371054},
{ -1.4766827311411408, -0.2917455106725621, 0.03674677340545058},
{ -1.4766827311411408, 0.2917455106725621, 0.03674677340545058},
{ -1.4766827311411408, 0.8787137873293994, 0.018709245648371054},
{ -1.4766827311411408, 1.4766827311411408, 0.004693008219242363},
{ -1.4766827311411408, 2.095183258507717, 0.0005377721927194395},
{ -1.4766827311411408, 2.7484707249854026, 2.432580919018101e-05},
{ -1.4766827311411408, 3.4626569336022706, 3.2310528039718663e-07},
{ -1.4766827311411408, 4.304448570473632, 5.911062475682877e-10},
{ -0.8787137873293994, -4.304448570473632, 2.3565166463372002e-09},
{ -0.8787137873293994, -3.4626569336022706, 1.2880983324194313e-06},
{ -0.8787137873293994, -2.7484707249854026, 9.697778449831324e-05},
{ -0.8787137873293994, -2.095183258507717, 0.0021438939772569646},
{ -0.8787137873293994, -1.4766827311411408, 0.018709245648371054},
{ -0.8787137873293994, -0.8787137873293994, 0.07458667370235308},
{ -0.8787137873293994, -0.2917455106725621, 0.14649546267758162},
{ -0.8787137873293994, 0.2917455106725621, 0.14649546267758162},
{ -0.8787137873293994, 0.8787137873293994, 0.07458667370235308},
{ -0.8787137873293994, 1.4766827311411408, 0.018709245648371054},
{ -0.8787137873293994, 2.095183258507717, 0.0021438939772569646},
{ -0.8787137873293994, 2.7484707249854026, 9.697778449831324e-05},
{ -0.8787137873293994, 3.4626569336022706, 1.2880983324194313e-06},
{ -0.8787137873293994, 4.304448570473632, 2.3565166463372002e-09},
{ -0.2917455106725621, -4.304448570473632, 4.628427295071882e-09},
{ -0.2917455106725621, -3.4626569336022706, 2.5299500810967625e-06},
{ -0.2917455106725621, -2.7484707249854026, 0.00019047377640436325},
{ -0.2917455106725621, -2.095183258507717, 0.004210815746835367},
{ -0.2917455106725621, -1.4766827311411408, 0.03674677340545058},
{ -0.2917455106725621, -0.8787137873293994, 0.14649546267758162},
{ -0.2917455106725621, -0.2917455106725621, 0.287731299974055},
{ -0.2917455106725621, 0.2917455106725621, 0.287731299974055},
{ -0.2917455106725621, 0.8787137873293994, 0.14649546267758162},
{ -0.2917455106725621, 1.4766827311411408, 0.03674677340545058},
{ -0.2917455106725621, 2.095183258507717, 0.004210815746835367},
{ -0.2917455106725621, 2.7484707249854026, 0.00019047377640436325},
{ -0.2917455106725621, 3.4626569336022706, 2.5299500810967625e-06},
{ -0.2917455106725621, 4.304448570473632, 4.628427295071882e-09},
{ 0.2917455106725621, -4.304448570473632, 4.628427295071882e-09},
{ 0.2917455106725621, -3.4626569336022706, 2.5299500810967625e-06},
{ 0.2917455106725621, -2.7484707249854026, 0.00019047377640436325},
{ 0.2917455106725621, -2.095183258507717, 0.004210815746835367},
{ 0.2917455106725621, -1.4766827311411408, 0.03674677340545058},
{ 0.2917455106725621, -0.8787137873293994, 0.14649546267758162},
{ 0.2917455106725621, -0.2917455106725621, 0.287731299974055},
{ 0.2917455106725621, 0.2917455106725621, 0.287731299974055},
{ 0.2917455106725621, 0.8787137873293994, 0.14649546267758162},
{ 0.2917455106725621, 1.4766827311411408, 0.03674677340545058},
{ 0.2917455106725621, 2.095183258507717, 0.004210815746835367},
{ 0.2917455106725621, 2.7484707249854026, 0.00019047377640436325},
{ 0.2917455106725621, 3.4626569336022706, 2.5299500810967625e-06},
{ 0.2917455106725621, 4.304448570473632, 4.628427295071882e-09},
{ 0.8787137873293994, -4.304448570473632, 2.3565166463372002e-09},
{ 0.8787137873293994, -3.4626569336022706, 1.2880983324194313e-06},
{ 0.8787137873293994, -2.7484707249854026, 9.697778449831324e-05},
{ 0.8787137873293994, -2.095183258507717, 0.0021438939772569646},
{ 0.8787137873293994, -1.4766827311411408, 0.018709245648371054},
{ 0.8787137873293994, -0.8787137873293994, 0.07458667370235308},
{ 0.8787137873293994, -0.2917455106725621, 0.14649546267758162},
{ 0.8787137873293994, 0.2917455106725621, 0.14649546267758162},
{ 0.8787137873293994, 0.8787137873293994, 0.07458667370235308},
{ 0.8787137873293994, 1.4766827311411408, 0.018709245648371054},
{ 0.8787137873293994, 2.095183258507717, 0.0021438939772569646},
{ 0.8787137873293994, 2.7484707249854026, 9.697778449831324e-05},
{ 0.8787137873293994, 3.4626569336022706, 1.2880983324194313e-06},
{ 0.8787137873293994, 4.304448570473632, 2.3565166463372002e-09},
{ 1.4766827311411408, -4.304448570473632, 5.911062475682877e-10},
{ 1.4766827311411408, -3.4626569336022706, 3.2310528039718663e-07},
{ 1.4766827311411408, -2.7484707249854026, 2.432580919018101e-05},
{ 1.4766827311411408, -2.095183258507717, 0.0005377721927194395},
{ 1.4766827311411408, -1.4766827311411408, 0.004693008219242363},
{ 1.4766827311411408, -0.8787137873293994, 0.018709245648371054},
{ 1.4766827311411408, -0.2917455106725621, 0.03674677340545058},
{ 1.4766827311411408, 0.2917455106725621, 0.03674677340545058},
{ 1.4766827311411408, 0.8787137873293994, 0.018709245648371054},
{ 1.4766827311411408, 1.4766827311411408, 0.004693008219242363},
{ 1.4766827311411408, 2.095183258507717, 0.0005377721927194395},
{ 1.4766827311411408, 2.7484707249854026, 2.432580919018101e-05},
{ 1.4766827311411408, 3.4626569336022706, 3.2310528039718663e-07},
{ 1.4766827311411408, 4.304448570473632, 5.911062475682877e-10},
{ 2.095183258507717, -4.304448570473632, 6.773491288201418e-11},
{ 2.095183258507717, -3.4626569336022706, 3.7024660303381195e-08},
{ 2.095183258507717, -2.7484707249854026, 2.7874964493435825e-06},
{ 2.095183258507717, -2.095183258507717, 6.162335920838472e-05},
{ 2.095183258507717, -1.4766827311411408, 0.0005377721927194395},
{ 2.095183258507717, -0.8787137873293994, 0.0021438939772569646},
{ 2.095183258507717, -0.2917455106725621, 0.004210815746835367},
{ 2.095183258507717, 0.2917455106725621, 0.004210815746835367},
{ 2.095183258507717, 0.8787137873293994, 0.0021438939772569646},
{ 2.095183258507717, 1.4766827311411408, 0.0005377721927194395},
{ 2.095183258507717, 2.095183258507717, 6.162335920838472e-05},
{ 2.095183258507717, 2.7484707249854026, 2.7874964493435825e-06},
{ 2.095183258507717, 3.4626569336022706, 3.7024660303381195e-08},
{ 2.095183258507717, 4.304448570473632, 6.773491288201418e-11},
{ 2.7484707249854026, -4.304448570473632, 3.0639489891606082e-12},
{ 2.7484707249854026, -3.4626569336022706, 1.6747887564004258e-09},
{ 2.7484707249854026, -2.7484707249854026, 1.2609076419913576e-07},
{ 2.7484707249854026, -2.095183258507717, 2.7874964493435825e-06},
{ 2.7484707249854026, -1.4766827311411408, 2.432580919018101e-05},
{ 2.7484707249854026, -0.8787137873293994, 9.697778449831324e-05},
{ 2.7484707249854026, -0.2917455106725621, 0.00019047377640436325},
{ 2.7484707249854026, 0.2917455106725621, 0.00019047377640436325},
{ 2.7484707249854026, 0.8787137873293994, 9.697778449831324e-05},
{ 2.7484707249854026, 1.4766827311411408, 2.432580919018101e-05},
{ 2.7484707249854026, 2.095183258507717, 2.7874964493435825e-06},
{ 2.7484707249854026, 2.7484707249854026, 1.2609076419913576e-07},
{ 2.7484707249854026, 3.4626569336022706, 1.6747887564004258e-09},
{ 2.7484707249854026, 4.304448570473632, 3.0639489891606082e-12},
{ 3.4626569336022706, -4.304448570473632, 4.069661525031671e-14},
{ 3.4626569336022706, -3.4626569336022706, 2.2245224671138205e-11},
{ 3.4626569336022706, -2.7484707249854026, 1.6747887564004258e-09},
{ 3.4626569336022706, -2.095183258507717, 3.7024660303381195e-08},
{ 3.4626569336022706, -1.4766827311411408, 3.2310528039718663e-07},
{ 3.4626569336022706, -0.8787137873293994, 1.2880983324194313e-06},
{ 3.4626569336022706, -0.2917455106725621, 2.5299500810967625e-06},
{ 3.4626569336022706, 0.2917455106725621, 2.5299500810967625e-06},
{ 3.4626569336022706, 0.8787137873293994, 1.2880983324194313e-06},
{ 3.4626569336022706, 1.4766827311411408, 3.2310528039718663e-07},
{ 3.4626569336022706, 2.095183258507717, 3.7024660303381195e-08},
{ 3.4626569336022706, 2.7484707249854026, 1.6747887564004258e-09},
{ 3.4626569336022706, 3.4626569336022706, 2.2245224671138205e-11},
{ 3.4626569336022706, 4.304448570473632, 4.069661525031671e-14},
{ 4.304448570473632, -4.304448570473632, 7.445258554664748e-17},
{ 4.304448570473632, -3.4626569336022706, 4.069661525031671e-14},
{ 4.304448570473632, -2.7484707249854026, 3.0639489891606082e-12},
{ 4.304448570473632, -2.095183258507717, 6.773491288201418e-11},
{ 4.304448570473632, -1.4766827311411408, 5.911062475682877e-10},
{ 4.304448570473632, -0.8787137873293994, 2.3565166463372002e-09},
{ 4.304448570473632, -0.2917455106725621, 4.628427295071882e-09},
{ 4.304448570473632, 0.2917455106725621, 4.628427295071882e-09},
{ 4.304448570473632, 0.8787137873293994, 2.3565166463372002e-09},
{ 4.304448570473632, 1.4766827311411408, 5.911062475682877e-10},
{ 4.304448570473632, 2.095183258507717, 6.773491288201418e-11},
{ 4.304448570473632, 2.7484707249854026, 3.0639489891606082e-12},
{ 4.304448570473632, 3.4626569336022706, 4.069661525031671e-14},
{ 4.304448570473632, 4.304448570473632, 7.445258554664748e-17}
};
#endif // 196
#if 0
const Real ew[1089][3] = {
{ -5.65685424949, -5.65685424949, 2.4385842671339507e-17},
{ -5.65685424949, -5.3033008588968755, 7.738116511911984e-16},
{ -5.65685424949, -4.94974746830375, 1.777564141483522e-15},
{ -5.65685424949, -4.596194077710625, 2.5625122560023083e-14},
{ -5.65685424949, -4.2426406871175, 5.3484647338906004e-14},
{ -5.65685424949, -3.8890872965243752, 5.146943453392538e-13},
{ -5.65685424949, -3.53553390593125, 7.171205569510248e-13},
{ -5.65685424949, -3.1819805153381253, 6.270260753690493e-12},
{ -5.65685424949, -2.828427124745, 7.937825475020865e-12},
{ -5.65685424949, -2.474873734151875, 4.6331308463864336e-11},
{ -5.65685424949, -2.12132034355875, 3.915345576013222e-11},
{ -5.65685424949, -1.767766952965625, 2.0764251875670005e-10},
{ -5.65685424949, -1.4142135623724998, 1.5943548666794885e-10},
{ -5.65685424949, -1.060660171779375, 5.644308855513292e-10},
{ -5.65685424949, -0.7071067811862504, 2.8930708107812945e-10},
{ -5.65685424949, -0.35355339059312474, 9.305892068481948e-10},
{ -5.65685424949, 0.0, 4.333905862206449e-10},
{ -5.65685424949, 0.35355339059312474, 9.305892068481948e-10},
{ -5.65685424949, 0.7071067811862504, 2.8930708107812945e-10},
{ -5.65685424949, 1.060660171779375, 5.644308855513292e-10},
{ -5.65685424949, 1.4142135623724998, 1.5943548666794885e-10},
{ -5.65685424949, 1.7677669529656255, 2.0764251875669993e-10},
{ -5.65685424949, 2.12132034355875, 3.915345576013222e-11},
{ -5.65685424949, 2.474873734151875, 4.6331308463864336e-11},
{ -5.65685424949, 2.8284271247450006, 7.937825475020854e-12},
{ -5.65685424949, 3.1819805153381244, 6.2702607536905156e-12},
{ -5.65685424949, 3.53553390593125, 7.171205569510248e-13},
{ -5.65685424949, 3.8890872965243757, 5.146943453392527e-13},
{ -5.65685424949, 4.2426406871174995, 5.34846473389062e-14},
{ -5.65685424949, 4.596194077710625, 2.5625122560023083e-14},
{ -5.65685424949, 4.949747468303751, 1.7775641414835126e-15},
{ -5.65685424949, 5.303300858896875, 7.738116511912026e-16},
{ -5.65685424949, 5.65685424949, 2.4385842671339507e-17},
{ -5.3033008588968755, -5.65685424949, 7.7381165119119845e-16},
{ -5.3033008588968755, -5.3033008588968755, 2.4554594220481685e-14},
{ -5.3033008588968755, -4.94974746830375, 5.6405672010516304e-14},
{ -5.3033008588968755, -4.596194077710625, 8.131364852711519e-13},
{ -5.3033008588968755, -4.2426406871175, 1.6971750301390922e-12},
{ -5.3033008588968755, -3.8890872965243752, 1.6332282898463537e-11},
{ -5.3033008588968755, -3.53553390593125, 2.2755672205234596e-11},
{ -5.3033008588968755, -3.1819805153381253, 1.9896793777461406e-10},
{ -5.3033008588968755, -2.828427124745, 2.5188310777189365e-10},
{ -5.3033008588968755, -2.474873734151875, 1.4701852541026945e-09},
{ -5.3033008588968755, -2.12132034355875, 1.242417605162267e-09},
{ -5.3033008588968755, -1.767766952965625, 6.588913184675915e-09},
{ -5.3033008588968755, -1.4142135623724998, 5.059207461466859e-09},
{ -5.3033008588968755, -1.060660171779375, 1.791052297918369e-08},
{ -5.3033008588968755, -0.7071067811862504, 9.18029338282761e-09},
{ -5.3033008588968755, -0.35355339059312474, 2.9529460205131154e-08},
{ -5.3033008588968755, 0.0, 1.3752351708898204e-08},
{ -5.3033008588968755, 0.35355339059312474, 2.9529460205131154e-08},
{ -5.3033008588968755, 0.7071067811862504, 9.18029338282761e-09},
{ -5.3033008588968755, 1.060660171779375, 1.791052297918369e-08},
{ -5.3033008588968755, 1.4142135623724998, 5.059207461466859e-09},
{ -5.3033008588968755, 1.7677669529656255, 6.588913184675911e-09},
{ -5.3033008588968755, 2.12132034355875, 1.242417605162267e-09},
{ -5.3033008588968755, 2.474873734151875, 1.4701852541026945e-09},
{ -5.3033008588968755, 2.8284271247450006, 2.5188310777189334e-10},
{ -5.3033008588968755, 3.1819805153381244, 1.989679377746148e-10},
{ -5.3033008588968755, 3.53553390593125, 2.2755672205234596e-11},
{ -5.3033008588968755, 3.8890872965243757, 1.633228289846351e-11},
{ -5.3033008588968755, 4.2426406871174995, 1.6971750301390983e-12},
{ -5.3033008588968755, 4.596194077710625, 8.131364852711519e-13},
{ -5.3033008588968755, 4.949747468303751, 5.6405672010516e-14},
{ -5.3033008588968755, 5.303300858896875, 2.455459422048182e-14},
{ -5.3033008588968755, 5.65685424949, 7.7381165119119845e-16},
{ -4.94974746830375, -5.65685424949, 1.777564141483522e-15},
{ -4.94974746830375, -5.3033008588968755, 5.64056720105163e-14},
{ -4.94974746830375, -4.94974746830375, 1.2957248677740638e-13},
{ -4.94974746830375, -4.596194077710625, 1.8678993216565107e-12},
{ -4.94974746830375, -4.2426406871175, 3.898671557545528e-12},
{ -4.94974746830375, -3.8890872965243752, 3.751776079383434e-11},
{ -4.94974746830375, -3.53553390593125, 5.227327201019839e-11},
{ -4.94974746830375, -3.1819805153381253, 4.570598942890427e-10},
{ -4.94974746830375, -2.828427124745, 5.786141621562605e-10},
{ -4.94974746830375, -2.474873734151875, 3.377241199467371e-09},
{ -4.94974746830375, -2.12132034355875, 2.8540239479265656e-09},
{ -4.94974746830375, -1.767766952965625, 1.5135744971529216e-08},
{ -4.94974746830375, -1.4142135623724998, 1.162177611823953e-08},
{ -4.94974746830375, -1.060660171779375, 4.114322051626363e-08},
{ -4.94974746830375, -0.7071067811862504, 2.108854305888543e-08},
{ -4.94974746830375, -0.35355339059312474, 6.783370281024121e-08},
{ -4.94974746830375, 0.0, 3.1591262836603224e-08},
{ -4.94974746830375, 0.35355339059312474, 6.783370281024121e-08},
{ -4.94974746830375, 0.7071067811862504, 2.108854305888543e-08},
{ -4.94974746830375, 1.060660171779375, 4.114322051626363e-08},
{ -4.94974746830375, 1.4142135623724998, 1.162177611823953e-08},
{ -4.94974746830375, 1.7677669529656255, 1.5135744971529206e-08},
{ -4.94974746830375, 2.12132034355875, 2.8540239479265656e-09},
{ -4.94974746830375, 2.474873734151875, 3.377241199467371e-09},
{ -4.94974746830375, 2.8284271247450006, 5.786141621562596e-10},
{ -4.94974746830375, 3.1819805153381244, 4.570598942890443e-10},
{ -4.94974746830375, 3.53553390593125, 5.227327201019839e-11},
{ -4.94974746830375, 3.8890872965243757, 3.751776079383427e-11},
{ -4.94974746830375, 4.2426406871174995, 3.898671557545541e-12},
{ -4.94974746830375, 4.596194077710625, 1.8678993216565107e-12},
{ -4.94974746830375, 4.949747468303751, 1.295724867774057e-13},
{ -4.94974746830375, 5.303300858896875, 5.640567201051661e-14},
{ -4.94974746830375, 5.65685424949, 1.777564141483522e-15},
{ -4.596194077710625, -5.65685424949, 2.562512256002308e-14},
{ -4.596194077710625, -5.3033008588968755, 8.131364852711519e-13},
{ -4.596194077710625, -4.94974746830375, 1.8678993216565107e-12},
{ -4.596194077710625, -4.596194077710625, 2.6927382213777496e-11},
{ -4.596194077710625, -4.2426406871175, 5.620271817589785e-11},
{ -4.596194077710625, -3.8890872965243752, 5.408509296982495e-10},
{ -4.596194077710625, -3.53553390593125, 7.535643696979782e-10},
{ -4.596194077710625, -3.1819805153381253, 6.588913184675921e-09},
{ -4.596194077710625, -2.828427124745, 8.341222954601712e-09},
{ -4.596194077710625, -2.474873734151875, 4.868584915247233e-08},
{ -4.596194077710625, -2.12132034355875, 4.114322051626351e-08},
{ -4.596194077710625, -1.767766952965625, 2.1819483802648743e-07},
{ -4.596194077710625, -1.4142135623724998, 1.6753794163877036e-07},
{ -4.596194077710625, -1.060660171779375, 5.931150632704664e-07},
{ -4.596194077710625, -0.7071067811862504, 3.0400956448483386e-07},
{ -4.596194077710625, -0.35355339059312474, 9.778814207862591e-07},
{ -4.596194077710625, 0.0, 4.554153423337182e-07},
{ -4.596194077710625, 0.35355339059312474, 9.778814207862591e-07},
{ -4.596194077710625, 0.7071067811862504, 3.0400956448483386e-07},
{ -4.596194077710625, 1.060660171779375, 5.931150632704664e-07},
{ -4.596194077710625, 1.4142135623724998, 1.6753794163877036e-07},
{ -4.596194077710625, 1.7677669529656255, 2.1819483802648727e-07},
{ -4.596194077710625, 2.12132034355875, 4.114322051626351e-08},
{ -4.596194077710625, 2.474873734151875, 4.868584915247233e-08},
{ -4.596194077710625, 2.8284271247450006, 8.341222954601703e-09},
{ -4.596194077710625, 3.1819805153381244, 6.588913184675944e-09},
{ -4.596194077710625, 3.53553390593125, 7.535643696979782e-10},
{ -4.596194077710625, 3.8890872965243757, 5.408509296982485e-10},
{ -4.596194077710625, 4.2426406871174995, 5.620271817589806e-11},
{ -4.596194077710625, 4.596194077710625, 2.6927382213777496e-11},
{ -4.596194077710625, 4.949747468303751, 1.867899321656501e-12},
{ -4.596194077710625, 5.303300858896875, 8.131364852711563e-13},
{ -4.596194077710625, 5.65685424949, 2.562512256002308e-14},
{ -4.2426406871175, -5.65685424949, 5.3484647338906004e-14},
{ -4.2426406871175, -5.3033008588968755, 1.697175030139092e-12},
{ -4.2426406871175, -4.94974746830375, 3.898671557545528e-12},
{ -4.2426406871175, -4.596194077710625, 5.620271817589786e-11},
{ -4.2426406871175, -4.2426406871175, 1.1730607547670253e-10},
{ -4.2426406871175, -3.8890872965243752, 1.1288617711026574e-09},
{ -4.2426406871175, -3.53553390593125, 1.5728363626770903e-09},
{ -4.2426406871175, -3.1819805153381253, 1.3752351708898218e-08},
{ -4.2426406871175, -2.828427124745, 1.7409765243349472e-08},
{ -4.2426406871175, -2.474873734151875, 1.0161689826910287e-07},
{ -4.2426406871175, -2.12132034355875, 8.58739557067396e-08},
{ -4.2426406871175, -1.767766952965625, 4.554153423337183e-07},
{ -4.2426406871175, -1.4142135623724998, 3.4968448261844247e-07},
{ -4.2426406871175, -1.060660171779375, 1.23794724946616e-06},
{ -4.2426406871175, -0.7071067811862504, 6.345274761531169e-07},
{ -4.2426406871175, -0.35355339059312474, 2.0410299621987174e-06},
{ -4.2426406871175, 0.0, 9.505409747950149e-07},
{ -4.2426406871175, 0.35355339059312474, 2.0410299621987174e-06},
{ -4.2426406871175, 0.7071067811862504, 6.345274761531169e-07},
{ -4.2426406871175, 1.060660171779375, 1.23794724946616e-06},
{ -4.2426406871175, 1.4142135623724998, 3.4968448261844247e-07},
{ -4.2426406871175, 1.7677669529656255, 4.554153423337179e-07},
{ -4.2426406871175, 2.12132034355875, 8.58739557067396e-08},
{ -4.2426406871175, 2.474873734151875, 1.0161689826910287e-07},
{ -4.2426406871175, 2.8284271247450006, 1.740976524334945e-08},
{ -4.2426406871175, 3.1819805153381244, 1.3752351708898266e-08},
{ -4.2426406871175, 3.53553390593125, 1.5728363626770903e-09},
{ -4.2426406871175, 3.8890872965243757, 1.1288617711026555e-09},
{ -4.2426406871175, 4.2426406871174995, 1.1730607547670292e-10},
{ -4.2426406871175, 4.596194077710625, 5.620271817589786e-11},
{ -4.2426406871175, 4.949747468303751, 3.898671557545507e-12},
{ -4.2426406871175, 5.303300858896875, 1.6971750301391013e-12},
{ -4.2426406871175, 5.65685424949, 5.3484647338906004e-14},
{ -3.8890872965243752, -5.65685424949, 5.146943453392538e-13},
{ -3.8890872965243752, -5.3033008588968755, 1.6332282898463537e-11},
{ -3.8890872965243752, -4.94974746830375, 3.751776079383434e-11},
{ -3.8890872965243752, -4.596194077710625, 5.408509296982495e-10},
{ -3.8890872965243752, -4.2426406871175, 1.1288617711026578e-09},
{ -3.8890872965243752, -3.8890872965243752, 1.0863281318367147e-08},
{ -3.8890872965243752, -3.53553390593125, 1.5135744971529177e-08},
{ -3.8890872965243752, -3.1819805153381253, 1.323418590541522e-07},
{ -3.8890872965243752, -2.828427124745, 1.6753794163877033e-07},
{ -3.8890872965243752, -2.474873734151875, 9.778814207862597e-07},
{ -3.8890872965243752, -2.12132034355875, 8.26383674816177e-07},
{ -3.8890872965243752, -1.767766952965625, 4.382560475618903e-06},
{ -3.8890872965243752, -1.4142135623724998, 3.3650895128118885e-06},
{ -3.8890872965243752, -1.060660171779375, 1.1913034502987672e-05},
{ -3.8890872965243752, -0.7071067811862504, 6.106195332446919e-06},
{ -3.8890872965243752, -0.35355339059312474, 1.9641273383652044e-05},
{ -3.8890872965243752, 0.0, 9.147261673806959e-06},
{ -3.8890872965243752, 0.35355339059312474, 1.9641273383652044e-05},
{ -3.8890872965243752, 0.7071067811862504, 6.106195332446919e-06},
{ -3.8890872965243752, 1.060660171779375, 1.1913034502987672e-05},
{ -3.8890872965243752, 1.4142135623724998, 3.3650895128118885e-06},
{ -3.8890872965243752, 1.7677669529656255, 4.382560475618901e-06},
{ -3.8890872965243752, 2.12132034355875, 8.26383674816177e-07},
{ -3.8890872965243752, 2.474873734151875, 9.778814207862597e-07},
{ -3.8890872965243752, 2.8284271247450006, 1.6753794163877012e-07},
{ -3.8890872965243752, 3.1819805153381244, 1.3234185905415267e-07},
{ -3.8890872965243752, 3.53553390593125, 1.5135744971529177e-08},
{ -3.8890872965243752, 3.8890872965243757, 1.0863281318367127e-08},
{ -3.8890872965243752, 4.2426406871174995, 1.1288617711026615e-09},
{ -3.8890872965243752, 4.596194077710625, 5.408509296982495e-10},
{ -3.8890872965243752, 4.949747468303751, 3.751776079383415e-11},
{ -3.8890872965243752, 5.303300858896875, 1.633228289846363e-11},
{ -3.8890872965243752, 5.65685424949, 5.146943453392538e-13},
{ -3.53553390593125, -5.65685424949, 7.171205569510247e-13},
{ -3.53553390593125, -5.3033008588968755, 2.2755672205234593e-11},
{ -3.53553390593125, -4.94974746830375, 5.22732720101984e-11},
{ -3.53553390593125, -4.596194077710625, 7.535643696979782e-10},
{ -3.53553390593125, -4.2426406871175, 1.5728363626770905e-09},
{ -3.53553390593125, -3.8890872965243752, 1.5135744971529177e-08},
{ -3.53553390593125, -3.53553390593125, 2.108854305888538e-08},
{ -3.53553390593125, -3.1819805153381253, 1.8439112170601418e-07},
{ -3.53553390593125, -2.828427124745, 2.334296133353309e-07},
{ -3.53553390593125, -2.474873734151875, 1.3624763424281972e-06},
{ -3.53553390593125, -2.12132034355875, 1.1513954379055711e-06},
{ -3.53553390593125, -1.767766952965625, 6.106195332446923e-06},
{ -3.53553390593125, -1.4142135623724998, 4.6885591176003745e-06},
{ -3.53553390593125, -1.060660171779375, 1.6598359813197943e-05},
{ -3.53553390593125, -0.7071067811862504, 8.50772548272277e-06},
{ -3.53553390593125, -0.35355339059312474, 2.7366068882742143e-05},
{ -3.53553390593125, 0.0, 1.2744825051018347e-05},
{ -3.53553390593125, 0.35355339059312474, 2.7366068882742143e-05},
{ -3.53553390593125, 0.7071067811862504, 8.50772548272277e-06},
{ -3.53553390593125, 1.060660171779375, 1.6598359813197943e-05},
{ -3.53553390593125, 1.4142135623724998, 4.6885591176003745e-06},
{ -3.53553390593125, 1.7677669529656255, 6.106195332446919e-06},
{ -3.53553390593125, 2.12132034355875, 1.1513954379055711e-06},
{ -3.53553390593125, 2.474873734151875, 1.3624763424281972e-06},
{ -3.53553390593125, 2.8284271247450006, 2.3342961333533057e-07},
{ -3.53553390593125, 3.1819805153381244, 1.8439112170601484e-07},
{ -3.53553390593125, 3.53553390593125, 2.108854305888538e-08},
{ -3.53553390593125, 3.8890872965243757, 1.5135744971529147e-08},
{ -3.53553390593125, 4.2426406871174995, 1.5728363626770959e-09},
{ -3.53553390593125, 4.596194077710625, 7.535643696979782e-10},
{ -3.53553390593125, 4.949747468303751, 5.227327201019812e-11},
{ -3.53553390593125, 5.303300858896875, 2.275567220523472e-11},
{ -3.53553390593125, 5.65685424949, 7.171205569510247e-13},
{ -3.1819805153381253, -5.65685424949, 6.270260753690492e-12},
{ -3.1819805153381253, -5.3033008588968755, 1.9896793777461406e-10},
{ -3.1819805153381253, -4.94974746830375, 4.570598942890427e-10},
{ -3.1819805153381253, -4.596194077710625, 6.588913184675921e-09},
{ -3.1819805153381253, -4.2426406871175, 1.375235170889822e-08},
{ -3.1819805153381253, -3.8890872965243752, 1.323418590541522e-07},
{ -3.1819805153381253, -3.53553390593125, 1.843911217060142e-07},
{ -3.1819805153381253, -3.1819805153381253, 1.6122538986720868e-06},
{ -3.1819805153381253, -2.828427124745, 2.041029962198716e-06},
{ -3.1819805153381253, -2.474873734151875, 1.1913034502987674e-05},
{ -3.1819805153381253, -2.12132034355875, 1.0067414127650836e-05},
{ -3.1819805153381253, -1.767766952965625, 5.339051652653269e-05},
{ -3.1819805153381253, -1.4142135623724998, 4.099518266697117e-05},
{ -3.1819805153381253, -1.060660171779375, 0.00014513047088599406},
{ -3.1819805153381253, -0.7071067811862504, 7.438868776025381e-05},
{ -3.1819805153381253, -0.35355339059312474, 0.00023927969437636344},
{ -3.1819805153381253, 0.0, 0.00011143646009789314},
{ -3.1819805153381253, 0.35355339059312474, 0.00023927969437636344},
{ -3.1819805153381253, 0.7071067811862504, 7.438868776025381e-05},
{ -3.1819805153381253, 1.060660171779375, 0.00014513047088599406},
{ -3.1819805153381253, 1.4142135623724998, 4.099518266697117e-05},
{ -3.1819805153381253, 1.7677669529656255, 5.3390516526532655e-05},
{ -3.1819805153381253, 2.12132034355875, 1.0067414127650836e-05},
{ -3.1819805153381253, 2.474873734151875, 1.1913034502987674e-05},
{ -3.1819805153381253, 2.8284271247450006, 2.041029962198713e-06},
{ -3.1819805153381253, 3.1819805153381244, 1.6122538986720925e-06},
{ -3.1819805153381253, 3.53553390593125, 1.843911217060142e-07},
{ -3.1819805153381253, 3.8890872965243757, 1.3234185905415193e-07},
{ -3.1819805153381253, 4.2426406871174995, 1.3752351708898266e-08},
{ -3.1819805153381253, 4.596194077710625, 6.588913184675921e-09},
{ -3.1819805153381253, 4.949747468303751, 4.5705989428904025e-10},
{ -3.1819805153381253, 5.303300858896875, 1.9896793777461515e-10},
{ -3.1819805153381253, 5.65685424949, 6.270260753690492e-12},
{ -2.828427124745, -5.65685424949, 7.937825475020863e-12},
{ -2.828427124745, -5.3033008588968755, 2.518831077718937e-10},
{ -2.828427124745, -4.94974746830375, 5.786141621562605e-10},
{ -2.828427124745, -4.596194077710625, 8.341222954601712e-09},
{ -2.828427124745, -4.2426406871175, 1.7409765243349472e-08},
{ -2.828427124745, -3.8890872965243752, 1.6753794163877033e-07},
{ -2.828427124745, -3.53553390593125, 2.3342961333533089e-07},
{ -2.828427124745, -3.1819805153381253, 2.0410299621987157e-06},
{ -2.828427124745, -2.828427124745, 2.583838258988863e-06},
{ -2.828427124745, -2.474873734151875, 1.508128489025926e-05},
{ -2.828427124745, -2.12132034355875, 1.2744825051018347e-05},
{ -2.828427124745, -1.767766952965625, 6.758962965924417e-05},
{ -2.828427124745, -1.4142135623724998, 5.189777875433476e-05},
{ -2.828427124745, -1.060660171779375, 0.00018372766209484538},
{ -2.828427124745, -0.7071067811862504, 9.417222727287277e-05},
{ -2.828427124745, -0.35355339059312474, 0.0003029157045116499},
{ -2.828427124745, 0.0, 0.00014107278892517734},
{ -2.828427124745, 0.35355339059312474, 0.0003029157045116499},
{ -2.828427124745, 0.7071067811862504, 9.417222727287277e-05},
{ -2.828427124745, 1.060660171779375, 0.00018372766209484538},
{ -2.828427124745, 1.4142135623724998, 5.189777875433476e-05},
{ -2.828427124745, 1.7677669529656255, 6.758962965924414e-05},
{ -2.828427124745, 2.12132034355875, 1.2744825051018347e-05},
{ -2.828427124745, 2.474873734151875, 1.508128489025926e-05},
{ -2.828427124745, 2.8284271247450006, 2.58383825898886e-06},
{ -2.828427124745, 3.1819805153381244, 2.0410299621987233e-06},
{ -2.828427124745, 3.53553390593125, 2.3342961333533089e-07},
{ -2.828427124745, 3.8890872965243757, 1.6753794163877002e-07},
{ -2.828427124745, 4.2426406871174995, 1.740976524334953e-08},
{ -2.828427124745, 4.596194077710625, 8.341222954601712e-09},
{ -2.828427124745, 4.949747468303751, 5.786141621562574e-10},
{ -2.828427124745, 5.303300858896875, 2.5188310777189504e-10},
{ -2.828427124745, 5.65685424949, 7.937825475020863e-12},
{ -2.474873734151875, -5.65685424949, 4.6331308463864336e-11},
{ -2.474873734151875, -5.3033008588968755, 1.4701852541026945e-09},
{ -2.474873734151875, -4.94974746830375, 3.3772411994673707e-09},
{ -2.474873734151875, -4.596194077710625, 4.868584915247233e-08},
{ -2.474873734151875, -4.2426406871175, 1.0161689826910289e-07},
{ -2.474873734151875, -3.8890872965243752, 9.778814207862597e-07},
{ -2.474873734151875, -3.53553390593125, 1.3624763424281972e-06},
{ -2.474873734151875, -3.1819805153381253, 1.1913034502987674e-05},
{ -2.474873734151875, -2.828427124745, 1.5081284890259265e-05},
{ -2.474873734151875, -2.474873734151875, 8.802608025092434e-05},
{ -2.474873734151875, -2.12132034355875, 7.438868776025393e-05},
{ -2.474873734151875, -1.767766952965625, 0.0003945055217647708},
{ -2.474873734151875, -1.4142135623724998, 0.0003029157045116501},
{ -2.474873734151875, -1.060660171779375, 0.0010723771910390286},
{ -2.474873734151875, -0.7071067811862504, 0.0005496621869854271},
{ -2.474873734151875, -0.35355339059312474, 0.0017680510850789576},
{ -2.474873734151875, 0.0, 0.000823410255128195},
{ -2.474873734151875, 0.35355339059312474, 0.0017680510850789576},
{ -2.474873734151875, 0.7071067811862504, 0.0005496621869854271},
{ -2.474873734151875, 1.060660171779375, 0.0010723771910390286},
{ -2.474873734151875, 1.4142135623724998, 0.0003029157045116501},
{ -2.474873734151875, 1.7677669529656255, 0.0003945055217647705},
{ -2.474873734151875, 2.12132034355875, 7.438868776025393e-05},
{ -2.474873734151875, 2.474873734151875, 8.802608025092434e-05},
{ -2.474873734151875, 2.8284271247450006, 1.5081284890259243e-05},
{ -2.474873734151875, 3.1819805153381244, 1.1913034502987714e-05},
{ -2.474873734151875, 3.53553390593125, 1.3624763424281972e-06},
{ -2.474873734151875, 3.8890872965243757, 9.778814207862578e-07},
{ -2.474873734151875, 4.2426406871174995, 1.0161689826910323e-07},
{ -2.474873734151875, 4.596194077710625, 4.868584915247233e-08},
{ -2.474873734151875, 4.949747468303751, 3.3772411994673534e-09},
{ -2.474873734151875, 5.303300858896875, 1.4701852541027023e-09},
{ -2.474873734151875, 5.65685424949, 4.6331308463864336e-11},
{ -2.12132034355875, -5.65685424949, 3.915345576013222e-11},
{ -2.12132034355875, -5.3033008588968755, 1.2424176051622667e-09},
{ -2.12132034355875, -4.94974746830375, 2.8540239479265656e-09},
{ -2.12132034355875, -4.596194077710625, 4.11432205162635e-08},
{ -2.12132034355875, -4.2426406871175, 8.58739557067396e-08},
{ -2.12132034355875, -3.8890872965243752, 8.26383674816177e-07},
{ -2.12132034355875, -3.53553390593125, 1.1513954379055711e-06},
{ -2.12132034355875, -3.1819805153381253, 1.0067414127650836e-05},
{ -2.12132034355875, -2.828427124745, 1.2744825051018347e-05},
{ -2.12132034355875, -2.474873734151875, 7.438868776025395e-05},
{ -2.12132034355875, -2.12132034355875, 6.28640608660346e-05},
{ -2.12132034355875, -1.767766952965625, 0.0003333869688915},
{ -2.12132034355875, -1.4142135623724998, 0.00025598665414115},
{ -2.12132034355875, -1.060660171779375, 0.000906239739382043},
{ -2.12132034355875, -0.7071067811862504, 0.0004645060723449389},
{ -2.12132034355875, -0.35355339059312474, 0.0014941367346722866},
{ -2.12132034355875, 0.0, 0.0006958438702793328},
{ -2.12132034355875, 0.35355339059312474, 0.0014941367346722866},
{ -2.12132034355875, 0.7071067811862504, 0.0004645060723449389},
{ -2.12132034355875, 1.060660171779375, 0.000906239739382043},
{ -2.12132034355875, 1.4142135623724998, 0.00025598665414115},
{ -2.12132034355875, 1.7677669529656255, 0.00033338696889149977},
{ -2.12132034355875, 2.12132034355875, 6.28640608660346e-05},
{ -2.12132034355875, 2.474873734151875, 7.438868776025395e-05},
{ -2.12132034355875, 2.8284271247450006, 1.2744825051018328e-05},
{ -2.12132034355875, 3.1819805153381244, 1.0067414127650872e-05},
{ -2.12132034355875, 3.53553390593125, 1.1513954379055711e-06},
{ -2.12132034355875, 3.8890872965243757, 8.263836748161754e-07},
{ -2.12132034355875, 4.2426406871174995, 8.58739557067399e-08},
{ -2.12132034355875, 4.596194077710625, 4.11432205162635e-08},
{ -2.12132034355875, 4.949747468303751, 2.8540239479265507e-09},
{ -2.12132034355875, 5.303300858896875, 1.2424176051622735e-09},
{ -2.12132034355875, 5.65685424949, 3.915345576013222e-11},
{ -1.767766952965625, -5.65685424949, 2.0764251875670003e-10},
{ -1.767766952965625, -5.3033008588968755, 6.588913184675915e-09},
{ -1.767766952965625, -4.94974746830375, 1.513574497152922e-08},
{ -1.767766952965625, -4.596194077710625, 2.181948380264874e-07},
{ -1.767766952965625, -4.2426406871175, 4.554153423337183e-07},
{ -1.767766952965625, -3.8890872965243752, 4.382560475618903e-06},
{ -1.767766952965625, -3.53553390593125, 6.106195332446923e-06},
{ -1.767766952965625, -3.1819805153381253, 5.339051652653269e-05},
{ -1.767766952965625, -2.828427124745, 6.758962965924417e-05},
{ -1.767766952965625, -2.474873734151875, 0.00039450552176477073},
{ -1.767766952965625, -2.12132034355875, 0.00033338696889150004},
{ -1.767766952965625, -1.767766952965625, 0.001768051085078956},
{ -1.767766952965625, -1.4142135623724998, 0.0013575740021419026},
{ -1.767766952965625, -1.060660171779375, 0.0048060611363533795},
{ -1.767766952965625, -0.7071067811862504, 0.0024634150157875952},
{ -1.767766952965625, -0.35355339059312474, 0.007923855223787713},
{ -1.767766952965625, 0.0, 0.0036902687408076488},
{ -1.767766952965625, 0.35355339059312474, 0.007923855223787713},
{ -1.767766952965625, 0.7071067811862504, 0.0024634150157875952},
{ -1.767766952965625, 1.060660171779375, 0.0048060611363533795},
{ -1.767766952965625, 1.4142135623724998, 0.0013575740021419026},
{ -1.767766952965625, 1.7677669529656255, 0.0017680510850789548},
{ -1.767766952965625, 2.12132034355875, 0.00033338696889150004},
{ -1.767766952965625, 2.474873734151875, 0.00039450552176477073},
{ -1.767766952965625, 2.8284271247450006, 6.758962965924409e-05},
{ -1.767766952965625, 3.1819805153381244, 5.339051652653287e-05},
{ -1.767766952965625, 3.53553390593125, 6.106195332446923e-06},
{ -1.767766952965625, 3.8890872965243757, 4.382560475618895e-06},
{ -1.767766952965625, 4.2426406871174995, 4.554153423337199e-07},
{ -1.767766952965625, 4.596194077710625, 2.181948380264874e-07},
{ -1.767766952965625, 4.949747468303751, 1.5135744971529137e-08},
{ -1.767766952965625, 5.303300858896875, 6.58891318467595e-09},
{ -1.767766952965625, 5.65685424949, 2.0764251875670003e-10},
{ -1.4142135623724998, -5.65685424949, 1.5943548666794885e-10},
{ -1.4142135623724998, -5.3033008588968755, 5.059207461466859e-09},
{ -1.4142135623724998, -4.94974746830375, 1.162177611823953e-08},
{ -1.4142135623724998, -4.596194077710625, 1.6753794163877036e-07},
{ -1.4142135623724998, -4.2426406871175, 3.496844826184425e-07},
{ -1.4142135623724998, -3.8890872965243752, 3.3650895128118885e-06},
{ -1.4142135623724998, -3.53553390593125, 4.688559117600375e-06},
{ -1.4142135623724998, -3.1819805153381253, 4.099518266697117e-05},
{ -1.4142135623724998, -2.828427124745, 5.189777875433476e-05},
{ -1.4142135623724998, -2.474873734151875, 0.0003029157045116501},
{ -1.4142135623724998, -2.12132034355875, 0.00025598665414115003},
{ -1.4142135623724998, -1.767766952965625, 0.0013575740021419028},
{ -1.4142135623724998, -1.4142135623724998, 0.0010423947513989844},
{ -1.4142135623724998, -1.060660171779375, 0.0036902687408076496},
{ -1.4142135623724998, -0.7071067811862504, 0.0018914997480233323},
{ -1.4142135623724998, -0.35355339059312474, 0.006084224567566791},
{ -1.4142135623724998, 0.0, 0.002833522710806558},
{ -1.4142135623724998, 0.35355339059312474, 0.006084224567566791},
{ -1.4142135623724998, 0.7071067811862504, 0.0018914997480233323},
{ -1.4142135623724998, 1.060660171779375, 0.0036902687408076496},
{ -1.4142135623724998, 1.4142135623724998, 0.0010423947513989844},
{ -1.4142135623724998, 1.7677669529656255, 0.0013575740021419017},
{ -1.4142135623724998, 2.12132034355875, 0.00025598665414115003},
{ -1.4142135623724998, 2.474873734151875, 0.0003029157045116501},
{ -1.4142135623724998, 2.8284271247450006, 5.18977787543347e-05},
{ -1.4142135623724998, 3.1819805153381244, 4.0995182666971314e-05},
{ -1.4142135623724998, 3.53553390593125, 4.688559117600375e-06},
{ -1.4142135623724998, 3.8890872965243757, 3.365089512811882e-06},
{ -1.4142135623724998, 4.2426406871174995, 3.4968448261844374e-07},
{ -1.4142135623724998, 4.596194077710625, 1.6753794163877036e-07},
{ -1.4142135623724998, 4.949747468303751, 1.162177611823947e-08},
{ -1.4142135623724998, 5.303300858896875, 5.059207461466887e-09},
{ -1.4142135623724998, 5.65685424949, 1.5943548666794885e-10},
{ -1.060660171779375, -5.65685424949, 5.644308855513293e-10},
{ -1.060660171779375, -5.3033008588968755, 1.791052297918369e-08},
{ -1.060660171779375, -4.94974746830375, 4.114322051626363e-08},
{ -1.060660171779375, -4.596194077710625, 5.931150632704664e-07},
{ -1.060660171779375, -4.2426406871175, 1.2379472494661602e-06},
{ -1.060660171779375, -3.8890872965243752, 1.1913034502987672e-05},
{ -1.060660171779375, -3.53553390593125, 1.659835981319794e-05},
{ -1.060660171779375, -3.1819805153381253, 0.00014513047088599406},
{ -1.060660171779375, -2.828427124745, 0.0001837276620948454},
{ -1.060660171779375, -2.474873734151875, 0.0010723771910390286},
{ -1.060660171779375, -2.12132034355875, 0.0009062397393820429},
{ -1.060660171779375, -1.767766952965625, 0.0048060611363533795},
{ -1.060660171779375, -1.4142135623724998, 0.0036902687408076505},
{ -1.060660171779375, -1.060660171779375, 0.013064228653401629},
{ -1.060660171779375, -0.7071067811862504, 0.006696256273362939},
{ -1.060660171779375, -0.35355339059312474, 0.0215392716661443},
{ -1.060660171779375, 0.0, 0.010031190460259434},
{ -1.060660171779375, 0.35355339059312474, 0.0215392716661443},
{ -1.060660171779375, 0.7071067811862504, 0.006696256273362939},
{ -1.060660171779375, 1.060660171779375, 0.013064228653401629},
{ -1.060660171779375, 1.4142135623724998, 0.0036902687408076505},
{ -1.060660171779375, 1.7677669529656255, 0.004806061136353377},
{ -1.060660171779375, 2.12132034355875, 0.0009062397393820429},
{ -1.060660171779375, 2.474873734151875, 0.0010723771910390286},
{ -1.060660171779375, 2.8284271247450006, 0.00018372766209484516},
{ -1.060660171779375, 3.1819805153381244, 0.00014513047088599457},
{ -1.060660171779375, 3.53553390593125, 1.659835981319794e-05},
{ -1.060660171779375, 3.8890872965243757, 1.191303450298765e-05},
{ -1.060660171779375, 4.2426406871174995, 1.2379472494661644e-06},
{ -1.060660171779375, 4.596194077710625, 5.931150632704664e-07},
{ -1.060660171779375, 4.949747468303751, 4.114322051626341e-08},
{ -1.060660171779375, 5.303300858896875, 1.7910522979183786e-08},
{ -1.060660171779375, 5.65685424949, 5.644308855513293e-10},
{ -0.7071067811862504, -5.65685424949, 2.8930708107812945e-10},
{ -0.7071067811862504, -5.3033008588968755, 9.18029338282761e-09},
{ -0.7071067811862504, -4.94974746830375, 2.108854305888543e-08},
{ -0.7071067811862504, -4.596194077710625, 3.0400956448483386e-07},
{ -0.7071067811862504, -4.2426406871175, 6.34527476153117e-07},
{ -0.7071067811862504, -3.8890872965243752, 6.1061953324469205e-06},
{ -0.7071067811862504, -3.53553390593125, 8.50772548272277e-06},
{ -0.7071067811862504, -3.1819805153381253, 7.438868776025382e-05},
{ -0.7071067811862504, -2.828427124745, 9.417222727287275e-05},
{ -0.7071067811862504, -2.474873734151875, 0.0005496621869854271},
{ -0.7071067811862504, -2.12132034355875, 0.0004645060723449389},
{ -0.7071067811862504, -1.767766952965625, 0.0024634150157875952},
{ -0.7071067811862504, -1.4142135623724998, 0.0018914997480233323},
{ -0.7071067811862504, -1.060660171779375, 0.0066962562733629384},
{ -0.7071067811862504, -0.7071067811862504, 0.003432261426844916},
{ -0.7071067811862504, -0.35355339059312474, 0.011040260151948006},
{ -0.7071067811862504, 0.0, 0.0051416293935823585},
{ -0.7071067811862504, 0.35355339059312474, 0.011040260151948006},
{ -0.7071067811862504, 0.7071067811862504, 0.003432261426844916},
{ -0.7071067811862504, 1.060660171779375, 0.0066962562733629384},
{ -0.7071067811862504, 1.4142135623724998, 0.0018914997480233323},
{ -0.7071067811862504, 1.7677669529656255, 0.002463415015787594},
{ -0.7071067811862504, 2.12132034355875, 0.0004645060723449389},
{ -0.7071067811862504, 2.474873734151875, 0.0005496621869854271},
{ -0.7071067811862504, 2.8284271247450006, 9.417222727287263e-05},
{ -0.7071067811862504, 3.1819805153381244, 7.438868776025408e-05},
{ -0.7071067811862504, 3.53553390593125, 8.50772548272277e-06},
{ -0.7071067811862504, 3.8890872965243757, 6.106195332446909e-06},
{ -0.7071067811862504, 4.2426406871174995, 6.345274761531192e-07},
{ -0.7071067811862504, 4.596194077710625, 3.0400956448483386e-07},
{ -0.7071067811862504, 4.949747468303751, 2.1088543058885318e-08},
{ -0.7071067811862504, 5.303300858896875, 9.18029338282766e-09},
{ -0.7071067811862504, 5.65685424949, 2.8930708107812945e-10},
{ -0.35355339059312474, -5.65685424949, 9.305892068481949e-10},
{ -0.35355339059312474, -5.3033008588968755, 2.9529460205131154e-08},
{ -0.35355339059312474, -4.94974746830375, 6.783370281024123e-08},
{ -0.35355339059312474, -4.596194077710625, 9.778814207862593e-07},
{ -0.35355339059312474, -4.2426406871175, 2.0410299621987174e-06},
{ -0.35355339059312474, -3.8890872965243752, 1.9641273383652044e-05},
{ -0.35355339059312474, -3.53553390593125, 2.736606888274215e-05},
{ -0.35355339059312474, -3.1819805153381253, 0.00023927969437636344},
{ -0.35355339059312474, -2.828427124745, 0.0003029157045116499},
{ -0.35355339059312474, -2.474873734151875, 0.0017680510850789576},
{ -0.35355339059312474, -2.12132034355875, 0.0014941367346722866},
{ -0.35355339059312474, -1.767766952965625, 0.007923855223787713},
{ -0.35355339059312474, -1.4142135623724998, 0.006084224567566792},
{ -0.35355339059312474, -1.060660171779375, 0.0215392716661443},
{ -0.35355339059312474, -0.7071067811862504, 0.011040260151948006},
{ -0.35355339059312474, -0.35355339059312474, 0.03551225535134576},
{ -0.35355339059312474, 0.0, 0.01653863708226698},
{ -0.35355339059312474, 0.35355339059312474, 0.03551225535134576},
{ -0.35355339059312474, 0.7071067811862504, 0.011040260151948006},
{ -0.35355339059312474, 1.060660171779375, 0.0215392716661443},
{ -0.35355339059312474, 1.4142135623724998, 0.006084224567566792},
{ -0.35355339059312474, 1.7677669529656255, 0.007923855223787708},
{ -0.35355339059312474, 2.12132034355875, 0.0014941367346722866},
{ -0.35355339059312474, 2.474873734151875, 0.0017680510850789576},
{ -0.35355339059312474, 2.8284271247450006, 0.0003029157045116495},
{ -0.35355339059312474, 3.1819805153381244, 0.0002392796943763643},
{ -0.35355339059312474, 3.53553390593125, 2.736606888274215e-05},
{ -0.35355339059312474, 3.8890872965243757, 1.9641273383652007e-05},
{ -0.35355339059312474, 4.2426406871174995, 2.0410299621987246e-06},
{ -0.35355339059312474, 4.596194077710625, 9.778814207862593e-07},
{ -0.35355339059312474, 4.949747468303751, 6.783370281024087e-08},
{ -0.35355339059312474, 5.303300858896875, 2.9529460205131313e-08},
{ -0.35355339059312474, 5.65685424949, 9.305892068481949e-10},
{ 0.0, -5.65685424949, 4.333905862206449e-10},
{ 0.0, -5.3033008588968755, 1.3752351708898203e-08},
{ 0.0, -4.94974746830375, 3.1591262836603224e-08},
{ 0.0, -4.596194077710625, 4.554153423337182e-07},
{ 0.0, -4.2426406871175, 9.505409747950149e-07},
{ 0.0, -3.8890872965243752, 9.147261673806959e-06},
{ 0.0, -3.53553390593125, 1.2744825051018347e-05},
{ 0.0, -3.1819805153381253, 0.00011143646009789314},
{ 0.0, -2.828427124745, 0.00014107278892517734},
{ 0.0, -2.474873734151875, 0.0008234102551281949},
{ 0.0, -2.12132034355875, 0.0006958438702793328},
{ 0.0, -1.767766952965625, 0.0036902687408076483},
{ 0.0, -1.4142135623724998, 0.002833522710806558},
{ 0.0, -1.060660171779375, 0.010031190460259434},
{ 0.0, -0.7071067811862504, 0.005141629393582359},
{ 0.0, -0.35355339059312474, 0.01653863708226698},
{ 0.0, 0.0, 0.007702313295304998},
{ 0.0, 0.35355339059312474, 0.01653863708226698},
{ 0.0, 0.7071067811862504, 0.005141629393582359},
{ 0.0, 1.060660171779375, 0.010031190460259434},
{ 0.0, 1.4142135623724998, 0.002833522710806558},
{ 0.0, 1.7677669529656255, 0.003690268740807646},
{ 0.0, 2.12132034355875, 0.0006958438702793328},
{ 0.0, 2.474873734151875, 0.0008234102551281949},
{ 0.0, 2.8284271247450006, 0.00014107278892517715},
{ 0.0, 3.1819805153381244, 0.00011143646009789355},
{ 0.0, 3.53553390593125, 1.2744825051018347e-05},
{ 0.0, 3.8890872965243757, 9.147261673806942e-06},
{ 0.0, 4.2426406871174995, 9.505409747950184e-07},
{ 0.0, 4.596194077710625, 4.554153423337182e-07},
{ 0.0, 4.949747468303751, 3.159126283660306e-08},
{ 0.0, 5.303300858896875, 1.375235170889828e-08},
{ 0.0, 5.65685424949, 4.333905862206449e-10},
{ 0.35355339059312474, -5.65685424949, 9.305892068481949e-10},
{ 0.35355339059312474, -5.3033008588968755, 2.9529460205131154e-08},
{ 0.35355339059312474, -4.94974746830375, 6.783370281024123e-08},
{ 0.35355339059312474, -4.596194077710625, 9.778814207862593e-07},
{ 0.35355339059312474, -4.2426406871175, 2.0410299621987174e-06},
{ 0.35355339059312474, -3.8890872965243752, 1.9641273383652044e-05},
{ 0.35355339059312474, -3.53553390593125, 2.736606888274215e-05},
{ 0.35355339059312474, -3.1819805153381253, 0.00023927969437636344},
{ 0.35355339059312474, -2.828427124745, 0.0003029157045116499},
{ 0.35355339059312474, -2.474873734151875, 0.0017680510850789576},
{ 0.35355339059312474, -2.12132034355875, 0.0014941367346722866},
{ 0.35355339059312474, -1.767766952965625, 0.007923855223787713},
{ 0.35355339059312474, -1.4142135623724998, 0.006084224567566792},
{ 0.35355339059312474, -1.060660171779375, 0.0215392716661443},
{ 0.35355339059312474, -0.7071067811862504, 0.011040260151948006},
{ 0.35355339059312474, -0.35355339059312474, 0.03551225535134576},
{ 0.35355339059312474, 0.0, 0.01653863708226698},
{ 0.35355339059312474, 0.35355339059312474, 0.03551225535134576},
{ 0.35355339059312474, 0.7071067811862504, 0.011040260151948006},
{ 0.35355339059312474, 1.060660171779375, 0.0215392716661443},
{ 0.35355339059312474, 1.4142135623724998, 0.006084224567566792},
{ 0.35355339059312474, 1.7677669529656255, 0.007923855223787708},
{ 0.35355339059312474, 2.12132034355875, 0.0014941367346722866},
{ 0.35355339059312474, 2.474873734151875, 0.0017680510850789576},
{ 0.35355339059312474, 2.8284271247450006, 0.0003029157045116495},
{ 0.35355339059312474, 3.1819805153381244, 0.0002392796943763643},
{ 0.35355339059312474, 3.53553390593125, 2.736606888274215e-05},
{ 0.35355339059312474, 3.8890872965243757, 1.9641273383652007e-05},
{ 0.35355339059312474, 4.2426406871174995, 2.0410299621987246e-06},
{ 0.35355339059312474, 4.596194077710625, 9.778814207862593e-07},
{ 0.35355339059312474, 4.949747468303751, 6.783370281024087e-08},
{ 0.35355339059312474, 5.303300858896875, 2.9529460205131313e-08},
{ 0.35355339059312474, 5.65685424949, 9.305892068481949e-10},
{ 0.7071067811862504, -5.65685424949, 2.8930708107812945e-10},
{ 0.7071067811862504, -5.3033008588968755, 9.18029338282761e-09},
{ 0.7071067811862504, -4.94974746830375, 2.108854305888543e-08},
{ 0.7071067811862504, -4.596194077710625, 3.0400956448483386e-07},
{ 0.7071067811862504, -4.2426406871175, 6.34527476153117e-07},
{ 0.7071067811862504, -3.8890872965243752, 6.1061953324469205e-06},
{ 0.7071067811862504, -3.53553390593125, 8.50772548272277e-06},
{ 0.7071067811862504, -3.1819805153381253, 7.438868776025382e-05},
{ 0.7071067811862504, -2.828427124745, 9.417222727287275e-05},
{ 0.7071067811862504, -2.474873734151875, 0.0005496621869854271},
{ 0.7071067811862504, -2.12132034355875, 0.0004645060723449389},
{ 0.7071067811862504, -1.767766952965625, 0.0024634150157875952},
{ 0.7071067811862504, -1.4142135623724998, 0.0018914997480233323},
{ 0.7071067811862504, -1.060660171779375, 0.0066962562733629384},
{ 0.7071067811862504, -0.7071067811862504, 0.003432261426844916},
{ 0.7071067811862504, -0.35355339059312474, 0.011040260151948006},
{ 0.7071067811862504, 0.0, 0.0051416293935823585},
{ 0.7071067811862504, 0.35355339059312474, 0.011040260151948006},
{ 0.7071067811862504, 0.7071067811862504, 0.003432261426844916},
{ 0.7071067811862504, 1.060660171779375, 0.0066962562733629384},
{ 0.7071067811862504, 1.4142135623724998, 0.0018914997480233323},
{ 0.7071067811862504, 1.7677669529656255, 0.002463415015787594},
{ 0.7071067811862504, 2.12132034355875, 0.0004645060723449389},
{ 0.7071067811862504, 2.474873734151875, 0.0005496621869854271},
{ 0.7071067811862504, 2.8284271247450006, 9.417222727287263e-05},
{ 0.7071067811862504, 3.1819805153381244, 7.438868776025408e-05},
{ 0.7071067811862504, 3.53553390593125, 8.50772548272277e-06},
{ 0.7071067811862504, 3.8890872965243757, 6.106195332446909e-06},
{ 0.7071067811862504, 4.2426406871174995, 6.345274761531192e-07},
{ 0.7071067811862504, 4.596194077710625, 3.0400956448483386e-07},
{ 0.7071067811862504, 4.949747468303751, 2.1088543058885318e-08},
{ 0.7071067811862504, 5.303300858896875, 9.18029338282766e-09},
{ 0.7071067811862504, 5.65685424949, 2.8930708107812945e-10},
{ 1.060660171779375, -5.65685424949, 5.644308855513293e-10},
{ 1.060660171779375, -5.3033008588968755, 1.791052297918369e-08},
{ 1.060660171779375, -4.94974746830375, 4.114322051626363e-08},
{ 1.060660171779375, -4.596194077710625, 5.931150632704664e-07},
{ 1.060660171779375, -4.2426406871175, 1.2379472494661602e-06},
{ 1.060660171779375, -3.8890872965243752, 1.1913034502987672e-05},
{ 1.060660171779375, -3.53553390593125, 1.659835981319794e-05},
{ 1.060660171779375, -3.1819805153381253, 0.00014513047088599406},
{ 1.060660171779375, -2.828427124745, 0.0001837276620948454},
{ 1.060660171779375, -2.474873734151875, 0.0010723771910390286},
{ 1.060660171779375, -2.12132034355875, 0.0009062397393820429},
{ 1.060660171779375, -1.767766952965625, 0.0048060611363533795},
{ 1.060660171779375, -1.4142135623724998, 0.0036902687408076505},
{ 1.060660171779375, -1.060660171779375, 0.013064228653401629},
{ 1.060660171779375, -0.7071067811862504, 0.006696256273362939},
{ 1.060660171779375, -0.35355339059312474, 0.0215392716661443},
{ 1.060660171779375, 0.0, 0.010031190460259434},
{ 1.060660171779375, 0.35355339059312474, 0.0215392716661443},
{ 1.060660171779375, 0.7071067811862504, 0.006696256273362939},
{ 1.060660171779375, 1.060660171779375, 0.013064228653401629},
{ 1.060660171779375, 1.4142135623724998, 0.0036902687408076505},
{ 1.060660171779375, 1.7677669529656255, 0.004806061136353377},
{ 1.060660171779375, 2.12132034355875, 0.0009062397393820429},
{ 1.060660171779375, 2.474873734151875, 0.0010723771910390286},
{ 1.060660171779375, 2.8284271247450006, 0.00018372766209484516},
{ 1.060660171779375, 3.1819805153381244, 0.00014513047088599457},
{ 1.060660171779375, 3.53553390593125, 1.659835981319794e-05},
{ 1.060660171779375, 3.8890872965243757, 1.191303450298765e-05},
{ 1.060660171779375, 4.2426406871174995, 1.2379472494661644e-06},
{ 1.060660171779375, 4.596194077710625, 5.931150632704664e-07},
{ 1.060660171779375, 4.949747468303751, 4.114322051626341e-08},
{ 1.060660171779375, 5.303300858896875, 1.7910522979183786e-08},
{ 1.060660171779375, 5.65685424949, 5.644308855513293e-10},
{ 1.4142135623724998, -5.65685424949, 1.5943548666794885e-10},
{ 1.4142135623724998, -5.3033008588968755, 5.059207461466859e-09},
{ 1.4142135623724998, -4.94974746830375, 1.162177611823953e-08},
{ 1.4142135623724998, -4.596194077710625, 1.6753794163877036e-07},
{ 1.4142135623724998, -4.2426406871175, 3.496844826184425e-07},
{ 1.4142135623724998, -3.8890872965243752, 3.3650895128118885e-06},
{ 1.4142135623724998, -3.53553390593125, 4.688559117600375e-06},
{ 1.4142135623724998, -3.1819805153381253, 4.099518266697117e-05},
{ 1.4142135623724998, -2.828427124745, 5.189777875433476e-05},
{ 1.4142135623724998, -2.474873734151875, 0.0003029157045116501},
{ 1.4142135623724998, -2.12132034355875, 0.00025598665414115003},
{ 1.4142135623724998, -1.767766952965625, 0.0013575740021419028},
{ 1.4142135623724998, -1.4142135623724998, 0.0010423947513989844},
{ 1.4142135623724998, -1.060660171779375, 0.0036902687408076496},
{ 1.4142135623724998, -0.7071067811862504, 0.0018914997480233323},
{ 1.4142135623724998, -0.35355339059312474, 0.006084224567566791},
{ 1.4142135623724998, 0.0, 0.002833522710806558},
{ 1.4142135623724998, 0.35355339059312474, 0.006084224567566791},
{ 1.4142135623724998, 0.7071067811862504, 0.0018914997480233323},
{ 1.4142135623724998, 1.060660171779375, 0.0036902687408076496},
{ 1.4142135623724998, 1.4142135623724998, 0.0010423947513989844},
{ 1.4142135623724998, 1.7677669529656255, 0.0013575740021419017},
{ 1.4142135623724998, 2.12132034355875, 0.00025598665414115003},
{ 1.4142135623724998, 2.474873734151875, 0.0003029157045116501},
{ 1.4142135623724998, 2.8284271247450006, 5.18977787543347e-05},
{ 1.4142135623724998, 3.1819805153381244, 4.0995182666971314e-05},
{ 1.4142135623724998, 3.53553390593125, 4.688559117600375e-06},
{ 1.4142135623724998, 3.8890872965243757, 3.365089512811882e-06},
{ 1.4142135623724998, 4.2426406871174995, 3.4968448261844374e-07},
{ 1.4142135623724998, 4.596194077710625, 1.6753794163877036e-07},
{ 1.4142135623724998, 4.949747468303751, 1.162177611823947e-08},
{ 1.4142135623724998, 5.303300858896875, 5.059207461466887e-09},
{ 1.4142135623724998, 5.65685424949, 1.5943548666794885e-10},
{ 1.7677669529656255, -5.65685424949, 2.0764251875669987e-10},
{ 1.7677669529656255, -5.3033008588968755, 6.588913184675911e-09},
{ 1.7677669529656255, -4.94974746830375, 1.513574497152921e-08},
{ 1.7677669529656255, -4.596194077710625, 2.1819483802648727e-07},
{ 1.7677669529656255, -4.2426406871175, 4.5541534233371804e-07},
{ 1.7677669529656255, -3.8890872965243752, 4.3825604756189e-06},
{ 1.7677669529656255, -3.53553390593125, 6.106195332446919e-06},
{ 1.7677669529656255, -3.1819805153381253, 5.3390516526532655e-05},
{ 1.7677669529656255, -2.828427124745, 6.758962965924413e-05},
{ 1.7677669529656255, -2.474873734151875, 0.0003945055217647705},
{ 1.7677669529656255, -2.12132034355875, 0.0003333869688914998},
{ 1.7677669529656255, -1.767766952965625, 0.0017680510850789548},
{ 1.7677669529656255, -1.4142135623724998, 0.0013575740021419017},
{ 1.7677669529656255, -1.060660171779375, 0.004806061136353376},
{ 1.7677669529656255, -0.7071067811862504, 0.002463415015787594},
{ 1.7677669529656255, -0.35355339059312474, 0.007923855223787708},
{ 1.7677669529656255, 0.0, 0.0036902687408076466},
{ 1.7677669529656255, 0.35355339059312474, 0.007923855223787708},
{ 1.7677669529656255, 0.7071067811862504, 0.002463415015787594},
{ 1.7677669529656255, 1.060660171779375, 0.004806061136353376},
{ 1.7677669529656255, 1.4142135623724998, 0.0013575740021419017},
{ 1.7677669529656255, 1.7677669529656255, 0.0017680510850789535},
{ 1.7677669529656255, 2.12132034355875, 0.0003333869688914998},
{ 1.7677669529656255, 2.474873734151875, 0.0003945055217647705},
{ 1.7677669529656255, 2.8284271247450006, 6.758962965924404e-05},
{ 1.7677669529656255, 3.1819805153381244, 5.3390516526532845e-05},
{ 1.7677669529656255, 3.53553390593125, 6.106195332446919e-06},
{ 1.7677669529656255, 3.8890872965243757, 4.382560475618892e-06},
{ 1.7677669529656255, 4.2426406871174995, 4.5541534233371963e-07},
{ 1.7677669529656255, 4.596194077710625, 2.1819483802648727e-07},
{ 1.7677669529656255, 4.949747468303751, 1.5135744971529127e-08},
{ 1.7677669529656255, 5.303300858896875, 6.5889131846759456e-09},
{ 1.7677669529656255, 5.65685424949, 2.0764251875669987e-10},
{ 2.12132034355875, -5.65685424949, 3.915345576013222e-11},
{ 2.12132034355875, -5.3033008588968755, 1.2424176051622667e-09},
{ 2.12132034355875, -4.94974746830375, 2.8540239479265656e-09},
{ 2.12132034355875, -4.596194077710625, 4.11432205162635e-08},
{ 2.12132034355875, -4.2426406871175, 8.58739557067396e-08},
{ 2.12132034355875, -3.8890872965243752, 8.26383674816177e-07},
{ 2.12132034355875, -3.53553390593125, 1.1513954379055711e-06},
{ 2.12132034355875, -3.1819805153381253, 1.0067414127650836e-05},
{ 2.12132034355875, -2.828427124745, 1.2744825051018347e-05},
{ 2.12132034355875, -2.474873734151875, 7.438868776025395e-05},
{ 2.12132034355875, -2.12132034355875, 6.28640608660346e-05},
{ 2.12132034355875, -1.767766952965625, 0.0003333869688915},
{ 2.12132034355875, -1.4142135623724998, 0.00025598665414115},
{ 2.12132034355875, -1.060660171779375, 0.000906239739382043},
{ 2.12132034355875, -0.7071067811862504, 0.0004645060723449389},
{ 2.12132034355875, -0.35355339059312474, 0.0014941367346722866},
{ 2.12132034355875, 0.0, 0.0006958438702793328},
{ 2.12132034355875, 0.35355339059312474, 0.0014941367346722866},
{ 2.12132034355875, 0.7071067811862504, 0.0004645060723449389},
{ 2.12132034355875, 1.060660171779375, 0.000906239739382043},
{ 2.12132034355875, 1.4142135623724998, 0.00025598665414115},
{ 2.12132034355875, 1.7677669529656255, 0.00033338696889149977},
{ 2.12132034355875, 2.12132034355875, 6.28640608660346e-05},
{ 2.12132034355875, 2.474873734151875, 7.438868776025395e-05},
{ 2.12132034355875, 2.8284271247450006, 1.2744825051018328e-05},
{ 2.12132034355875, 3.1819805153381244, 1.0067414127650872e-05},
{ 2.12132034355875, 3.53553390593125, 1.1513954379055711e-06},
{ 2.12132034355875, 3.8890872965243757, 8.263836748161754e-07},
{ 2.12132034355875, 4.2426406871174995, 8.58739557067399e-08},
{ 2.12132034355875, 4.596194077710625, 4.11432205162635e-08},
{ 2.12132034355875, 4.949747468303751, 2.8540239479265507e-09},
{ 2.12132034355875, 5.303300858896875, 1.2424176051622735e-09},
{ 2.12132034355875, 5.65685424949, 3.915345576013222e-11},
{ 2.474873734151875, -5.65685424949, 4.6331308463864336e-11},
{ 2.474873734151875, -5.3033008588968755, 1.4701852541026945e-09},
{ 2.474873734151875, -4.94974746830375, 3.3772411994673707e-09},
{ 2.474873734151875, -4.596194077710625, 4.868584915247233e-08},
{ 2.474873734151875, -4.2426406871175, 1.0161689826910289e-07},
{ 2.474873734151875, -3.8890872965243752, 9.778814207862597e-07},
{ 2.474873734151875, -3.53553390593125, 1.3624763424281972e-06},
{ 2.474873734151875, -3.1819805153381253, 1.1913034502987674e-05},
{ 2.474873734151875, -2.828427124745, 1.5081284890259265e-05},
{ 2.474873734151875, -2.474873734151875, 8.802608025092434e-05},
{ 2.474873734151875, -2.12132034355875, 7.438868776025393e-05},
{ 2.474873734151875, -1.767766952965625, 0.0003945055217647708},
{ 2.474873734151875, -1.4142135623724998, 0.0003029157045116501},
{ 2.474873734151875, -1.060660171779375, 0.0010723771910390286},
{ 2.474873734151875, -0.7071067811862504, 0.0005496621869854271},
{ 2.474873734151875, -0.35355339059312474, 0.0017680510850789576},
{ 2.474873734151875, 0.0, 0.000823410255128195},
{ 2.474873734151875, 0.35355339059312474, 0.0017680510850789576},
{ 2.474873734151875, 0.7071067811862504, 0.0005496621869854271},
{ 2.474873734151875, 1.060660171779375, 0.0010723771910390286},
{ 2.474873734151875, 1.4142135623724998, 0.0003029157045116501},
{ 2.474873734151875, 1.7677669529656255, 0.0003945055217647705},
{ 2.474873734151875, 2.12132034355875, 7.438868776025393e-05},
{ 2.474873734151875, 2.474873734151875, 8.802608025092434e-05},
{ 2.474873734151875, 2.8284271247450006, 1.5081284890259243e-05},
{ 2.474873734151875, 3.1819805153381244, 1.1913034502987714e-05},
{ 2.474873734151875, 3.53553390593125, 1.3624763424281972e-06},
{ 2.474873734151875, 3.8890872965243757, 9.778814207862578e-07},
{ 2.474873734151875, 4.2426406871174995, 1.0161689826910323e-07},
{ 2.474873734151875, 4.596194077710625, 4.868584915247233e-08},
{ 2.474873734151875, 4.949747468303751, 3.3772411994673534e-09},
{ 2.474873734151875, 5.303300858896875, 1.4701852541027023e-09},
{ 2.474873734151875, 5.65685424949, 4.6331308463864336e-11},
{ 2.8284271247450006, -5.65685424949, 7.937825475020854e-12},
{ 2.8284271247450006, -5.3033008588968755, 2.5188310777189334e-10},
{ 2.8284271247450006, -4.94974746830375, 5.786141621562596e-10},
{ 2.8284271247450006, -4.596194077710625, 8.341222954601703e-09},
{ 2.8284271247450006, -4.2426406871175, 1.740976524334945e-08},
{ 2.8284271247450006, -3.8890872965243752, 1.675379416387701e-07},
{ 2.8284271247450006, -3.53553390593125, 2.3342961333533057e-07},
{ 2.8284271247450006, -3.1819805153381253, 2.041029962198713e-06},
{ 2.8284271247450006, -2.828427124745, 2.58383825898886e-06},
{ 2.8284271247450006, -2.474873734151875, 1.5081284890259241e-05},
{ 2.8284271247450006, -2.12132034355875, 1.274482505101833e-05},
{ 2.8284271247450006, -1.767766952965625, 6.758962965924409e-05},
{ 2.8284271247450006, -1.4142135623724998, 5.189777875433469e-05},
{ 2.8284271247450006, -1.060660171779375, 0.00018372766209484513},
{ 2.8284271247450006, -0.7071067811862504, 9.417222727287265e-05},
{ 2.8284271247450006, -0.35355339059312474, 0.0003029157045116495},
{ 2.8284271247450006, 0.0, 0.00014107278892517715},
{ 2.8284271247450006, 0.35355339059312474, 0.0003029157045116495},
{ 2.8284271247450006, 0.7071067811862504, 9.417222727287265e-05},
{ 2.8284271247450006, 1.060660171779375, 0.00018372766209484513},
{ 2.8284271247450006, 1.4142135623724998, 5.189777875433469e-05},
{ 2.8284271247450006, 1.7677669529656255, 6.758962965924405e-05},
{ 2.8284271247450006, 2.12132034355875, 1.274482505101833e-05},
{ 2.8284271247450006, 2.474873734151875, 1.5081284890259241e-05},
{ 2.8284271247450006, 2.8284271247450006, 2.5838382589888566e-06},
{ 2.8284271247450006, 3.1819805153381244, 2.0410299621987208e-06},
{ 2.8284271247450006, 3.53553390593125, 2.3342961333533057e-07},
{ 2.8284271247450006, 3.8890872965243757, 1.675379416387698e-07},
{ 2.8284271247450006, 4.2426406871174995, 1.7409765243349508e-08},
{ 2.8284271247450006, 4.596194077710625, 8.341222954601703e-09},
{ 2.8284271247450006, 4.949747468303751, 5.786141621562566e-10},
{ 2.8284271247450006, 5.303300858896875, 2.518831077718947e-10},
{ 2.8284271247450006, 5.65685424949, 7.937825475020854e-12},
{ 3.1819805153381244, -5.65685424949, 6.270260753690515e-12},
{ 3.1819805153381244, -5.3033008588968755, 1.9896793777461481e-10},
{ 3.1819805153381244, -4.94974746830375, 4.570598942890444e-10},
{ 3.1819805153381244, -4.596194077710625, 6.588913184675944e-09},
{ 3.1819805153381244, -4.2426406871175, 1.3752351708898269e-08},
{ 3.1819805153381244, -3.8890872965243752, 1.3234185905415267e-07},
{ 3.1819805153381244, -3.53553390593125, 1.8439112170601484e-07},
{ 3.1819805153381244, -3.1819805153381253, 1.6122538986720925e-06},
{ 3.1819805153381244, -2.828427124745, 2.0410299621987233e-06},
{ 3.1819805153381244, -2.474873734151875, 1.1913034502987716e-05},
{ 3.1819805153381244, -2.12132034355875, 1.0067414127650875e-05},
{ 3.1819805153381244, -1.767766952965625, 5.3390516526532885e-05},
{ 3.1819805153381244, -1.4142135623724998, 4.099518266697132e-05},
{ 3.1819805153381244, -1.060660171779375, 0.00014513047088599457},
{ 3.1819805153381244, -0.7071067811862504, 7.438868776025408e-05},
{ 3.1819805153381244, -0.35355339059312474, 0.0002392796943763643},
{ 3.1819805153381244, 0.0, 0.00011143646009789355},
{ 3.1819805153381244, 0.35355339059312474, 0.0002392796943763643},
{ 3.1819805153381244, 0.7071067811862504, 7.438868776025408e-05},
{ 3.1819805153381244, 1.060660171779375, 0.00014513047088599457},
{ 3.1819805153381244, 1.4142135623724998, 4.099518266697132e-05},
{ 3.1819805153381244, 1.7677669529656255, 5.339051652653285e-05},
{ 3.1819805153381244, 2.12132034355875, 1.0067414127650875e-05},
{ 3.1819805153381244, 2.474873734151875, 1.1913034502987716e-05},
{ 3.1819805153381244, 2.8284271247450006, 2.0410299621987208e-06},
{ 3.1819805153381244, 3.1819805153381244, 1.6122538986720987e-06},
{ 3.1819805153381244, 3.53553390593125, 1.8439112170601484e-07},
{ 3.1819805153381244, 3.8890872965243757, 1.3234185905415243e-07},
{ 3.1819805153381244, 4.2426406871174995, 1.3752351708898319e-08},
{ 3.1819805153381244, 4.596194077710625, 6.588913184675944e-09},
{ 3.1819805153381244, 4.949747468303751, 4.5705989428904195e-10},
{ 3.1819805153381244, 5.303300858896875, 1.9896793777461587e-10},
{ 3.1819805153381244, 5.65685424949, 6.270260753690515e-12},
{ 3.53553390593125, -5.65685424949, 7.171205569510247e-13},
{ 3.53553390593125, -5.3033008588968755, 2.2755672205234593e-11},
{ 3.53553390593125, -4.94974746830375, 5.22732720101984e-11},
{ 3.53553390593125, -4.596194077710625, 7.535643696979782e-10},
{ 3.53553390593125, -4.2426406871175, 1.5728363626770905e-09},
{ 3.53553390593125, -3.8890872965243752, 1.5135744971529177e-08},
{ 3.53553390593125, -3.53553390593125, 2.108854305888538e-08},
{ 3.53553390593125, -3.1819805153381253, 1.8439112170601418e-07},
{ 3.53553390593125, -2.828427124745, 2.334296133353309e-07},
{ 3.53553390593125, -2.474873734151875, 1.3624763424281972e-06},
{ 3.53553390593125, -2.12132034355875, 1.1513954379055711e-06},
{ 3.53553390593125, -1.767766952965625, 6.106195332446923e-06},
{ 3.53553390593125, -1.4142135623724998, 4.6885591176003745e-06},
{ 3.53553390593125, -1.060660171779375, 1.6598359813197943e-05},
{ 3.53553390593125, -0.7071067811862504, 8.50772548272277e-06},
{ 3.53553390593125, -0.35355339059312474, 2.7366068882742143e-05},
{ 3.53553390593125, 0.0, 1.2744825051018347e-05},
{ 3.53553390593125, 0.35355339059312474, 2.7366068882742143e-05},
{ 3.53553390593125, 0.7071067811862504, 8.50772548272277e-06},
{ 3.53553390593125, 1.060660171779375, 1.6598359813197943e-05},
{ 3.53553390593125, 1.4142135623724998, 4.6885591176003745e-06},
{ 3.53553390593125, 1.7677669529656255, 6.106195332446919e-06},
{ 3.53553390593125, 2.12132034355875, 1.1513954379055711e-06},
{ 3.53553390593125, 2.474873734151875, 1.3624763424281972e-06},
{ 3.53553390593125, 2.8284271247450006, 2.3342961333533057e-07},
{ 3.53553390593125, 3.1819805153381244, 1.8439112170601484e-07},
{ 3.53553390593125, 3.53553390593125, 2.108854305888538e-08},
{ 3.53553390593125, 3.8890872965243757, 1.5135744971529147e-08},
{ 3.53553390593125, 4.2426406871174995, 1.5728363626770959e-09},
{ 3.53553390593125, 4.596194077710625, 7.535643696979782e-10},
{ 3.53553390593125, 4.949747468303751, 5.227327201019812e-11},
{ 3.53553390593125, 5.303300858896875, 2.275567220523472e-11},
{ 3.53553390593125, 5.65685424949, 7.171205569510247e-13},
{ 3.8890872965243757, -5.65685424949, 5.146943453392527e-13},
{ 3.8890872965243757, -5.3033008588968755, 1.633228289846351e-11},
{ 3.8890872965243757, -4.94974746830375, 3.751776079383427e-11},
{ 3.8890872965243757, -4.596194077710625, 5.408509296982486e-10},
{ 3.8890872965243757, -4.2426406871175, 1.1288617711026555e-09},
{ 3.8890872965243757, -3.8890872965243752, 1.0863281318367127e-08},
{ 3.8890872965243757, -3.53553390593125, 1.513574497152915e-08},
{ 3.8890872965243757, -3.1819805153381253, 1.3234185905415193e-07},
{ 3.8890872965243757, -2.828427124745, 1.6753794163877004e-07},
{ 3.8890872965243757, -2.474873734151875, 9.77881420786258e-07},
{ 3.8890872965243757, -2.12132034355875, 8.263836748161755e-07},
{ 3.8890872965243757, -1.767766952965625, 4.382560475618896e-06},
{ 3.8890872965243757, -1.4142135623724998, 3.3650895128118826e-06},
{ 3.8890872965243757, -1.060660171779375, 1.191303450298765e-05},
{ 3.8890872965243757, -0.7071067811862504, 6.106195332446909e-06},
{ 3.8890872965243757, -0.35355339059312474, 1.9641273383652007e-05},
{ 3.8890872965243757, 0.0, 9.147261673806942e-06},
{ 3.8890872965243757, 0.35355339059312474, 1.9641273383652007e-05},
{ 3.8890872965243757, 0.7071067811862504, 6.106195332446909e-06},
{ 3.8890872965243757, 1.060660171779375, 1.191303450298765e-05},
{ 3.8890872965243757, 1.4142135623724998, 3.3650895128118826e-06},
{ 3.8890872965243757, 1.7677669529656255, 4.382560475618892e-06},
{ 3.8890872965243757, 2.12132034355875, 8.263836748161755e-07},
{ 3.8890872965243757, 2.474873734151875, 9.77881420786258e-07},
{ 3.8890872965243757, 2.8284271247450006, 1.6753794163876983e-07},
{ 3.8890872965243757, 3.1819805153381244, 1.3234185905415243e-07},
{ 3.8890872965243757, 3.53553390593125, 1.513574497152915e-08},
{ 3.8890872965243757, 3.8890872965243757, 1.0863281318367107e-08},
{ 3.8890872965243757, 4.2426406871174995, 1.1288617711026597e-09},
{ 3.8890872965243757, 4.596194077710625, 5.408509296982486e-10},
{ 3.8890872965243757, 4.949747468303751, 3.751776079383407e-11},
{ 3.8890872965243757, 5.303300858896875, 1.63322828984636e-11},
{ 3.8890872965243757, 5.65685424949, 5.146943453392527e-13},
{ 4.2426406871174995, -5.65685424949, 5.34846473389062e-14},
{ 4.2426406871174995, -5.3033008588968755, 1.6971750301390983e-12},
{ 4.2426406871174995, -4.94974746830375, 3.898671557545542e-12},
{ 4.2426406871174995, -4.596194077710625, 5.620271817589806e-11},
{ 4.2426406871174995, -4.2426406871175, 1.1730607547670294e-10},
{ 4.2426406871174995, -3.8890872965243752, 1.1288617711026617e-09},
{ 4.2426406871174995, -3.53553390593125, 1.5728363626770959e-09},
{ 4.2426406871174995, -3.1819805153381253, 1.3752351708898269e-08},
{ 4.2426406871174995, -2.828427124745, 1.740976524334953e-08},
{ 4.2426406871174995, -2.474873734151875, 1.0161689826910323e-07},
{ 4.2426406871174995, -2.12132034355875, 8.587395570673993e-08},
{ 4.2426406871174995, -1.767766952965625, 4.5541534233371984e-07},
{ 4.2426406871174995, -1.4142135623724998, 3.4968448261844374e-07},
{ 4.2426406871174995, -1.060660171779375, 1.2379472494661644e-06},
{ 4.2426406871174995, -0.7071067811862504, 6.345274761531192e-07},
{ 4.2426406871174995, -0.35355339059312474, 2.0410299621987246e-06},
{ 4.2426406871174995, 0.0, 9.505409747950184e-07},
{ 4.2426406871174995, 0.35355339059312474, 2.0410299621987246e-06},
{ 4.2426406871174995, 0.7071067811862504, 6.345274761531192e-07},
{ 4.2426406871174995, 1.060660171779375, 1.2379472494661644e-06},
{ 4.2426406871174995, 1.4142135623724998, 3.4968448261844374e-07},
{ 4.2426406871174995, 1.7677669529656255, 4.554153423337196e-07},
{ 4.2426406871174995, 2.12132034355875, 8.587395570673993e-08},
{ 4.2426406871174995, 2.474873734151875, 1.0161689826910323e-07},
{ 4.2426406871174995, 2.8284271247450006, 1.7409765243349508e-08},
{ 4.2426406871174995, 3.1819805153381244, 1.3752351708898315e-08},
{ 4.2426406871174995, 3.53553390593125, 1.5728363626770959e-09},
{ 4.2426406871174995, 3.8890872965243757, 1.1288617711026595e-09},
{ 4.2426406871174995, 4.2426406871174995, 1.1730607547670336e-10},
{ 4.2426406871174995, 4.596194077710625, 5.620271817589806e-11},
{ 4.2426406871174995, 4.949747468303751, 3.898671557545521e-12},
{ 4.2426406871174995, 5.303300858896875, 1.6971750301391073e-12},
{ 4.2426406871174995, 5.65685424949, 5.34846473389062e-14},
{ 4.596194077710625, -5.65685424949, 2.562512256002308e-14},
{ 4.596194077710625, -5.3033008588968755, 8.131364852711519e-13},
{ 4.596194077710625, -4.94974746830375, 1.8678993216565107e-12},
{ 4.596194077710625, -4.596194077710625, 2.6927382213777496e-11},
{ 4.596194077710625, -4.2426406871175, 5.620271817589785e-11},
{ 4.596194077710625, -3.8890872965243752, 5.408509296982495e-10},
{ 4.596194077710625, -3.53553390593125, 7.535643696979782e-10},
{ 4.596194077710625, -3.1819805153381253, 6.588913184675921e-09},
{ 4.596194077710625, -2.828427124745, 8.341222954601712e-09},
{ 4.596194077710625, -2.474873734151875, 4.868584915247233e-08},
{ 4.596194077710625, -2.12132034355875, 4.114322051626351e-08},
{ 4.596194077710625, -1.767766952965625, 2.1819483802648743e-07},
{ 4.596194077710625, -1.4142135623724998, 1.6753794163877036e-07},
{ 4.596194077710625, -1.060660171779375, 5.931150632704664e-07},
{ 4.596194077710625, -0.7071067811862504, 3.0400956448483386e-07},
{ 4.596194077710625, -0.35355339059312474, 9.778814207862591e-07},
{ 4.596194077710625, 0.0, 4.554153423337182e-07},
{ 4.596194077710625, 0.35355339059312474, 9.778814207862591e-07},
{ 4.596194077710625, 0.7071067811862504, 3.0400956448483386e-07},
{ 4.596194077710625, 1.060660171779375, 5.931150632704664e-07},
{ 4.596194077710625, 1.4142135623724998, 1.6753794163877036e-07},
{ 4.596194077710625, 1.7677669529656255, 2.1819483802648727e-07},
{ 4.596194077710625, 2.12132034355875, 4.114322051626351e-08},
{ 4.596194077710625, 2.474873734151875, 4.868584915247233e-08},
{ 4.596194077710625, 2.8284271247450006, 8.341222954601703e-09},
{ 4.596194077710625, 3.1819805153381244, 6.588913184675944e-09},
{ 4.596194077710625, 3.53553390593125, 7.535643696979782e-10},
{ 4.596194077710625, 3.8890872965243757, 5.408509296982485e-10},
{ 4.596194077710625, 4.2426406871174995, 5.620271817589806e-11},
{ 4.596194077710625, 4.596194077710625, 2.6927382213777496e-11},
{ 4.596194077710625, 4.949747468303751, 1.867899321656501e-12},
{ 4.596194077710625, 5.303300858896875, 8.131364852711563e-13},
{ 4.596194077710625, 5.65685424949, 2.562512256002308e-14},
{ 4.949747468303751, -5.65685424949, 1.777564141483513e-15},
{ 4.949747468303751, -5.3033008588968755, 5.6405672010516e-14},
{ 4.949747468303751, -4.94974746830375, 1.295724867774057e-13},
{ 4.949747468303751, -4.596194077710625, 1.867899321656501e-12},
{ 4.949747468303751, -4.2426406871175, 3.898671557545507e-12},
{ 4.949747468303751, -3.8890872965243752, 3.7517760793834134e-11},
{ 4.949747468303751, -3.53553390593125, 5.227327201019812e-11},
{ 4.949747468303751, -3.1819805153381253, 4.5705989428904025e-10},
{ 4.949747468303751, -2.828427124745, 5.786141621562574e-10},
{ 4.949747468303751, -2.474873734151875, 3.3772411994673534e-09},
{ 4.949747468303751, -2.12132034355875, 2.8540239479265507e-09},
{ 4.949747468303751, -1.767766952965625, 1.5135744971529137e-08},
{ 4.949747468303751, -1.4142135623724998, 1.162177611823947e-08},
{ 4.949747468303751, -1.060660171779375, 4.114322051626341e-08},
{ 4.949747468303751, -0.7071067811862504, 2.1088543058885318e-08},
{ 4.949747468303751, -0.35355339059312474, 6.783370281024087e-08},
{ 4.949747468303751, 0.0, 3.159126283660306e-08},
{ 4.949747468303751, 0.35355339059312474, 6.783370281024087e-08},
{ 4.949747468303751, 0.7071067811862504, 2.1088543058885318e-08},
{ 4.949747468303751, 1.060660171779375, 4.114322051626341e-08},
{ 4.949747468303751, 1.4142135623724998, 1.162177611823947e-08},
{ 4.949747468303751, 1.7677669529656255, 1.5135744971529127e-08},
{ 4.949747468303751, 2.12132034355875, 2.8540239479265507e-09},
{ 4.949747468303751, 2.474873734151875, 3.3772411994673534e-09},
{ 4.949747468303751, 2.8284271247450006, 5.786141621562566e-10},
{ 4.949747468303751, 3.1819805153381244, 4.5705989428904185e-10},
{ 4.949747468303751, 3.53553390593125, 5.227327201019812e-11},
{ 4.949747468303751, 3.8890872965243757, 3.751776079383407e-11},
{ 4.949747468303751, 4.2426406871174995, 3.898671557545521e-12},
{ 4.949747468303751, 4.596194077710625, 1.867899321656501e-12},
{ 4.949747468303751, 4.949747468303751, 1.29572486777405e-13},
{ 4.949747468303751, 5.303300858896875, 5.6405672010516304e-14},
{ 4.949747468303751, 5.65685424949, 1.777564141483513e-15},
{ 5.303300858896875, -5.65685424949, 7.738116511912027e-16},
{ 5.303300858896875, -5.3033008588968755, 2.4554594220481823e-14},
{ 5.303300858896875, -4.94974746830375, 5.6405672010516613e-14},
{ 5.303300858896875, -4.596194077710625, 8.131364852711564e-13},
{ 5.303300858896875, -4.2426406871175, 1.6971750301391015e-12},
{ 5.303300858896875, -3.8890872965243752, 1.6332282898463634e-11},
{ 5.303300858896875, -3.53553390593125, 2.275567220523472e-11},
{ 5.303300858896875, -3.1819805153381253, 1.9896793777461518e-10},
{ 5.303300858896875, -2.828427124745, 2.518831077718951e-10},
{ 5.303300858896875, -2.474873734151875, 1.4701852541027025e-09},
{ 5.303300858896875, -2.12132034355875, 1.2424176051622737e-09},
{ 5.303300858896875, -1.767766952965625, 6.588913184675951e-09},
{ 5.303300858896875, -1.4142135623724998, 5.059207461466887e-09},
{ 5.303300858896875, -1.060660171779375, 1.7910522979183786e-08},
{ 5.303300858896875, -0.7071067811862504, 9.18029338282766e-09},
{ 5.303300858896875, -0.35355339059312474, 2.9529460205131313e-08},
{ 5.303300858896875, 0.0, 1.375235170889828e-08},
{ 5.303300858896875, 0.35355339059312474, 2.9529460205131313e-08},
{ 5.303300858896875, 0.7071067811862504, 9.18029338282766e-09},
{ 5.303300858896875, 1.060660171779375, 1.7910522979183786e-08},
{ 5.303300858896875, 1.4142135623724998, 5.059207461466887e-09},
{ 5.303300858896875, 1.7677669529656255, 6.588913184675946e-09},
{ 5.303300858896875, 2.12132034355875, 1.2424176051622737e-09},
{ 5.303300858896875, 2.474873734151875, 1.4701852541027025e-09},
{ 5.303300858896875, 2.8284271247450006, 2.5188310777189473e-10},
{ 5.303300858896875, 3.1819805153381244, 1.9896793777461587e-10},
{ 5.303300858896875, 3.53553390593125, 2.275567220523472e-11},
{ 5.303300858896875, 3.8890872965243757, 1.63322828984636e-11},
{ 5.303300858896875, 4.2426406871174995, 1.6971750301391073e-12},
{ 5.303300858896875, 4.596194077710625, 8.131364852711564e-13},
{ 5.303300858896875, 4.949747468303751, 5.6405672010516317e-14},
{ 5.303300858896875, 5.303300858896875, 2.4554594220481956e-14},
{ 5.303300858896875, 5.65685424949, 7.738116511912027e-16},
{ 5.65685424949, -5.65685424949, 2.4385842671339507e-17},
{ 5.65685424949, -5.3033008588968755, 7.738116511911984e-16},
{ 5.65685424949, -4.94974746830375, 1.777564141483522e-15},
{ 5.65685424949, -4.596194077710625, 2.5625122560023083e-14},
{ 5.65685424949, -4.2426406871175, 5.3484647338906004e-14},
{ 5.65685424949, -3.8890872965243752, 5.146943453392538e-13},
{ 5.65685424949, -3.53553390593125, 7.171205569510248e-13},
{ 5.65685424949, -3.1819805153381253, 6.270260753690493e-12},
{ 5.65685424949, -2.828427124745, 7.937825475020865e-12},
{ 5.65685424949, -2.474873734151875, 4.6331308463864336e-11},
{ 5.65685424949, -2.12132034355875, 3.915345576013222e-11},
{ 5.65685424949, -1.767766952965625, 2.0764251875670005e-10},
{ 5.65685424949, -1.4142135623724998, 1.5943548666794885e-10},
{ 5.65685424949, -1.060660171779375, 5.644308855513292e-10},
{ 5.65685424949, -0.7071067811862504, 2.8930708107812945e-10},
{ 5.65685424949, -0.35355339059312474, 9.305892068481948e-10},
{ 5.65685424949, 0.0, 4.333905862206449e-10},
{ 5.65685424949, 0.35355339059312474, 9.305892068481948e-10},
{ 5.65685424949, 0.7071067811862504, 2.8930708107812945e-10},
{ 5.65685424949, 1.060660171779375, 5.644308855513292e-10},
{ 5.65685424949, 1.4142135623724998, 1.5943548666794885e-10},
{ 5.65685424949, 1.7677669529656255, 2.0764251875669993e-10},
{ 5.65685424949, 2.12132034355875, 3.915345576013222e-11},
{ 5.65685424949, 2.474873734151875, 4.6331308463864336e-11},
{ 5.65685424949, 2.8284271247450006, 7.937825475020854e-12},
{ 5.65685424949, 3.1819805153381244, 6.2702607536905156e-12},
{ 5.65685424949, 3.53553390593125, 7.171205569510248e-13},
{ 5.65685424949, 3.8890872965243757, 5.146943453392527e-13},
{ 5.65685424949, 4.2426406871174995, 5.34846473389062e-14},
{ 5.65685424949, 4.596194077710625, 2.5625122560023083e-14},
{ 5.65685424949, 4.949747468303751, 1.7775641414835126e-15},
{ 5.65685424949, 5.303300858896875, 7.738116511912026e-16},
{ 5.65685424949, 5.65685424949, 2.4385842671339507e-17}
};
#endif //1089
#if 0 
// 144   - non-LB GH
#define NON_LB_GH
const Real ew[144][3] = {
{ -3.889724897869782, -3.889724897869782, 2.2497815082160568e-14},
{ -3.889724897869782, -3.0206370251208896, 7.255425080278574e-12},
{ -3.889724897869782, -2.2795070805010598, 3.3049105538781066e-10},
{ -3.889724897869782, -1.5976826351526048, 4.3672911231367724e-09},
{ -3.889724897869782, -0.9477883912401638, 2.204398681106274e-08},
{ -3.889724897869782, -0.31424037625435913, 4.824731146937571e-08},
{ -3.889724897869782, 0.31424037625435913, 4.824731146937571e-08},
{ -3.889724897869782, 0.9477883912401638, 2.204398681106274e-08},
{ -3.889724897869782, 1.5976826351526048, 4.3672911231367724e-09},
{ -3.889724897869782, 2.2795070805010598, 3.3049105538781066e-10},
{ -3.889724897869782, 3.0206370251208896, 7.255425080278574e-12},
{ -3.889724897869782, 3.889724897869782, 2.2497815082160568e-14},
{ -3.0206370251208896, -3.889724897869782, 7.255425080278575e-12},
{ -3.0206370251208896, -3.0206370251208896, 2.33983579753381e-09},
{ -3.0206370251208896, -2.2795070805010598, 1.0658159840462962e-07},
{ -3.0206370251208896, -1.5976826351526048, 1.4084280376546467e-06},
{ -3.0206370251208896, -0.9477883912401638, 7.109067889225227e-06},
{ -3.0206370251208896, -0.31424037625435913, 1.555949999644602e-05},
{ -3.0206370251208896, 0.31424037625435913, 1.555949999644602e-05},
{ -3.0206370251208896, 0.9477883912401638, 7.109067889225227e-06},
{ -3.0206370251208896, 1.5976826351526048, 1.4084280376546467e-06},
{ -3.0206370251208896, 2.2795070805010598, 1.0658159840462962e-07},
{ -3.0206370251208896, 3.0206370251208896, 2.33983579753381e-09},
{ -3.0206370251208896, 3.889724897869782, 7.255425080278575e-12},
{ -2.2795070805010598, -3.889724897869782, 3.3049105538781066e-10},
{ -2.2795070805010598, -3.0206370251208896, 1.0658159840462962e-07},
{ -2.2795070805010598, -2.2795070805010598, 4.854886454194272e-06},
{ -2.2795070805010598, -1.5976826351526048, 6.415514783103451e-05},
{ -2.2795070805010598, -0.9477883912401638, 0.00032382435536684387},
{ -2.2795070805010598, -0.31424037625435913, 0.0007087490420250667},
{ -2.2795070805010598, 0.31424037625435913, 0.0007087490420250667},
{ -2.2795070805010598, 0.9477883912401638, 0.00032382435536684387},
{ -2.2795070805010598, 1.5976826351526048, 6.415514783103451e-05},
{ -2.2795070805010598, 2.2795070805010598, 4.854886454194272e-06},
{ -2.2795070805010598, 3.0206370251208896, 1.0658159840462962e-07},
{ -2.2795070805010598, 3.889724897869782, 3.3049105538781066e-10},
{ -1.5976826351526048, -3.889724897869782, 4.3672911231367724e-09},
{ -1.5976826351526048, -3.0206370251208896, 1.4084280376546465e-06},
{ -1.5976826351526048, -2.2795070805010598, 6.41551478310345e-05},
{ -1.5976826351526048, -1.5976826351526048, 0.0008477815149860126},
{ -1.5976826351526048, -0.9477883912401638, 0.0042791936713373014},
{ -1.5976826351526048, -0.31424037625435913, 0.009365800826698948},
{ -1.5976826351526048, 0.31424037625435913, 0.009365800826698948},
{ -1.5976826351526048, 0.9477883912401638, 0.0042791936713373014},
{ -1.5976826351526048, 1.5976826351526048, 0.0008477815149860126},
{ -1.5976826351526048, 2.2795070805010598, 6.41551478310345e-05},
{ -1.5976826351526048, 3.0206370251208896, 1.4084280376546465e-06},
{ -1.5976826351526048, 3.889724897869782, 4.3672911231367724e-09},
{ -0.9477883912401638, -3.889724897869782, 2.2043986811062738e-08},
{ -0.9477883912401638, -3.0206370251208896, 7.109067889225226e-06},
{ -0.9477883912401638, -2.2795070805010598, 0.00032382435536684387},
{ -0.9477883912401638, -1.5976826351526048, 0.0042791936713373014},
{ -0.9477883912401638, -0.9477883912401638, 0.021599313211158336},
{ -0.9477883912401638, -0.31424037625435913, 0.04727406167292648},
{ -0.9477883912401638, 0.31424037625435913, 0.04727406167292648},
{ -0.9477883912401638, 0.9477883912401638, 0.021599313211158336},
{ -0.9477883912401638, 1.5976826351526048, 0.0042791936713373014},
{ -0.9477883912401638, 2.2795070805010598, 0.00032382435536684387},
{ -0.9477883912401638, 3.0206370251208896, 7.109067889225226e-06},
{ -0.9477883912401638, 3.889724897869782, 2.2043986811062738e-08},
{ -0.31424037625435913, -3.889724897869782, 4.8247311469375716e-08},
{ -0.31424037625435913, -3.0206370251208896, 1.555949999644602e-05},
{ -0.31424037625435913, -2.2795070805010598, 0.0007087490420250667},
{ -0.31424037625435913, -1.5976826351526048, 0.00936580082669895},
{ -0.31424037625435913, -0.9477883912401638, 0.047274061672926485},
{ -0.31424037625435913, -0.31424037625435913, 0.10346796146745657},
{ -0.31424037625435913, 0.31424037625435913, 0.10346796146745657},
{ -0.31424037625435913, 0.9477883912401638, 0.047274061672926485},
{ -0.31424037625435913, 1.5976826351526048, 0.00936580082669895},
{ -0.31424037625435913, 2.2795070805010598, 0.0007087490420250667},
{ -0.31424037625435913, 3.0206370251208896, 1.555949999644602e-05},
{ -0.31424037625435913, 3.889724897869782, 4.8247311469375716e-08},
{ 0.31424037625435913, -3.889724897869782, 4.8247311469375716e-08},
{ 0.31424037625435913, -3.0206370251208896, 1.555949999644602e-05},
{ 0.31424037625435913, -2.2795070805010598, 0.0007087490420250667},
{ 0.31424037625435913, -1.5976826351526048, 0.00936580082669895},
{ 0.31424037625435913, -0.9477883912401638, 0.047274061672926485},
{ 0.31424037625435913, -0.31424037625435913, 0.10346796146745657},
{ 0.31424037625435913, 0.31424037625435913, 0.10346796146745657},
{ 0.31424037625435913, 0.9477883912401638, 0.047274061672926485},
{ 0.31424037625435913, 1.5976826351526048, 0.00936580082669895},
{ 0.31424037625435913, 2.2795070805010598, 0.0007087490420250667},
{ 0.31424037625435913, 3.0206370251208896, 1.555949999644602e-05},
{ 0.31424037625435913, 3.889724897869782, 4.8247311469375716e-08},
{ 0.9477883912401638, -3.889724897869782, 2.2043986811062738e-08},
{ 0.9477883912401638, -3.0206370251208896, 7.109067889225226e-06},
{ 0.9477883912401638, -2.2795070805010598, 0.00032382435536684387},
{ 0.9477883912401638, -1.5976826351526048, 0.0042791936713373014},
{ 0.9477883912401638, -0.9477883912401638, 0.021599313211158336},
{ 0.9477883912401638, -0.31424037625435913, 0.04727406167292648},
{ 0.9477883912401638, 0.31424037625435913, 0.04727406167292648},
{ 0.9477883912401638, 0.9477883912401638, 0.021599313211158336},
{ 0.9477883912401638, 1.5976826351526048, 0.0042791936713373014},
{ 0.9477883912401638, 2.2795070805010598, 0.00032382435536684387},
{ 0.9477883912401638, 3.0206370251208896, 7.109067889225226e-06},
{ 0.9477883912401638, 3.889724897869782, 2.2043986811062738e-08},
{ 1.5976826351526048, -3.889724897869782, 4.3672911231367724e-09},
{ 1.5976826351526048, -3.0206370251208896, 1.4084280376546465e-06},
{ 1.5976826351526048, -2.2795070805010598, 6.41551478310345e-05},
{ 1.5976826351526048, -1.5976826351526048, 0.0008477815149860126},
{ 1.5976826351526048, -0.9477883912401638, 0.0042791936713373014},
{ 1.5976826351526048, -0.31424037625435913, 0.009365800826698948},
{ 1.5976826351526048, 0.31424037625435913, 0.009365800826698948},
{ 1.5976826351526048, 0.9477883912401638, 0.0042791936713373014},
{ 1.5976826351526048, 1.5976826351526048, 0.0008477815149860126},
{ 1.5976826351526048, 2.2795070805010598, 6.41551478310345e-05},
{ 1.5976826351526048, 3.0206370251208896, 1.4084280376546465e-06},
{ 1.5976826351526048, 3.889724897869782, 4.3672911231367724e-09},
{ 2.2795070805010598, -3.889724897869782, 3.3049105538781066e-10},
{ 2.2795070805010598, -3.0206370251208896, 1.0658159840462962e-07},
{ 2.2795070805010598, -2.2795070805010598, 4.854886454194272e-06},
{ 2.2795070805010598, -1.5976826351526048, 6.415514783103451e-05},
{ 2.2795070805010598, -0.9477883912401638, 0.00032382435536684387},
{ 2.2795070805010598, -0.31424037625435913, 0.0007087490420250667},
{ 2.2795070805010598, 0.31424037625435913, 0.0007087490420250667},
{ 2.2795070805010598, 0.9477883912401638, 0.00032382435536684387},
{ 2.2795070805010598, 1.5976826351526048, 6.415514783103451e-05},
{ 2.2795070805010598, 2.2795070805010598, 4.854886454194272e-06},
{ 2.2795070805010598, 3.0206370251208896, 1.0658159840462962e-07},
{ 2.2795070805010598, 3.889724897869782, 3.3049105538781066e-10},
{ 3.0206370251208896, -3.889724897869782, 7.255425080278575e-12},
{ 3.0206370251208896, -3.0206370251208896, 2.33983579753381e-09},
{ 3.0206370251208896, -2.2795070805010598, 1.0658159840462962e-07},
{ 3.0206370251208896, -1.5976826351526048, 1.4084280376546467e-06},
{ 3.0206370251208896, -0.9477883912401638, 7.109067889225227e-06},
{ 3.0206370251208896, -0.31424037625435913, 1.555949999644602e-05},
{ 3.0206370251208896, 0.31424037625435913, 1.555949999644602e-05},
{ 3.0206370251208896, 0.9477883912401638, 7.109067889225227e-06},
{ 3.0206370251208896, 1.5976826351526048, 1.4084280376546467e-06},
{ 3.0206370251208896, 2.2795070805010598, 1.0658159840462962e-07},
{ 3.0206370251208896, 3.0206370251208896, 2.33983579753381e-09},
{ 3.0206370251208896, 3.889724897869782, 7.255425080278575e-12},
{ 3.889724897869782, -3.889724897869782, 2.2497815082160568e-14},
{ 3.889724897869782, -3.0206370251208896, 7.255425080278574e-12},
{ 3.889724897869782, -2.2795070805010598, 3.3049105538781066e-10},
{ 3.889724897869782, -1.5976826351526048, 4.3672911231367724e-09},
{ 3.889724897869782, -0.9477883912401638, 2.204398681106274e-08},
{ 3.889724897869782, -0.31424037625435913, 4.824731146937571e-08},
{ 3.889724897869782, 0.31424037625435913, 4.824731146937571e-08},
{ 3.889724897869782, 0.9477883912401638, 2.204398681106274e-08},
{ 3.889724897869782, 1.5976826351526048, 4.3672911231367724e-09},
{ 3.889724897869782, 2.2795070805010598, 3.3049105538781066e-10},
{ 3.889724897869782, 3.0206370251208896, 7.255425080278574e-12},
{ 3.889724897869782, 3.889724897869782, 2.2497815082160568e-14},
};
#endif //144
#if 0
// 36a - non-LB GH
#define NON_LB_GH
const Real ew[36][3] = {
{ -2.3506049736744923, -2.3506049736744923, 6.532033909794005e-06},
{ -2.3506049736744923, -1.335849074013697, 0.0002264827415105027},
{ -2.3506049736744923, -0.4360774119276165, 0.0010448774256078266},
{ -2.3506049736744923, 0.4360774119276165, 0.0010448774256078266},
{ -2.3506049736744923, 1.335849074013697, 0.0002264827415105027},
{ -2.3506049736744923, 2.3506049736744923, 6.532033909794005e-06},
{ -1.335849074013697, -2.3506049736744923, 0.0002264827415105027},
{ -1.335849074013697, -1.335849074013697, 0.007852750446565089},
{ -1.335849074013697, -0.4360774119276165, 0.036228639832881666},
{ -1.335849074013697, 0.4360774119276165, 0.036228639832881666},
{ -1.335849074013697, 1.335849074013697, 0.007852750446565089},
{ -1.335849074013697, 2.3506049736744923, 0.0002264827415105027},
{ -0.4360774119276165, -2.3506049736744923, 0.0010448774256078266},
{ -0.4360774119276165, -1.335849074013697, 0.03622863983288167},
{ -0.4360774119276165, -0.4360774119276165, 0.16714071751952514},
{ -0.4360774119276165, 0.4360774119276165, 0.16714071751952514},
{ -0.4360774119276165, 1.335849074013697, 0.03622863983288167},
{ -0.4360774119276165, 2.3506049736744923, 0.0010448774256078266},
{ 0.4360774119276165, -2.3506049736744923, 0.0010448774256078266},
{ 0.4360774119276165, -1.335849074013697, 0.03622863983288167},
{ 0.4360774119276165, -0.4360774119276165, 0.16714071751952514},
{ 0.4360774119276165, 0.4360774119276165, 0.16714071751952514},
{ 0.4360774119276165, 1.335849074013697, 0.03622863983288167},
{ 0.4360774119276165, 2.3506049736744923, 0.0010448774256078266},
{ 1.335849074013697, -2.3506049736744923, 0.0002264827415105027},
{ 1.335849074013697, -1.335849074013697, 0.007852750446565089},
{ 1.335849074013697, -0.4360774119276165, 0.036228639832881666},
{ 1.335849074013697, 0.4360774119276165, 0.036228639832881666},
{ 1.335849074013697, 1.335849074013697, 0.007852750446565089},
{ 1.335849074013697, 2.3506049736744923, 0.0002264827415105027},
{ 2.3506049736744923, -2.3506049736744923, 6.532033909794005e-06},
{ 2.3506049736744923, -1.335849074013697, 0.0002264827415105027},
{ 2.3506049736744923, -0.4360774119276165, 0.0010448774256078266},
{ 2.3506049736744923, 0.4360774119276165, 0.0010448774256078266},
{ 2.3506049736744923, 1.335849074013697, 0.0002264827415105027},
{ 2.3506049736744923, 2.3506049736744923, 6.532033909794005e-06},
};
#endif // 36
#if 0
// 36 LB version Kim and Pitsch
const Real ew[36][3] = {
{ 0.6167065901931365, 0.6167065901931365, 0.16714071751934423},
{ 0.6167065901931365, -0.6167065901931365, 0.16714071751934423},
{ 0.6167065901931365, 1.88917587775414, 0.036228639832895135},
{ 0.6167065901931365, -1.88917587775414, 0.036228639832895135},
{ 0.6167065901931365, 3.32425743355142, 0.0010448774256075273},
{ 0.6167065901931365, -3.32425743355142, 0.0010448774256075273},
{ -0.6167065901931365, 0.6167065901931365, 0.16714071751934423},
{ -0.6167065901931365, -0.6167065901931365, 0.16714071751934423},
{ -0.6167065901931365, 1.88917587775414, 0.036228639832895135},
{ -0.6167065901931365, -1.88917587775414, 0.036228639832895135},
{ -0.6167065901931365, 3.32425743355142, 0.0010448774256075273},
{ -0.6167065901931365, -3.32425743355142, 0.0010448774256075273},
{ 1.88917587775414, 0.6167065901931365, 0.036228639832895135},
{ 1.88917587775414, -0.6167065901931365, 0.036228639832895135},
{ 1.88917587775414, 1.88917587775414, 0.007852750446579427},
{ 1.88917587775414, -1.88917587775414, 0.007852750446579427},
{ 1.88917587775414, 3.32425743355142, 0.00022648274151076717},
{ 1.88917587775414, -3.32425743355142, 0.00022648274151076717},
{ -1.88917587775414, 0.6167065901931365, 0.036228639832895135},
{ -1.88917587775414, -0.6167065901931365, 0.036228639832895135},
{ -1.88917587775414, 1.88917587775414, 0.007852750446579427},
{ -1.88917587775414, -1.88917587775414, 0.007852750446579427},
{ -1.88917587775414, 3.32425743355142, 0.00022648274151076717},
{ -1.88917587775414, -3.32425743355142, 0.00022648274151076717},
{ 3.32425743355142, 0.6167065901931365, 0.0010448774256075273},
{ 3.32425743355142, -0.6167065901931365, 0.0010448774256075273},
{ 3.32425743355142, 1.88917587775414, 0.00022648274151076717},
{ 3.32425743355142, -1.88917587775414, 0.00022648274151076717},
{ 3.32425743355142, 3.32425743355142, 6.532033909797335e-06},
{ 3.32425743355142, -3.32425743355142, 6.532033909797335e-06},
{ -3.32425743355142, 0.6167065901931365, 0.0010448774256075273},
{ -3.32425743355142, -0.6167065901931365, 0.0010448774256075273},
{ -3.32425743355142, 1.88917587775414, 0.00022648274151076717},
{ -3.32425743355142, -1.88917587775414, 0.00022648274151076717},
{ -3.32425743355142, 3.32425743355142, 6.532033909797335e-06},
{ -3.32425743355142, -3.32425743355142, 6.532033909797335e-06},
};
#endif // LB36
#if 0
#define NON_LB_GH
const Real ew[289][3] = {
{ -4.871345193674403, -4.871345193674403, 6.678683602503737e-22},
{ -4.871345193674403, -4.0619466758754745, 7.25679794741318e-19},
{ -4.871345193674403, -3.378932091141494, 1.0370027364083403e-16},
{ -4.871345193674403, -2.7577629157038888, 4.354349203449601e-15},
{ -4.871345193674403, -2.173502826666621, 7.388416962450291e-14},
{ -4.871345193674403, -1.6129243142212313, 5.966319219003638e-13},
{ -4.871345193674403, -1.0676487257434506, 2.5172873823799e-12},
{ -4.871345193674403, -0.5316330013426547, 5.858804952927872e-12},
{ -4.871345193674403, 0.0, 7.741014788434298e-12},
{ -4.871345193674403, 0.5316330013426547, 5.858804952927872e-12},
{ -4.871345193674403, 1.0676487257434506, 2.5172873823799e-12},
{ -4.871345193674403, 1.6129243142212313, 5.966319219003638e-13},
{ -4.871345193674403, 2.173502826666621, 7.388416962450291e-14},
{ -4.871345193674403, 2.7577629157038888, 4.354349203449601e-15},
{ -4.871345193674403, 3.378932091141494, 1.0370027364083403e-16},
{ -4.871345193674403, 4.0619466758754745, 7.25679794741318e-19},
{ -4.871345193674403, 4.871345193674403, 6.678683602503737e-22},
{ -4.0619466758754745, -4.871345193674403, 7.25679794741318e-19},
{ -4.0619466758754745, -4.0619466758754745, 7.884954518557862e-16},
{ -4.0619466758754745, -3.378932091141494, 1.1267668566016162e-13},
{ -4.0619466758754745, -2.7577629157038888, 4.731266555293535e-12},
{ -4.0619466758754745, -2.173502826666621, 8.027966623189347e-11},
{ -4.0619466758754745, -1.6129243142212313, 6.482770503733138e-10},
{ -4.0619466758754745, -1.0676487257434506, 2.735186602140483e-09},
{ -4.0619466758754745, -0.5316330013426547, 6.365949682174266e-09},
{ -4.0619466758754745, 0.0, 8.411085712541606e-09},
{ -4.0619466758754745, 0.5316330013426547, 6.365949682174266e-09},
{ -4.0619466758754745, 1.0676487257434506, 2.735186602140483e-09},
{ -4.0619466758754745, 1.6129243142212313, 6.482770503733138e-10},
{ -4.0619466758754745, 2.173502826666621, 8.027966623189347e-11},
{ -4.0619466758754745, 2.7577629157038888, 4.731266555293535e-12},
{ -4.0619466758754745, 3.378932091141494, 1.1267668566016162e-13},
{ -4.0619466758754745, 4.0619466758754745, 7.884954518557862e-16},
{ -4.0619466758754745, 4.871345193674403, 7.25679794741318e-19},
{ -3.378932091141494, -4.871345193674403, 1.0370027364083401e-16},
{ -3.378932091141494, -4.0619466758754745, 1.1267668566016162e-13},
{ -3.378932091141494, -3.378932091141494, 1.6101596352239892e-11},
{ -3.378932091141494, -2.7577629157038888, 6.761021045467599e-10},
{ -3.378932091141494, -2.173502826666621, 1.1472034107012425e-08},
{ -3.378932091141494, -1.6129243142212313, 9.263935416963003e-08},
{ -3.378932091141494, -1.0676487257434506, 3.908605436669484e-07},
{ -3.378932091141494, -0.5316330013426547, 9.096997447208444e-07},
{ -3.378932091141494, 0.0, 1.2019514616884117e-06},
{ -3.378932091141494, 0.5316330013426547, 9.096997447208444e-07},
{ -3.378932091141494, 1.0676487257434506, 3.908605436669484e-07},
{ -3.378932091141494, 1.6129243142212313, 9.263935416963003e-08},
{ -3.378932091141494, 2.173502826666621, 1.1472034107012425e-08},
{ -3.378932091141494, 2.7577629157038888, 6.761021045467599e-10},
{ -3.378932091141494, 3.378932091141494, 1.6101596352239892e-11},
{ -3.378932091141494, 4.0619466758754745, 1.1267668566016162e-13},
{ -3.378932091141494, 4.871345193674403, 1.0370027364083401e-16},
{ -2.7577629157038888, -4.871345193674403, 4.354349203449601e-15},
{ -2.7577629157038888, -4.0619466758754745, 4.731266555293536e-12},
{ -2.7577629157038888, -3.378932091141494, 6.761021045467599e-10},
{ -2.7577629157038888, -2.7577629157038888, 2.8389362506219374e-08},
{ -2.7577629157038888, -2.173502826666621, 4.817079147623978e-07},
{ -2.7577629157038888, -1.6129243142212313, 3.889903891996806e-06},
{ -2.7577629157038888, -1.0676487257434506, 1.6412138919427897e-05},
{ -2.7577629157038888, -0.5316330013426547, 3.819807045565725e-05},
{ -2.7577629157038888, 0.0, 5.046964878718643e-05},
{ -2.7577629157038888, 0.5316330013426547, 3.819807045565725e-05},
{ -2.7577629157038888, 1.0676487257434506, 1.6412138919427897e-05},
{ -2.7577629157038888, 1.6129243142212313, 3.889903891996806e-06},
{ -2.7577629157038888, 2.173502826666621, 4.817079147623978e-07},
{ -2.7577629157038888, 2.7577629157038888, 2.8389362506219374e-08},
{ -2.7577629157038888, 3.378932091141494, 6.761021045467599e-10},
{ -2.7577629157038888, 4.0619466758754745, 4.731266555293536e-12},
{ -2.7577629157038888, 4.871345193674403, 4.354349203449601e-15},
{ -2.173502826666621, -4.871345193674403, 7.388416962450291e-14},
{ -2.173502826666621, -4.0619466758754745, 8.027966623189347e-11},
{ -2.173502826666621, -3.378932091141494, 1.1472034107012426e-08},
{ -2.173502826666621, -2.7577629157038888, 4.817079147623978e-07},
{ -2.173502826666621, -2.173502826666621, 8.17357258705274e-06},
{ -2.173502826666621, -1.6129243142212313, 6.600350719497193e-05},
{ -2.173502826666621, -1.0676487257434506, 0.00027847956127709586},
{ -2.173502826666621, -0.5316330013426547, 0.0006481411078924643},
{ -2.173502826666621, 0.0, 0.0008563640437766121},
{ -2.173502826666621, 0.5316330013426547, 0.0006481411078924643},
{ -2.173502826666621, 1.0676487257434506, 0.00027847956127709586},
{ -2.173502826666621, 1.6129243142212313, 6.600350719497193e-05},
{ -2.173502826666621, 2.173502826666621, 8.17357258705274e-06},
{ -2.173502826666621, 2.7577629157038888, 4.817079147623978e-07},
{ -2.173502826666621, 3.378932091141494, 1.1472034107012426e-08},
{ -2.173502826666621, 4.0619466758754745, 8.027966623189347e-11},
{ -2.173502826666621, 4.871345193674403, 7.388416962450291e-14},
{ -1.6129243142212313, -4.871345193674403, 5.966319219003637e-13},
{ -1.6129243142212313, -4.0619466758754745, 6.482770503733139e-10},
{ -1.6129243142212313, -3.378932091141494, 9.263935416963003e-08},
{ -1.6129243142212313, -2.7577629157038888, 3.889903891996806e-06},
{ -1.6129243142212313, -2.173502826666621, 6.600350719497193e-05},
{ -1.6129243142212313, -1.6129243142212313, 0.0005329937326228093},
{ -1.6129243142212313, -1.0676487257434506, 0.0022487874831528453},
{ -1.6129243142212313, -0.5316330013426547, 0.005233890789188302},
{ -1.6129243142212313, 0.0, 0.006915339617153406},
{ -1.6129243142212313, 0.5316330013426547, 0.005233890789188302},
{ -1.6129243142212313, 1.0676487257434506, 0.0022487874831528453},
{ -1.6129243142212313, 1.6129243142212313, 0.0005329937326228093},
{ -1.6129243142212313, 2.173502826666621, 6.600350719497193e-05},
{ -1.6129243142212313, 2.7577629157038888, 3.889903891996806e-06},
{ -1.6129243142212313, 3.378932091141494, 9.263935416963003e-08},
{ -1.6129243142212313, 4.0619466758754745, 6.482770503733139e-10},
{ -1.6129243142212313, 4.871345193674403, 5.966319219003637e-13},
{ -1.0676487257434506, -4.871345193674403, 2.5172873823799e-12},
{ -1.0676487257434506, -4.0619466758754745, 2.735186602140483e-09},
{ -1.0676487257434506, -3.378932091141494, 3.908605436669484e-07},
{ -1.0676487257434506, -2.7577629157038888, 1.6412138919427897e-05},
{ -1.0676487257434506, -2.173502826666621, 0.0002784795612770958},
{ -1.0676487257434506, -1.6129243142212313, 0.0022487874831528453},
{ -1.0676487257434506, -1.0676487257434506, 0.00948800114308979},
{ -1.0676487257434506, -0.5316330013426547, 0.022082638827659515},
{ -1.0676487257434506, 0.0, 0.02917694565802867},
{ -1.0676487257434506, 0.5316330013426547, 0.022082638827659515},
{ -1.0676487257434506, 1.0676487257434506, 0.00948800114308979},
{ -1.0676487257434506, 1.6129243142212313, 0.0022487874831528453},
{ -1.0676487257434506, 2.173502826666621, 0.0002784795612770958},
{ -1.0676487257434506, 2.7577629157038888, 1.6412138919427897e-05},
{ -1.0676487257434506, 3.378932091141494, 3.908605436669484e-07},
{ -1.0676487257434506, 4.0619466758754745, 2.735186602140483e-09},
{ -1.0676487257434506, 4.871345193674403, 2.5172873823799e-12},
{ -0.5316330013426547, -4.871345193674403, 5.858804952927872e-12},
{ -0.5316330013426547, -4.0619466758754745, 6.365949682174267e-09},
{ -0.5316330013426547, -3.378932091141494, 9.096997447208445e-07},
{ -0.5316330013426547, -2.7577629157038888, 3.8198070455657255e-05},
{ -0.5316330013426547, -2.173502826666621, 0.0006481411078924643},
{ -0.5316330013426547, -1.6129243142212313, 0.005233890789188303},
{ -0.5316330013426547, -1.0676487257434506, 0.022082638827659515},
{ -0.5316330013426547, -0.5316330013426547, 0.05139575029963092},
{ -0.5316330013426547, 0.0, 0.06790723813621681},
{ -0.5316330013426547, 0.5316330013426547, 0.05139575029963092},
{ -0.5316330013426547, 1.0676487257434506, 0.022082638827659515},
{ -0.5316330013426547, 1.6129243142212313, 0.005233890789188303},
{ -0.5316330013426547, 2.173502826666621, 0.0006481411078924643},
{ -0.5316330013426547, 2.7577629157038888, 3.8198070455657255e-05},
{ -0.5316330013426547, 3.378932091141494, 9.096997447208445e-07},
{ -0.5316330013426547, 4.0619466758754745, 6.365949682174267e-09},
{ -0.5316330013426547, 4.871345193674403, 5.858804952927872e-12},
{ 0.0, -4.871345193674403, 7.741014788434298e-12},
{ 0.0, -4.0619466758754745, 8.411085712541606e-09},
{ 0.0, -3.378932091141494, 1.201951461688412e-06},
{ 0.0, -2.7577629157038888, 5.046964878718643e-05},
{ 0.0, -2.173502826666621, 0.000856364043776612},
{ 0.0, -1.6129243142212313, 0.006915339617153406},
{ 0.0, -1.0676487257434506, 0.02917694565802867},
{ 0.0, -0.5316330013426547, 0.0679072381362168},
{ 0.0, 0.0, 0.08972323517810328},
{ 0.0, 0.5316330013426547, 0.0679072381362168},
{ 0.0, 1.0676487257434506, 0.02917694565802867},
{ 0.0, 1.6129243142212313, 0.006915339617153406},
{ 0.0, 2.173502826666621, 0.000856364043776612},
{ 0.0, 2.7577629157038888, 5.046964878718643e-05},
{ 0.0, 3.378932091141494, 1.201951461688412e-06},
{ 0.0, 4.0619466758754745, 8.411085712541606e-09},
{ 0.0, 4.871345193674403, 7.741014788434298e-12},
{ 0.5316330013426547, -4.871345193674403, 5.858804952927872e-12},
{ 0.5316330013426547, -4.0619466758754745, 6.365949682174267e-09},
{ 0.5316330013426547, -3.378932091141494, 9.096997447208445e-07},
{ 0.5316330013426547, -2.7577629157038888, 3.8198070455657255e-05},
{ 0.5316330013426547, -2.173502826666621, 0.0006481411078924643},
{ 0.5316330013426547, -1.6129243142212313, 0.005233890789188303},
{ 0.5316330013426547, -1.0676487257434506, 0.022082638827659515},
{ 0.5316330013426547, -0.5316330013426547, 0.05139575029963092},
{ 0.5316330013426547, 0.0, 0.06790723813621681},
{ 0.5316330013426547, 0.5316330013426547, 0.05139575029963092},
{ 0.5316330013426547, 1.0676487257434506, 0.022082638827659515},
{ 0.5316330013426547, 1.6129243142212313, 0.005233890789188303},
{ 0.5316330013426547, 2.173502826666621, 0.0006481411078924643},
{ 0.5316330013426547, 2.7577629157038888, 3.8198070455657255e-05},
{ 0.5316330013426547, 3.378932091141494, 9.096997447208445e-07},
{ 0.5316330013426547, 4.0619466758754745, 6.365949682174267e-09},
{ 0.5316330013426547, 4.871345193674403, 5.858804952927872e-12},
{ 1.0676487257434506, -4.871345193674403, 2.5172873823799e-12},
{ 1.0676487257434506, -4.0619466758754745, 2.735186602140483e-09},
{ 1.0676487257434506, -3.378932091141494, 3.908605436669484e-07},
{ 1.0676487257434506, -2.7577629157038888, 1.6412138919427897e-05},
{ 1.0676487257434506, -2.173502826666621, 0.0002784795612770958},
{ 1.0676487257434506, -1.6129243142212313, 0.0022487874831528453},
{ 1.0676487257434506, -1.0676487257434506, 0.00948800114308979},
{ 1.0676487257434506, -0.5316330013426547, 0.022082638827659515},
{ 1.0676487257434506, 0.0, 0.02917694565802867},
{ 1.0676487257434506, 0.5316330013426547, 0.022082638827659515},
{ 1.0676487257434506, 1.0676487257434506, 0.00948800114308979},
{ 1.0676487257434506, 1.6129243142212313, 0.0022487874831528453},
{ 1.0676487257434506, 2.173502826666621, 0.0002784795612770958},
{ 1.0676487257434506, 2.7577629157038888, 1.6412138919427897e-05},
{ 1.0676487257434506, 3.378932091141494, 3.908605436669484e-07},
{ 1.0676487257434506, 4.0619466758754745, 2.735186602140483e-09},
{ 1.0676487257434506, 4.871345193674403, 2.5172873823799e-12},
{ 1.6129243142212313, -4.871345193674403, 5.966319219003637e-13},
{ 1.6129243142212313, -4.0619466758754745, 6.482770503733139e-10},
{ 1.6129243142212313, -3.378932091141494, 9.263935416963003e-08},
{ 1.6129243142212313, -2.7577629157038888, 3.889903891996806e-06},
{ 1.6129243142212313, -2.173502826666621, 6.600350719497193e-05},
{ 1.6129243142212313, -1.6129243142212313, 0.0005329937326228093},
{ 1.6129243142212313, -1.0676487257434506, 0.0022487874831528453},
{ 1.6129243142212313, -0.5316330013426547, 0.005233890789188302},
{ 1.6129243142212313, 0.0, 0.006915339617153406},
{ 1.6129243142212313, 0.5316330013426547, 0.005233890789188302},
{ 1.6129243142212313, 1.0676487257434506, 0.0022487874831528453},
{ 1.6129243142212313, 1.6129243142212313, 0.0005329937326228093},
{ 1.6129243142212313, 2.173502826666621, 6.600350719497193e-05},
{ 1.6129243142212313, 2.7577629157038888, 3.889903891996806e-06},
{ 1.6129243142212313, 3.378932091141494, 9.263935416963003e-08},
{ 1.6129243142212313, 4.0619466758754745, 6.482770503733139e-10},
{ 1.6129243142212313, 4.871345193674403, 5.966319219003637e-13},
{ 2.173502826666621, -4.871345193674403, 7.388416962450291e-14},
{ 2.173502826666621, -4.0619466758754745, 8.027966623189347e-11},
{ 2.173502826666621, -3.378932091141494, 1.1472034107012426e-08},
{ 2.173502826666621, -2.7577629157038888, 4.817079147623978e-07},
{ 2.173502826666621, -2.173502826666621, 8.17357258705274e-06},
{ 2.173502826666621, -1.6129243142212313, 6.600350719497193e-05},
{ 2.173502826666621, -1.0676487257434506, 0.00027847956127709586},
{ 2.173502826666621, -0.5316330013426547, 0.0006481411078924643},
{ 2.173502826666621, 0.0, 0.0008563640437766121},
{ 2.173502826666621, 0.5316330013426547, 0.0006481411078924643},
{ 2.173502826666621, 1.0676487257434506, 0.00027847956127709586},
{ 2.173502826666621, 1.6129243142212313, 6.600350719497193e-05},
{ 2.173502826666621, 2.173502826666621, 8.17357258705274e-06},
{ 2.173502826666621, 2.7577629157038888, 4.817079147623978e-07},
{ 2.173502826666621, 3.378932091141494, 1.1472034107012426e-08},
{ 2.173502826666621, 4.0619466758754745, 8.027966623189347e-11},
{ 2.173502826666621, 4.871345193674403, 7.388416962450291e-14},
{ 2.7577629157038888, -4.871345193674403, 4.354349203449601e-15},
{ 2.7577629157038888, -4.0619466758754745, 4.731266555293536e-12},
{ 2.7577629157038888, -3.378932091141494, 6.761021045467599e-10},
{ 2.7577629157038888, -2.7577629157038888, 2.8389362506219374e-08},
{ 2.7577629157038888, -2.173502826666621, 4.817079147623978e-07},
{ 2.7577629157038888, -1.6129243142212313, 3.889903891996806e-06},
{ 2.7577629157038888, -1.0676487257434506, 1.6412138919427897e-05},
{ 2.7577629157038888, -0.5316330013426547, 3.819807045565725e-05},
{ 2.7577629157038888, 0.0, 5.046964878718643e-05},
{ 2.7577629157038888, 0.5316330013426547, 3.819807045565725e-05},
{ 2.7577629157038888, 1.0676487257434506, 1.6412138919427897e-05},
{ 2.7577629157038888, 1.6129243142212313, 3.889903891996806e-06},
{ 2.7577629157038888, 2.173502826666621, 4.817079147623978e-07},
{ 2.7577629157038888, 2.7577629157038888, 2.8389362506219374e-08},
{ 2.7577629157038888, 3.378932091141494, 6.761021045467599e-10},
{ 2.7577629157038888, 4.0619466758754745, 4.731266555293536e-12},
{ 2.7577629157038888, 4.871345193674403, 4.354349203449601e-15},
{ 3.378932091141494, -4.871345193674403, 1.0370027364083401e-16},
{ 3.378932091141494, -4.0619466758754745, 1.1267668566016162e-13},
{ 3.378932091141494, -3.378932091141494, 1.6101596352239892e-11},
{ 3.378932091141494, -2.7577629157038888, 6.761021045467599e-10},
{ 3.378932091141494, -2.173502826666621, 1.1472034107012425e-08},
{ 3.378932091141494, -1.6129243142212313, 9.263935416963003e-08},
{ 3.378932091141494, -1.0676487257434506, 3.908605436669484e-07},
{ 3.378932091141494, -0.5316330013426547, 9.096997447208444e-07},
{ 3.378932091141494, 0.0, 1.2019514616884117e-06},
{ 3.378932091141494, 0.5316330013426547, 9.096997447208444e-07},
{ 3.378932091141494, 1.0676487257434506, 3.908605436669484e-07},
{ 3.378932091141494, 1.6129243142212313, 9.263935416963003e-08},
{ 3.378932091141494, 2.173502826666621, 1.1472034107012425e-08},
{ 3.378932091141494, 2.7577629157038888, 6.761021045467599e-10},
{ 3.378932091141494, 3.378932091141494, 1.6101596352239892e-11},
{ 3.378932091141494, 4.0619466758754745, 1.1267668566016162e-13},
{ 3.378932091141494, 4.871345193674403, 1.0370027364083401e-16},
{ 4.0619466758754745, -4.871345193674403, 7.25679794741318e-19},
{ 4.0619466758754745, -4.0619466758754745, 7.884954518557862e-16},
{ 4.0619466758754745, -3.378932091141494, 1.1267668566016162e-13},
{ 4.0619466758754745, -2.7577629157038888, 4.731266555293535e-12},
{ 4.0619466758754745, -2.173502826666621, 8.027966623189347e-11},
{ 4.0619466758754745, -1.6129243142212313, 6.482770503733138e-10},
{ 4.0619466758754745, -1.0676487257434506, 2.735186602140483e-09},
{ 4.0619466758754745, -0.5316330013426547, 6.365949682174266e-09},
{ 4.0619466758754745, 0.0, 8.411085712541606e-09},
{ 4.0619466758754745, 0.5316330013426547, 6.365949682174266e-09},
{ 4.0619466758754745, 1.0676487257434506, 2.735186602140483e-09},
{ 4.0619466758754745, 1.6129243142212313, 6.482770503733138e-10},
{ 4.0619466758754745, 2.173502826666621, 8.027966623189347e-11},
{ 4.0619466758754745, 2.7577629157038888, 4.731266555293535e-12},
{ 4.0619466758754745, 3.378932091141494, 1.1267668566016162e-13},
{ 4.0619466758754745, 4.0619466758754745, 7.884954518557862e-16},
{ 4.0619466758754745, 4.871345193674403, 7.25679794741318e-19},
{ 4.871345193674403, -4.871345193674403, 6.678683602503737e-22},
{ 4.871345193674403, -4.0619466758754745, 7.25679794741318e-19},
{ 4.871345193674403, -3.378932091141494, 1.0370027364083403e-16},
{ 4.871345193674403, -2.7577629157038888, 4.354349203449601e-15},
{ 4.871345193674403, -2.173502826666621, 7.388416962450291e-14},
{ 4.871345193674403, -1.6129243142212313, 5.966319219003638e-13},
{ 4.871345193674403, -1.0676487257434506, 2.5172873823799e-12},
{ 4.871345193674403, -0.5316330013426547, 5.858804952927872e-12},
{ 4.871345193674403, 0.0, 7.741014788434298e-12},
{ 4.871345193674403, 0.5316330013426547, 5.858804952927872e-12},
{ 4.871345193674403, 1.0676487257434506, 2.5172873823799e-12},
{ 4.871345193674403, 1.6129243142212313, 5.966319219003638e-13},
{ 4.871345193674403, 2.173502826666621, 7.388416962450291e-14},
{ 4.871345193674403, 2.7577629157038888, 4.354349203449601e-15},
{ 4.871345193674403, 3.378932091141494, 1.0370027364083403e-16},
{ 4.871345193674403, 4.0619466758754745, 7.25679794741318e-19},
{ 4.871345193674403, 4.871345193674403, 6.678683602503737e-22},
};
#endif //289
#if 1
#define NON_LB_GH
const Real ew[324][3] = {
{ -5.048364008874467, -5.048364008874467, 1.9506256357625447e-23},
{ -5.048364008874467, -4.248117873568127, 2.6082114093206936e-20},
{ -5.048364008874467, -3.573769068486266, 4.51177684671495e-18},
{ -5.048364008874467, -2.961377505531607, 2.2877471136548096e-16},
{ -5.048364008874467, -2.386299089166686, 4.705808185224158e-15},
{ -5.048364008874467, -1.835531604261629, 4.644713419598559e-14},
{ -5.048364008874467, -1.3009208583896175, 2.424558504877636e-13},
{ -5.048364008874467, -0.7766829192674116, 7.096809085770787e-13},
{ -5.048364008874467, -0.2582677505190968, 1.2047713706434682e-12},
{ -5.048364008874467, 0.2582677505190968, 1.2047713706434682e-12},
{ -5.048364008874467, 0.7766829192674116, 7.096809085770787e-13},
{ -5.048364008874467, 1.3009208583896175, 2.424558504877636e-13},
{ -5.048364008874467, 1.835531604261629, 4.644713419598559e-14},
{ -5.048364008874467, 2.386299089166686, 4.705808185224158e-15},
{ -5.048364008874467, 2.961377505531607, 2.2877471136548096e-16},
{ -5.048364008874467, 3.573769068486266, 4.51177684671495e-18},
{ -5.048364008874467, 4.248117873568127, 2.6082114093206936e-20},
{ -5.048364008874467, 5.048364008874467, 1.9506256357625447e-23},
{ -4.248117873568127, -5.048364008874467, 2.6082114093206936e-20},
{ -4.248117873568127, -4.248117873568127, 3.487479417367177e-17},
{ -4.248117873568127, -3.573769068486266, 6.032765914773094e-15},
{ -4.248117873568127, -2.961377505531607, 3.058981700064836e-13},
{ -4.248117873568127, -2.386299089166686, 6.292208188875908e-12},
{ -4.248117873568127, -1.835531604261629, 6.210517442157013e-11},
{ -4.248117873568127, -1.3009208583896175, 3.241914306388816e-10},
{ -4.248117873568127, -0.7766829192674116, 9.489252108614961e-10},
{ -4.248117873568127, -0.2582677505190968, 1.6109182494706767e-09},
{ -4.248117873568127, 0.2582677505190968, 1.6109182494706767e-09},
{ -4.248117873568127, 0.7766829192674116, 9.489252108614961e-10},
{ -4.248117873568127, 1.3009208583896175, 3.241914306388816e-10},
{ -4.248117873568127, 1.835531604261629, 6.210517442157013e-11},
{ -4.248117873568127, 2.386299089166686, 6.292208188875908e-12},
{ -4.248117873568127, 2.961377505531607, 3.058981700064836e-13},
{ -4.248117873568127, 3.573769068486266, 6.032765914773094e-15},
{ -4.248117873568127, 4.248117873568127, 3.487479417367177e-17},
{ -4.248117873568127, 5.048364008874467, 2.6082114093206936e-20},
{ -3.573769068486266, -5.048364008874467, 4.5117768467149505e-18},
{ -3.573769068486266, -4.248117873568127, 6.032765914773094e-15},
{ -3.573769068486266, -3.573769068486266, 1.043569301117865e-12},
{ -3.573769068486266, -2.961377505531607, 5.291535325532464e-11},
{ -3.573769068486266, -2.386299089166686, 1.0884485482974876e-09},
{ -3.573769068486266, -1.835531604261629, 1.0743173924287555e-08},
{ -3.573769068486266, -1.3009208583896175, 5.607978653236761e-08},
{ -3.573769068486266, -0.7766829192674116, 1.641484574574448e-07},
{ -3.573769068486266, -0.2582677505190968, 2.7866236739625905e-07},
{ -3.573769068486266, 0.2582677505190968, 2.7866236739625905e-07},
{ -3.573769068486266, 0.7766829192674116, 1.641484574574448e-07},
{ -3.573769068486266, 1.3009208583896175, 5.607978653236761e-08},
{ -3.573769068486266, 1.835531604261629, 1.0743173924287555e-08},
{ -3.573769068486266, 2.386299089166686, 1.0884485482974876e-09},
{ -3.573769068486266, 2.961377505531607, 5.291535325532464e-11},
{ -3.573769068486266, 3.573769068486266, 1.043569301117865e-12},
{ -3.573769068486266, 4.248117873568127, 6.032765914773094e-15},
{ -3.573769068486266, 5.048364008874467, 4.5117768467149505e-18},
{ -2.961377505531607, -5.048364008874467, 2.28774711365481e-16},
{ -2.961377505531607, -4.248117873568127, 3.058981700064836e-13},
{ -2.961377505531607, -3.573769068486266, 5.291535325532464e-11},
{ -2.961377505531607, -2.961377505531607, 2.6831324063829937e-09},
{ -2.961377505531607, -2.386299089166686, 5.5191005879255695e-08},
{ -2.961377505531607, -1.835531604261629, 5.447446975281059e-07},
{ -2.961377505531607, -1.3009208583896175, 2.843588549092697e-06},
{ -2.961377505531607, -0.7766829192674116, 8.32333186054147e-06},
{ -2.961377505531607, -0.2582677505190968, 1.412988825365292e-05},
{ -2.961377505531607, 0.2582677505190968, 1.412988825365292e-05},
{ -2.961377505531607, 0.7766829192674116, 8.32333186054147e-06},
{ -2.961377505531607, 1.3009208583896175, 2.843588549092697e-06},
{ -2.961377505531607, 1.835531604261629, 5.447446975281059e-07},
{ -2.961377505531607, 2.386299089166686, 5.5191005879255695e-08},
{ -2.961377505531607, 2.961377505531607, 2.6831324063829937e-09},
{ -2.961377505531607, 3.573769068486266, 5.291535325532464e-11},
{ -2.961377505531607, 4.248117873568127, 3.058981700064836e-13},
{ -2.961377505531607, 5.048364008874467, 2.28774711365481e-16},
{ -2.386299089166686, -5.048364008874467, 4.705808185224158e-15},
{ -2.386299089166686, -4.248117873568127, 6.292208188875908e-12},
{ -2.386299089166686, -3.573769068486266, 1.0884485482974876e-09},
{ -2.386299089166686, -2.961377505531607, 5.5191005879255695e-08},
{ -2.386299089166686, -2.386299089166686, 1.135257851128663e-06},
{ -2.386299089166686, -1.835531604261629, 1.1205189774624763e-05},
{ -2.386299089166686, -1.3009208583896175, 5.8491527275287694e-05},
{ -2.386299089166686, -0.7766829192674116, 0.00017120774828604152},
{ -2.386299089166686, -0.2582677505190968, 0.0002906463892074018},
{ -2.386299089166686, 0.2582677505190968, 0.0002906463892074018},
{ -2.386299089166686, 0.7766829192674116, 0.00017120774828604152},
{ -2.386299089166686, 1.3009208583896175, 5.8491527275287694e-05},
{ -2.386299089166686, 1.835531604261629, 1.1205189774624763e-05},
{ -2.386299089166686, 2.386299089166686, 1.135257851128663e-06},
{ -2.386299089166686, 2.961377505531607, 5.5191005879255695e-08},
{ -2.386299089166686, 3.573769068486266, 1.0884485482974876e-09},
{ -2.386299089166686, 4.248117873568127, 6.292208188875908e-12},
{ -2.386299089166686, 5.048364008874467, 4.705808185224158e-15},
{ -1.835531604261629, -5.048364008874467, 4.644713419598559e-14},
{ -1.835531604261629, -4.248117873568127, 6.210517442157013e-11},
{ -1.835531604261629, -3.573769068486266, 1.0743173924287553e-08},
{ -1.835531604261629, -2.961377505531607, 5.447446975281059e-07},
{ -1.835531604261629, -2.386299089166686, 1.1205189774624763e-05},
{ -1.835531604261629, -1.835531604261629, 0.00011059714562689738},
{ -1.835531604261629, -1.3009208583896175, 0.0005773214100000609},
{ -1.835531604261629, -0.7766829192674116, 0.001689849850872215},
{ -1.835531604261629, -0.2582677505190968, 0.0028687297296737992},
{ -1.835531604261629, 0.2582677505190968, 0.0028687297296737992},
{ -1.835531604261629, 0.7766829192674116, 0.001689849850872215},
{ -1.835531604261629, 1.3009208583896175, 0.0005773214100000609},
{ -1.835531604261629, 1.835531604261629, 0.00011059714562689738},
{ -1.835531604261629, 2.386299089166686, 1.1205189774624763e-05},
{ -1.835531604261629, 2.961377505531607, 5.447446975281059e-07},
{ -1.835531604261629, 3.573769068486266, 1.0743173924287553e-08},
{ -1.835531604261629, 4.248117873568127, 6.210517442157013e-11},
{ -1.835531604261629, 5.048364008874467, 4.644713419598559e-14},
{ -1.3009208583896175, -5.048364008874467, 2.424558504877636e-13},
{ -1.3009208583896175, -4.248117873568127, 3.241914306388816e-10},
{ -1.3009208583896175, -3.573769068486266, 5.607978653236761e-08},
{ -1.3009208583896175, -2.961377505531607, 2.843588549092697e-06},
{ -1.3009208583896175, -2.386299089166686, 5.8491527275287694e-05},
{ -1.3009208583896175, -1.835531604261629, 0.0005773214100000609},
{ -1.3009208583896175, -1.3009208583896175, 0.003013640257668634},
{ -1.3009208583896175, -0.7766829192674116, 0.00882108207281505},
{ -1.3009208583896175, -0.2582677505190968, 0.014974880979582772},
{ -1.3009208583896175, 0.2582677505190968, 0.014974880979582772},
{ -1.3009208583896175, 0.7766829192674116, 0.00882108207281505},
{ -1.3009208583896175, 1.3009208583896175, 0.003013640257668634},
{ -1.3009208583896175, 1.835531604261629, 0.0005773214100000609},
{ -1.3009208583896175, 2.386299089166686, 5.8491527275287694e-05},
{ -1.3009208583896175, 2.961377505531607, 2.843588549092697e-06},
{ -1.3009208583896175, 3.573769068486266, 5.607978653236761e-08},
{ -1.3009208583896175, 4.248117873568127, 3.241914306388816e-10},
{ -1.3009208583896175, 5.048364008874467, 2.424558504877636e-13},
{ -0.7766829192674116, -5.048364008874467, 7.096809085770787e-13},
{ -0.7766829192674116, -4.248117873568127, 9.489252108614961e-10},
{ -0.7766829192674116, -3.573769068486266, 1.6414845745744481e-07},
{ -0.7766829192674116, -2.961377505531607, 8.32333186054147e-06},
{ -0.7766829192674116, -2.386299089166686, 0.00017120774828604152},
{ -0.7766829192674116, -1.835531604261629, 0.0016898498508722151},
{ -0.7766829192674116, -1.3009208583896175, 0.00882108207281505},
{ -0.7766829192674116, -0.7766829192674116, 0.02581976688735051},
{ -0.7766829192674116, -0.2582677505190968, 0.04383225695747962},
{ -0.7766829192674116, 0.2582677505190968, 0.04383225695747962},
{ -0.7766829192674116, 0.7766829192674116, 0.02581976688735051},
{ -0.7766829192674116, 1.3009208583896175, 0.00882108207281505},
{ -0.7766829192674116, 1.835531604261629, 0.0016898498508722151},
{ -0.7766829192674116, 2.386299089166686, 0.00017120774828604152},
{ -0.7766829192674116, 2.961377505531607, 8.32333186054147e-06},
{ -0.7766829192674116, 3.573769068486266, 1.6414845745744481e-07},
{ -0.7766829192674116, 4.248117873568127, 9.489252108614961e-10},
{ -0.7766829192674116, 5.048364008874467, 7.096809085770787e-13},
{ -0.2582677505190968, -5.048364008874467, 1.2047713706434682e-12},
{ -0.2582677505190968, -4.248117873568127, 1.6109182494706767e-09},
{ -0.2582677505190968, -3.573769068486266, 2.7866236739625905e-07},
{ -0.2582677505190968, -2.961377505531607, 1.4129888253652919e-05},
{ -0.2582677505190968, -2.386299089166686, 0.0002906463892074018},
{ -0.2582677505190968, -1.835531604261629, 0.0028687297296737992},
{ -0.2582677505190968, -1.3009208583896175, 0.01497488097958277},
{ -0.2582677505190968, -0.7766829192674116, 0.043832256957479616},
{ -0.2582677505190968, -0.2582677505190968, 0.07441069310845629},
{ -0.2582677505190968, 0.2582677505190968, 0.07441069310845629},
{ -0.2582677505190968, 0.7766829192674116, 0.043832256957479616},
{ -0.2582677505190968, 1.3009208583896175, 0.01497488097958277},
{ -0.2582677505190968, 1.835531604261629, 0.0028687297296737992},
{ -0.2582677505190968, 2.386299089166686, 0.0002906463892074018},
{ -0.2582677505190968, 2.961377505531607, 1.4129888253652919e-05},
{ -0.2582677505190968, 3.573769068486266, 2.7866236739625905e-07},
{ -0.2582677505190968, 4.248117873568127, 1.6109182494706767e-09},
{ -0.2582677505190968, 5.048364008874467, 1.2047713706434682e-12},
{ 0.2582677505190968, -5.048364008874467, 1.2047713706434682e-12},
{ 0.2582677505190968, -4.248117873568127, 1.6109182494706767e-09},
{ 0.2582677505190968, -3.573769068486266, 2.7866236739625905e-07},
{ 0.2582677505190968, -2.961377505531607, 1.4129888253652919e-05},
{ 0.2582677505190968, -2.386299089166686, 0.0002906463892074018},
{ 0.2582677505190968, -1.835531604261629, 0.0028687297296737992},
{ 0.2582677505190968, -1.3009208583896175, 0.01497488097958277},
{ 0.2582677505190968, -0.7766829192674116, 0.043832256957479616},
{ 0.2582677505190968, -0.2582677505190968, 0.07441069310845629},
{ 0.2582677505190968, 0.2582677505190968, 0.07441069310845629},
{ 0.2582677505190968, 0.7766829192674116, 0.043832256957479616},
{ 0.2582677505190968, 1.3009208583896175, 0.01497488097958277},
{ 0.2582677505190968, 1.835531604261629, 0.0028687297296737992},
{ 0.2582677505190968, 2.386299089166686, 0.0002906463892074018},
{ 0.2582677505190968, 2.961377505531607, 1.4129888253652919e-05},
{ 0.2582677505190968, 3.573769068486266, 2.7866236739625905e-07},
{ 0.2582677505190968, 4.248117873568127, 1.6109182494706767e-09},
{ 0.2582677505190968, 5.048364008874467, 1.2047713706434682e-12},
{ 0.7766829192674116, -5.048364008874467, 7.096809085770787e-13},
{ 0.7766829192674116, -4.248117873568127, 9.489252108614961e-10},
{ 0.7766829192674116, -3.573769068486266, 1.6414845745744481e-07},
{ 0.7766829192674116, -2.961377505531607, 8.32333186054147e-06},
{ 0.7766829192674116, -2.386299089166686, 0.00017120774828604152},
{ 0.7766829192674116, -1.835531604261629, 0.0016898498508722151},
{ 0.7766829192674116, -1.3009208583896175, 0.00882108207281505},
{ 0.7766829192674116, -0.7766829192674116, 0.02581976688735051},
{ 0.7766829192674116, -0.2582677505190968, 0.04383225695747962},
{ 0.7766829192674116, 0.2582677505190968, 0.04383225695747962},
{ 0.7766829192674116, 0.7766829192674116, 0.02581976688735051},
{ 0.7766829192674116, 1.3009208583896175, 0.00882108207281505},
{ 0.7766829192674116, 1.835531604261629, 0.0016898498508722151},
{ 0.7766829192674116, 2.386299089166686, 0.00017120774828604152},
{ 0.7766829192674116, 2.961377505531607, 8.32333186054147e-06},
{ 0.7766829192674116, 3.573769068486266, 1.6414845745744481e-07},
{ 0.7766829192674116, 4.248117873568127, 9.489252108614961e-10},
{ 0.7766829192674116, 5.048364008874467, 7.096809085770787e-13},
{ 1.3009208583896175, -5.048364008874467, 2.424558504877636e-13},
{ 1.3009208583896175, -4.248117873568127, 3.241914306388816e-10},
{ 1.3009208583896175, -3.573769068486266, 5.607978653236761e-08},
{ 1.3009208583896175, -2.961377505531607, 2.843588549092697e-06},
{ 1.3009208583896175, -2.386299089166686, 5.8491527275287694e-05},
{ 1.3009208583896175, -1.835531604261629, 0.0005773214100000609},
{ 1.3009208583896175, -1.3009208583896175, 0.003013640257668634},
{ 1.3009208583896175, -0.7766829192674116, 0.00882108207281505},
{ 1.3009208583896175, -0.2582677505190968, 0.014974880979582772},
{ 1.3009208583896175, 0.2582677505190968, 0.014974880979582772},
{ 1.3009208583896175, 0.7766829192674116, 0.00882108207281505},
{ 1.3009208583896175, 1.3009208583896175, 0.003013640257668634},
{ 1.3009208583896175, 1.835531604261629, 0.0005773214100000609},
{ 1.3009208583896175, 2.386299089166686, 5.8491527275287694e-05},
{ 1.3009208583896175, 2.961377505531607, 2.843588549092697e-06},
{ 1.3009208583896175, 3.573769068486266, 5.607978653236761e-08},
{ 1.3009208583896175, 4.248117873568127, 3.241914306388816e-10},
{ 1.3009208583896175, 5.048364008874467, 2.424558504877636e-13},
{ 1.835531604261629, -5.048364008874467, 4.644713419598559e-14},
{ 1.835531604261629, -4.248117873568127, 6.210517442157013e-11},
{ 1.835531604261629, -3.573769068486266, 1.0743173924287553e-08},
{ 1.835531604261629, -2.961377505531607, 5.447446975281059e-07},
{ 1.835531604261629, -2.386299089166686, 1.1205189774624763e-05},
{ 1.835531604261629, -1.835531604261629, 0.00011059714562689738},
{ 1.835531604261629, -1.3009208583896175, 0.0005773214100000609},
{ 1.835531604261629, -0.7766829192674116, 0.001689849850872215},
{ 1.835531604261629, -0.2582677505190968, 0.0028687297296737992},
{ 1.835531604261629, 0.2582677505190968, 0.0028687297296737992},
{ 1.835531604261629, 0.7766829192674116, 0.001689849850872215},
{ 1.835531604261629, 1.3009208583896175, 0.0005773214100000609},
{ 1.835531604261629, 1.835531604261629, 0.00011059714562689738},
{ 1.835531604261629, 2.386299089166686, 1.1205189774624763e-05},
{ 1.835531604261629, 2.961377505531607, 5.447446975281059e-07},
{ 1.835531604261629, 3.573769068486266, 1.0743173924287553e-08},
{ 1.835531604261629, 4.248117873568127, 6.210517442157013e-11},
{ 1.835531604261629, 5.048364008874467, 4.644713419598559e-14},
{ 2.386299089166686, -5.048364008874467, 4.705808185224158e-15},
{ 2.386299089166686, -4.248117873568127, 6.292208188875908e-12},
{ 2.386299089166686, -3.573769068486266, 1.0884485482974876e-09},
{ 2.386299089166686, -2.961377505531607, 5.5191005879255695e-08},
{ 2.386299089166686, -2.386299089166686, 1.135257851128663e-06},
{ 2.386299089166686, -1.835531604261629, 1.1205189774624763e-05},
{ 2.386299089166686, -1.3009208583896175, 5.8491527275287694e-05},
{ 2.386299089166686, -0.7766829192674116, 0.00017120774828604152},
{ 2.386299089166686, -0.2582677505190968, 0.0002906463892074018},
{ 2.386299089166686, 0.2582677505190968, 0.0002906463892074018},
{ 2.386299089166686, 0.7766829192674116, 0.00017120774828604152},
{ 2.386299089166686, 1.3009208583896175, 5.8491527275287694e-05},
{ 2.386299089166686, 1.835531604261629, 1.1205189774624763e-05},
{ 2.386299089166686, 2.386299089166686, 1.135257851128663e-06},
{ 2.386299089166686, 2.961377505531607, 5.5191005879255695e-08},
{ 2.386299089166686, 3.573769068486266, 1.0884485482974876e-09},
{ 2.386299089166686, 4.248117873568127, 6.292208188875908e-12},
{ 2.386299089166686, 5.048364008874467, 4.705808185224158e-15},
{ 2.961377505531607, -5.048364008874467, 2.28774711365481e-16},
{ 2.961377505531607, -4.248117873568127, 3.058981700064836e-13},
{ 2.961377505531607, -3.573769068486266, 5.291535325532464e-11},
{ 2.961377505531607, -2.961377505531607, 2.6831324063829937e-09},
{ 2.961377505531607, -2.386299089166686, 5.5191005879255695e-08},
{ 2.961377505531607, -1.835531604261629, 5.447446975281059e-07},
{ 2.961377505531607, -1.3009208583896175, 2.843588549092697e-06},
{ 2.961377505531607, -0.7766829192674116, 8.32333186054147e-06},
{ 2.961377505531607, -0.2582677505190968, 1.412988825365292e-05},
{ 2.961377505531607, 0.2582677505190968, 1.412988825365292e-05},
{ 2.961377505531607, 0.7766829192674116, 8.32333186054147e-06},
{ 2.961377505531607, 1.3009208583896175, 2.843588549092697e-06},
{ 2.961377505531607, 1.835531604261629, 5.447446975281059e-07},
{ 2.961377505531607, 2.386299089166686, 5.5191005879255695e-08},
{ 2.961377505531607, 2.961377505531607, 2.6831324063829937e-09},
{ 2.961377505531607, 3.573769068486266, 5.291535325532464e-11},
{ 2.961377505531607, 4.248117873568127, 3.058981700064836e-13},
{ 2.961377505531607, 5.048364008874467, 2.28774711365481e-16},
{ 3.573769068486266, -5.048364008874467, 4.5117768467149505e-18},
{ 3.573769068486266, -4.248117873568127, 6.032765914773094e-15},
{ 3.573769068486266, -3.573769068486266, 1.043569301117865e-12},
{ 3.573769068486266, -2.961377505531607, 5.291535325532464e-11},
{ 3.573769068486266, -2.386299089166686, 1.0884485482974876e-09},
{ 3.573769068486266, -1.835531604261629, 1.0743173924287555e-08},
{ 3.573769068486266, -1.3009208583896175, 5.607978653236761e-08},
{ 3.573769068486266, -0.7766829192674116, 1.641484574574448e-07},
{ 3.573769068486266, -0.2582677505190968, 2.7866236739625905e-07},
{ 3.573769068486266, 0.2582677505190968, 2.7866236739625905e-07},
{ 3.573769068486266, 0.7766829192674116, 1.641484574574448e-07},
{ 3.573769068486266, 1.3009208583896175, 5.607978653236761e-08},
{ 3.573769068486266, 1.835531604261629, 1.0743173924287555e-08},
{ 3.573769068486266, 2.386299089166686, 1.0884485482974876e-09},
{ 3.573769068486266, 2.961377505531607, 5.291535325532464e-11},
{ 3.573769068486266, 3.573769068486266, 1.043569301117865e-12},
{ 3.573769068486266, 4.248117873568127, 6.032765914773094e-15},
{ 3.573769068486266, 5.048364008874467, 4.5117768467149505e-18},
{ 4.248117873568127, -5.048364008874467, 2.6082114093206936e-20},
{ 4.248117873568127, -4.248117873568127, 3.487479417367177e-17},
{ 4.248117873568127, -3.573769068486266, 6.032765914773094e-15},
{ 4.248117873568127, -2.961377505531607, 3.058981700064836e-13},
{ 4.248117873568127, -2.386299089166686, 6.292208188875908e-12},
{ 4.248117873568127, -1.835531604261629, 6.210517442157013e-11},
{ 4.248117873568127, -1.3009208583896175, 3.241914306388816e-10},
{ 4.248117873568127, -0.7766829192674116, 9.489252108614961e-10},
{ 4.248117873568127, -0.2582677505190968, 1.6109182494706767e-09},
{ 4.248117873568127, 0.2582677505190968, 1.6109182494706767e-09},
{ 4.248117873568127, 0.7766829192674116, 9.489252108614961e-10},
{ 4.248117873568127, 1.3009208583896175, 3.241914306388816e-10},
{ 4.248117873568127, 1.835531604261629, 6.210517442157013e-11},
{ 4.248117873568127, 2.386299089166686, 6.292208188875908e-12},
{ 4.248117873568127, 2.961377505531607, 3.058981700064836e-13},
{ 4.248117873568127, 3.573769068486266, 6.032765914773094e-15},
{ 4.248117873568127, 4.248117873568127, 3.487479417367177e-17},
{ 4.248117873568127, 5.048364008874467, 2.6082114093206936e-20},
{ 5.048364008874467, -5.048364008874467, 1.9506256357625447e-23},
{ 5.048364008874467, -4.248117873568127, 2.6082114093206936e-20},
{ 5.048364008874467, -3.573769068486266, 4.51177684671495e-18},
{ 5.048364008874467, -2.961377505531607, 2.2877471136548096e-16},
{ 5.048364008874467, -2.386299089166686, 4.705808185224158e-15},
{ 5.048364008874467, -1.835531604261629, 4.644713419598559e-14},
{ 5.048364008874467, -1.3009208583896175, 2.424558504877636e-13},
{ 5.048364008874467, -0.7766829192674116, 7.096809085770787e-13},
{ 5.048364008874467, -0.2582677505190968, 1.2047713706434682e-12},
{ 5.048364008874467, 0.2582677505190968, 1.2047713706434682e-12},
{ 5.048364008874467, 0.7766829192674116, 7.096809085770787e-13},
{ 5.048364008874467, 1.3009208583896175, 2.424558504877636e-13},
{ 5.048364008874467, 1.835531604261629, 4.644713419598559e-14},
{ 5.048364008874467, 2.386299089166686, 4.705808185224158e-15},
{ 5.048364008874467, 2.961377505531607, 2.2877471136548096e-16},
{ 5.048364008874467, 3.573769068486266, 4.51177684671495e-18},
{ 5.048364008874467, 4.248117873568127, 2.6082114093206936e-20},
{ 5.048364008874467, 5.048364008874467, 1.9506256357625447e-23},
};
#endif //324 
#endif
